'<pad>'
'<START>'
'<EOS>'
', _'
'._'
'the_'
'in_'
''_'
'to_'
'of_'
'a_'
'and_'
'die_'
'that_'
'und_'
'I_'
'is_'
'der_'
'you_'
'ist_'
'it_'
's_'
'. _'
'we_'
'das_'
'zu_'
'And_'
'ich_'
'wir_'
'was_'
'this_'
'-_'
'es_'
'Sie_'
'sie_'
'dass_'
' -- _'
'ein_'
'von_'
'nicht_'
'Und_'
'so_'
'eine_'
'an_'
'for_'
'?_'
'are_'
'den_'
'on_'
'have_'
'mit_'
'they_'
'with_'
'auf_'
'So_'
'sich_'
't_'
'Ich_'
'can_'
'what_'
'wie_'
'be_'
'haben_'
'about_'
'all_'
': _'
'für_'
'at_'
'sind_'
'man_'
'war_'
'as_'
'not_'
'do_'
'It_'
're_'
'."_'
'Das_'
'there_'
'als_'
'people_'
'from_'
'one_'
'my_'
'like_'
'diese_'
'Es_'
'Wir_'
'wenn_'
'einen_'
'also_'
'um_'
'dem_'
'these_'
'uns_'
'just_'
'But_'
'im_'
'We_'
'but_'
'very_'
'The_'
'werden_'
'können_'
', "_'
'or_'
'if_'
'up_'
'them_'
'know_'
'oder_'
'out_'
'by_'
'me_'
'he_'
'our_'
'hat_'
'er_'
'aus_'
'going_'
' "_'
'Aber_'
'had_'
'see_'
'which_'
'des_'
'when_'
'sehr_'
'Die_'
'auch_'
'kann_'
'more_'
'über_'
'your_'
'aber_'
'because_'
'think_'
'their_'
' – _'
'wird_'
'were_'
'einer_'
'nur_'
'will_'
'who_'
'einem_'
'get_'
'm_'
've_'
'how_'
'hier_'
'would_'
'really_'
'actually_'
'time_'
'You_'
'world_'
'here_'
'mich_'
'This_'
'then_'
'gibt_'
'us_'
'dann_'
'sein_'
'Menschen_'
'way_'
'dieser_'
'etwas_'
'things_'
'some_'
'noch_'
'into_'
'In_'
'sehen_'
'don_'
'other_'
'has_'
'go_'
'Now_'
'could_'
'mir_'
'habe_'
'now_'
': "_'
'nach_'
'Welt_'
'They_'
'where_'
'? _'
'want_'
',_'
'make_'
'Wenn_'
'been_'
'years_'
'something_'
'bei_'
'alle_'
'than_'
'said_'
'mehr_'
'wurde_'
'vor_'
'two_'
'first_'
'his_'
'am_'
'right_'
'000_'
'no_'
'much_'
'machen_'
'; _'
'look_'
'zum_'
'Ihnen_'
'wirklich_'
'little_'
'meine_'
'those_'
'got_'
'say_'
'kind_'
'back_'
'over_'
'weil_'
'thing_'
'tun_'
'hatte_'
'work_'
'That_'
'sagen_'
'lot_'
'?"_'
'immer_'
'Also_'
'There_'
'dieses_'
'take_'
'keine_'
'Er_'
'life_'
'she_'
'What_'
' - _'
'only_'
'einfach_'
'unsere_'
'Dinge_'
'need_'
'her_'
'Leute_'
'diesem_'
'around_'
'Was_'
'durch_'
'" _'
'most_'
'even_'
'down_'
'being_'
'diesen_'
'da_'
'waren_'
'viele_'
'viel_'
'll_'
'different_'
'Der_'
'zwei_'
'sagte_'
'bin_'
'alles_'
'many_'
'Zeit_'
'andere_'
'new_'
'did_'
'Well_'
'eines_'
'damit_'
'10_'
'year_'
'würde_'
'müssen_'
'jetzt_'
'zur_'
'same_'
'put_'
'good_'
'Art_'
'wissen_'
'wo_'
'd_'
'"_'
'bis_'
'Leben_'
'Jahren_'
'ihre_'
'dies_'
'come_'
'called_'
'ihr_'
'doing_'
'du_'
'day_'
'He_'
'use_'
'every_'
'any_'
'through_'
'Jahre_'
'If_'
'tell_'
'gut_'
'anderen_'
'well_'
'didn_'
'three_'
'Nun_'
'great_'
'idea_'
'muss_'
'story_'
'vielleicht_'
'today_'
'talk_'
'geht_'
'why_'
'course_'
'heute_'
'möchte_'
'big_'
'davon_'
'mein_'
'human_'
'hatten_'
'einige_'
'wieder_'
'made_'
'ihn_'
'find_'
'Jahr_'
'schon_'
'last_'
'own_'
'drei_'
'after_'
'20_'
'change_'
'Hier_'
'Man_'
'selbst_'
'denn_'
'went_'
'fact_'
'came_'
'let_'
'," _'
'problem_'
'him_'
'genau_'
'Wie_'
'seine_'
'könnte_'
'give_'
'does_'
'Kinder_'
'tatsächlich_'
'still_'
'percent_'
'off_'
'looking_'
'gehen_'
'another_'
'Problem_'
'A_'
'should_'
'before_'
'paar_'
'ob_'
'Geschichte_'
'thought_'
'meiner_'
'important_'
'ihnen_'
'each_'
'system_'
'might_'
'mean_'
'long_'
'darüber_'
'together_'
'better_'
'finden_'
'found_'
'sogar_'
'its_'
'ganz_'
'Diese_'
'sondern_'
'show_'
'part_'
'few_'
'wurden_'
'wollen_'
'technology_'
'start_'
'nun_'
'next_'
'werde_'
'unserer_'
'einmal_'
'children_'
'able_'
'Dies_'
'whole_'
'started_'
'old_'
'gemacht_'
'1_'
'too_'
'place_'
'neue_'
'doesn_'
'brain_'
'Teil_'
'sort_'
'never_'
'Tag_'
'real_'
'gerade_'
'dort_'
'vom_'
'end_'
'30_'
'würden_'
'trying_'
'live_'
'example_'
'always_'
'When_'
'How_'
'100_'
'erste_'
'macht_'
'denken_'
'point_'
'lassen_'
'gab_'
'weiter_'
'try_'
'unser_'
'konnte_'
'fast_'
'bit_'
'Beispiel_'
'wanted_'
'love_'
'letzten_'
'ihren_'
'New_'
'Because_'
'used_'
'quite_'
'between_'
'ago_'
'Idee_'
'Arbeit_'
'understand_'
'mal_'
'geben_'
'again_'
'left_'
'kommt_'
'half_'
'question_'
'nie_'
'call_'
'body_'
'Dollar_'
'warum_'
'probably_'
'light_'
'etwa_'
'away_'
'Thank_'
'ohne_'
'money_'
'denen_'
'Internet_'
'Ende_'
'took_'
'means_'
'dafür_'
'Millionen_'
'50_'
'zurück_'
'natürlich_'
'maybe_'
'glaube_'
'feel_'
'believe_'
'Prozent_'
'zwischen_'
'während_'
'sprechen_'
'person_'
'million_'
'may_'
'kleine_'
'high_'
'five_'
'denke_'
'bekommen_'
'Land_'
'Frauen_'
'zeigen_'
'sollte_'
'second_'
'ganze_'
'food_'
'create_'
'thinking_'
'sieht_'
'moment_'
'große_'
'dazu_'
'All_'
'school_'
'play_'
'nichts_'
'hand_'
'enough_'
'besser_'
'One_'
'Mal_'
'Ein_'
'China_'
'wäre_'
'working_'
'sense_'
'passiert_'
'kommen_'
'interesting_'
'home_'
'car_'
'arbeiten_'
'Okay_'
'OK_'
'times_'
'pretty_'
'keinen_'
'kein_'
'gesehen_'
'dabei_'
'ziemlich_'
'such_'
'space_'
'information_'
'ihm_'
'Let_'
'Ja_'
'number_'
'mind_'
'meinen_'
'done_'
'Als_'
'wichtig_'
'unter_'
'power_'
'leben_'
'konnten_'
'ja_'
'ersten_'
'data_'
'Frage_'
'Eine_'
'!_'
'small_'
'simple_'
'makes_'
'jedes_'
'history_'
'cells_'
'building_'
'Here_'
'water_'
'verstehen_'
'sollten_'
'says_'
'sagt_'
'meisten_'
'könnten_'
'ever_'
'dachte_'
'become_'
'My_'
'Ihre_'
'wollte_'
'vier_'
'using_'
'ging_'
'everything_'
'energy_'
'country_'
'brauchen_'
'These_'
'15_'
'- _'
'saw_'
'room_'
'less_'
'learn_'
'kleinen_'
'design_'
'daran_'
'coming_'
'bedeutet_'
'York_'
'Why_'
'Oh_'
'2_'
'jeder_'
'help_'
'happens_'
'großen_'
'almost_'
'Weise_'
'Weg_'
'women_'
'told_'
'nehmen_'
'language_'
'future_'
'else_'
'Ihr_'
'pro_'
'making_'
'happened_'
'family_'
'darauf_'
'Wasser_'
'Denn_'
'Africa_'
'5_'
'versuchen_'
'schnell_'
'health_'
'global_'
'getting_'
'doch_'
'unseren_'
'kids_'
'heraus_'
'hard_'
'goes_'
'eigenen_'
'dollars_'
'countries_'
'comes_'
'anything_'
'She_'
'Raum_'
'zusammen_'
'whether_'
'weiß_'
'side_'
'meinem_'
'Dann_'
'", _'
'weniger_'
'universe_'
'picture_'
'gesagt_'
'ganzen_'
'fünf_'
'experience_'
'beim_'
'without_'
'nächsten_'
'ihrer_'
'four_'
'best_'
'ask_'
'TED_'
'Seite_'
'Mutter_'
'possible_'
'looked_'
'kam_'
'ins_'
'guy_'
'decided_'
'build_'
'across_'
'India_'
'For_'
'Erde_'
'until_'
'talking_'
'planet_'
'least_'
'happen_'
'basically_'
'answer_'
'Danke_'
'Dank_'
'ways_'
'später_'
'once_'
'jemand_'
'head_'
'eigentlich_'
'business_'
'ab_'
'Sache_'
'Milliarden_'
'Mann_'
'3_'
'"._'
'welche_'
'stuff_'
'social_'
'seiner_'
'science_'
'living_'
'lernen_'
'ideas_'
'hätten_'
'friends_'
'bringen_'
'billion_'
'already_'
'Geld_'
'! _'
'young_'
'vielen_'
'single_'
'seit_'
'process_'
'problems_'
'jeden_'
'bring_'
'bad_'
'Jetzt_'
'' _'
'yet_'
'nothing_'
'heard_'
'gehört_'
'funktioniert_'
'computer_'
'System_'
'Daten_'
'somebody_'
'per_'
'particular_'
'months_'
'lives_'
'gute_'
'beautiful_'
'allen_'
'Ort_'
'God_'
'Energie_'
'Earth_'
'Bild_'
'true_'
'top_'
'six_'
'saying_'
'project_'
'line_'
'job_'
'days_'
'book_'
'became_'
'asked_'
'Person_'
'No_'
'Gehirn_'
'Frau_'
' '_'
'zeigt_'
'liegt_'
'later_'
'indem_'
'imagine_'
'having_'
'group_'
'dich_'
'community_'
'case_'
'built_'
'both_'
'animals_'
'Technologie_'
'Schule_'
'Moment_'
'Körper_'
'Kind_'
'Im_'
'40_'
'works_'
'wenig_'
'wahrscheinlich_'
'stellen_'
'seinen_'
'sah_'
'often_'
'möglich_'
'lang_'
'gar_'
'form_'
'economy_'
'child_'
'bisschen_'
'Zukunft_'
'Vielen_'
'Fall_'
'As_'
'within_'
'wasn_'
'looks_'
'large_'
'lange_'
'keep_'
'hear_'
'full_'
'] _'
'Warum_'
'U_'
'Mädchen_'
'DNA_'
'spielen_'
'remember_'
'matter_'
'hätte_'
'heißt_'
'everybody_'
'city_'
'Menge_'
'Grund_'
'Gott_'
'Du_'
'America_'
' [_'
'wrong_'
'sure_'
'research_'
'reason_'
'piece_'
'oil_'
'nutzen_'
'move_'
'instead_'
'far_'
'exactly_'
'Wissenschaft_'
'Gefühl_'
'Computer_'
'60_'
'under_'
'study_'
'someone_'
'sei_'
'outside_'
'open_'
'news_'
'mother_'
'lots_'
'level_'
'einigen_'
'darin_'
'completely_'
'based_'
'Planeten_'
'B_'
'12_'
'while_'
'walk_'
'verschiedene_'
'sicher_'
'set_'
'seen_'
'order_'
'nennen_'
'musste_'
'hin_'
'face_'
'created_'
'anders_'
'aller_'
'air_'
'age_'
'Design_'
'Augen_'
'Antwort_'
'word_'
'turn_'
'oft_'
'nature_'
'must_'
'media_'
'figure_'
'couple_'
'cost_'
'company_'
'art_'
'amazing_'
'Leuten_'
'Ideen_'
':_'
'words_'
'species_'
'oben_'
'namens_'
'learned_'
'kinds_'
'house_'
'helfen_'
'happy_'
'gerne_'
'gegen_'
'erst_'
'entwickelt_'
'education_'
'control_'
'Universum_'
'Punkt_'
'Probleme_'
'Da_'
'third_'
'stories_'
'self_'
'schaffen_'
'neuen_'
'miles_'
'machte_'
'je_'
'inside_'
'guys_'
'glauben_'
'genug_'
'erkennen_'
'care_'
'Vater_'
'Spiel_'
'Familie_'
'Dieses_'
'Buch_'
'." _'
'überall_'
'zuvor_'
'verändert_'
'taking_'
'takes_'
'reden_'
'paper_'
'ocean_'
'menschliche_'
'itself_'
'hören_'
'government_'
'erzählen_'
'einzige_'
'cell_'
'bauen_'
'World_'
'Weil_'
'United_'
'Sprache_'
'S_'
'Prozess_'
'Projekt_'
'Natur_'
'Mein_'
'Lage_'
'Geschichten_'
'E_'
'American_'
'Am_'
'verschiedenen_'
'ungefähr_'
'turns_'
'turned_'
'treffen_'
'since_'
'richtig_'
'quickly_'
'ourselves_'
'music_'
'manchmal_'
'jedem_'
'innerhalb_'
'century_'
'benutzen_'
'beiden_'
'Wochen_'
'USA_'
'Then_'
'Nein_'
'Informationen_'
'Form_'
'500_'
'25_'
'woman_'
'weit_'
'weeks_'
'verändern_'
'verwenden_'
'taken_'
'students_'
'schwer_'
'others_'
'night_'
'moving_'
'machine_'
'learning_'
'knew_'
'kennen_'
'jede_'
'happening_'
'grow_'
'gave_'
'free_'
'fragen_'
'force_'
'fand_'
'environment_'
'disease_'
'darum_'
'begann_'
'Right_'
'On_'
'Oder_'
'Arten_'
'Angst_'
'wonderful_'
'tried_'
'themselves_'
'stop_'
'seinem_'
'sagten_'
'run_'
'read_'
'public_'
'places_'
'men_'
'low_'
'gleichen_'
'father_'
'either_'
'easy_'
'cool_'
'close_'
'buy_'
'bewegen_'
'bereits_'
'attention_'
'Or_'
'Musik_'
'Licht_'
'Doch_'
'200_'
'tiny_'
'spend_'
'society_'
'parents_'
'opportunity_'
'myself_'
'middle_'
'isn_'
'ihrem_'
'gets_'
'game_'
'entire_'
'during_'
'common_'
'born_'
'began_'
'Wissen_'
'Tiere_'
'Stunden_'
'Stadt_'
'Sinn_'
'Mit_'
'Afrika_'
'ändern_'
'won_'
'vorstellen_'
'sound_'
'sechs_'
'questions_'
'perhaps_'
'online_'
'name_'
'model_'
'longer_'
'hands_'
'gefunden_'
'front_'
'friend_'
'eyes_'
'cannot_'
'cancer_'
'bottom_'
'anderes_'
'Ziel_'
'War_'
'Vielleicht_'
'Kunst_'
'Kopf_'
'Just_'
'Erfahrung_'
'300_'
'18_'
'steht_'
'state_'
'soll_'
'seven_'
'red_'
'reality_'
'produce_'
'okay_'
'known_'
'klar_'
'interested_'
'heart_'
'growth_'
'fühlen_'
'everyone_'
'eins_'
'early_'
'direkt_'
'challenge_'
'black_'
'beginning_'
'average_'
'Zahl_'
'To_'
'States_'
'Meine_'
'Für_'
'wegen_'
'video_'
'unserem_'
'unglaublich_'
'sounds_'
'sometimes_'
'showed_'
'rest_'
'nächste_'
'needed_'
'nachdem_'
'minutes_'
'land_'
'kamen_'
'interessant_'
'innovation_'
'ice_'
'halten_'
'growing_'
'given_'
'getan_'
'führen_'
'finally_'
'euch_'
'designed_'
'creating_'
'beginnen_'
'animal_'
'against_'
'Wort_'
'Um_'
'Hilfe_'
'Fragen_'
'At_'
'11_'
'weg_'
'view_'
'though_'
'test_'
'simply_'
'rather_'
'ones_'
'non_'
'leave_'
'hours_'
'dir_'
'brought_'
'bevor_'
'besonders_'
'areas_'
'area_'
'along_'
'Sonne_'
'Ländern_'
'Krebs_'
'Kindern_'
'Indien_'
'Ihren_'
'Google_'
'Film_'
'C_'
'Bilder_'
'Auto_'
'wollten_'
'terms_'
'sterben_'
'stellte_'
'soon_'
'sitting_'
'sieben_'
'older_'
'niemals_'
'map_'
'lässt_'
'huge_'
'falls_'
'essen_'
'discovered_'
'culture_'
'changed_'
'box_'
'behind_'
'alt_'
'allem_'
'absolutely_'
'Yes_'
'Woche_'
'Vor_'
'Some_'
'Regierung_'
'Not_'
'Lebens_'
'Eltern_'
'Dieser_'
'Chinese_'
'Anfang_'
'An_'
'zweite_'
'yourself_'
'wrote_'
'worden_'
'whatever_'
'wer_'
'völlig_'
'tut_'
'systems_'
'step_'
'stehen_'
'stand_'
'spent_'
'sollen_'
'solche_'
'patients_'
'nämlich_'
'normal_'
'nine_'
'network_'
'market_'
'major_'
'mag_'
'local_'
'image_'
'hope_'
'gleich_'
'forward_'
'field_'
'feet_'
'erreichen_'
'erhalten_'
'difference_'
'deal_'
'dark_'
'compassion_'
'clear_'
'carbon_'
'ability_'
'Yeah_'
'Verhalten_'
'Unsere_'
'Sehen_'
'Patienten_'
'Möglichkeiten_'
'Minuten_'
'Is_'
'Hause_'
'Haus_'
'Hand_'
'Gruppe_'
'Gebäude_'
'David_'
'Bei_'
'überhaupt_'
'welches_'
'versucht_'
'stellt_'
'speed_'
'scale_'
'running_'
'risk_'
'recently_'
'realized_'
'poor_'
'parts_'
'morning_'
'likely_'
'lesen_'
'knowledge_'
'industry_'
'incredible_'
'herauszufinden_'
'girls_'
'gegeben_'
'further_'
'economic_'
'braucht_'
'bleiben_'
'beginnt_'
'University_'
'Teile_'
'Stück_'
'Richtung_'
'Nicht_'
'Möglichkeit_'
'Männer_'
'Monate_'
'Modell_'
'Lassen_'
'Herausforderung_'
'Gemeinschaft_'
'Forschung_'
'Afghanistan_'
'13_'
'wouldn_'
'verwendet_'
'team_'
'sofort_'
'size_'
'schreiben_'
'relationship_'
'playing_'
'plants_'
'lived_'
'key_'
'jedoch_'
'incredibly_'
'groups_'
'fragte_'
'eight_'
'developed_'
'death_'
'crisis_'
'connected_'
'audience_'
'Zum_'
'Wo_'
'Wirtschaft_'
'Staaten_'
'Schritt_'
'Sachen_'
'Rolle_'
'Publikum_'
'Nur_'
'Namen_'
'Lösung_'
'Länder_'
'Every_'
'Essen_'
'Bewegung_'
'Aufmerksamkeit_'
'7_'
'400_'
'!"_'
'wind_'
'weitere_'
'watch_'
'telling_'
'scientists_'
'result_'
'product_'
'powerful_'
'population_'
'pictures_'
'physical_'
'patterns_'
'numbers_'
'needs_'
'miteinander_'
'millions_'
'menschlichen_'
'literally_'
'letzte_'
'led_'
'individual_'
'including_'
'images_'
'hour_'
'hinter_'
'groß_'
'giving_'
'geschrieben_'
'gesamte_'
'genauso_'
'gebaut_'
'fun_'
'fest_'
'eher_'
'doctor_'
'dachten_'
'certain_'
'bread_'
'blood_'
'besten_'
'behavior_'
'basic_'
'Zellen_'
'Viele_'
'Stellen_'
'Reihe_'
'John_'
'Ihrer_'
'Experiment_'
'English_'
'D_'
'City_'
'Bedeutung_'
'Anzahl_'
' ..._'
'wusste_'
'writing_'
'unten_'
'unseres_'
'understanding_'
'tat_'
'short_'
'seeing_'
'projects_'
'patient_'
'past_'
'nimmt_'
'natural_'
'liebe_'
'leicht_'
'jemals_'
'irgendwie_'
'interest_'
'green_'
'felt_'
'eigene_'
'deren_'
'center_'
'brachte_'
'beste_'
'beobachten_'
'anfangen_'
'access_'
'West_'
'Web_'
'Unterschied_'
'Roboter_'
'North_'
'Grunde_'
'Generation_'
'First_'
'6_'
'16_'
' -- -- _'
'zwar_'
'zeige_'
'zehn_'
'write_'
'worked_'
'wohl_'
'white_'
'theory_'
'technologies_'
'structure_'
'stage_'
'special_'
'speak_'
'skills_'
'showing_'
'share_'
'schön_'
'political_'
'plötzlich_'
'neu_'
'mussten_'
'lieben_'
'leaders_'
'hundreds_'
'higher_'
'haven_'
'happiness_'
'größte_'
'gone_'
'gleiche_'
'gezeigt_'
'gelernt_'
'gegenüber_'
'führt_'
'fliegen_'
'feeling_'
'fanden_'
'falsch_'
'expensive_'
'drive_'
'dream_'
'climate_'
'books_'
'amount_'
'among_'
'Verbindung_'
'Tagen_'
'Studenten_'
'Stimme_'
'South_'
'Rest_'
'Platz_'
'Liebe_'
'Jahrhundert_'
'Hälfte_'
'Gesellschaft_'
'Gedanken_'
'Freund_'
'Finger_'
'Europe_'
'Dr_'
'Don_'
'Boden_'
'Alles_'
',] [_'
'zuerst_'
'website_'
'wachsen_'
'value_'
'traditional_'
'tools_'
'surface_'
'solve_'
'solar_'
'sit_'
'seem_'
'schneller_'
'reading_'
'program_'
'pick_'
'nein_'
'mögen_'
'moved_'
'met_'
'measure_'
'materials_'
'material_'
'machten_'
'los_'
'lines_'
'largest_'
'komplett_'
'humans_'
'girl_'
'generation_'
'focus_'
'fish_'
'fine_'
'erreicht_'
'einfache_'
'development_'
'dessen_'
'cut_'
'couldn_'
'content_'
'color_'
'class_'
'chance_'
'cars_'
'bist_'
'benutzt_'
'bekommt_'
'anybody_'
'anstatt_'
'ansehen_'
'allow_'
'Zahlen_'
'Which_'
'Washington_'
'Technologien_'
'Tatsächlich_'
'Tages_'
'Selbst_'
'Regeln_'
'Pflanzen_'
'Of_'
'London_'
'Liste_'
'Kultur_'
'Iran_'
'Fähigkeit_'
'Evolution_'
'Entwicklung_'
'Do_'
'Bücher_'
'By_'
'4_'
' $_'
'week_'
'wahr_'
'vision_'
'village_'
'versuchte_'
'versuche_'
'upon_'
'success_'
'starting_'
'situation_'
'similar_'
'sehe_'
'security_'
'scheint_'
'schauen_'
'richtigen_'
'recht_'
'potential_'
'pieces_'
'pay_'
'object_'
'nachdenken_'
'mine_'
'meet_'
'meant_'
'mache_'
'loved_'
'kurz_'
'kid_'
'hast_'
'guess_'
'gewesen_'
'geschieht_'
'gern_'
'funktionieren_'
'faster_'
'evidence_'
'entwickeln_'
'drug_'
'died_'
'developing_'
'dead_'
'current_'
'communities_'
'certainly_'
'capacity_'
'bereit_'
'babies_'
'asking_'
'anyone_'
'acht_'
'Who_'
'Western_'
'Vorstellung_'
'Von_'
'Umgebung_'
'Tatsache_'
'Seiten_'
'Schauen_'
'Our_'
'Nummer_'
'Meter_'
'Mensch_'
'Künstler_'
'Jeder_'
'Freunde_'
'Even_'
'Einstein_'
'Dingen_'
'Can_'
'CO2_'
'Aufgabe_'
'17_'
'.] [_'
'% _'
'ähnlich_'
'wären_'
'wants_'
'vorher_'
'verloren_'
'towards_'
'thousands_'
'teilen_'
'suchen_'
'shape_'
'sell_'
'seems_'
'screen_'
'schools_'
'save_'
'road_'
'realize_'
'present_'
'period_'
'perfect_'
'passierte_'
'passieren_'
'page_'
'onto_'
'oh_'
'medical_'
'law_'
'intelligence_'
'hörte_'
'hospital_'
'hoffe_'
'hoch_'
'himself_'
'herzustellen_'
'ground_'
'glücklich_'
'geboren_'
'follow_'
'fire_'
'fight_'
'especially_'
'entfernt_'
'eat_'
'draußen_'
'crazy_'
'companies_'
'college_'
'boy_'
'blue_'
'bewegt_'
'betrachten_'
'anderer_'
'alten_'
'add_'
'absolut_'
'Wer_'
'Wahrheit_'
'Wachstum_'
'Veränderung_'
'Thema_'
'Stunde_'
'People_'
'Maschine_'
'Macht_'
'Karte_'
'Japan_'
'Ist_'
'Gruppen_'
'Glück_'
'Fähigkeiten_'
'Einige_'
'Bildung_'
'Bezug_'
'Autos_'
'Alle_'
'80_'
'14_'
'/_'
'wife_'
'welcher_'
'vorbei_'
'verbunden_'
'truly_'
'tragen_'
'total_'
'thank_'
'sun_'
'street_'
'stay_'
'soziale_'
'shows_'
'several_'
'sea_'
'schrieb_'
'resources_'
'rate_'
'quality_'
'physics_'
'pattern_'
'notice_'
'nice_'
'nennt_'
'minute_'
'lost_'
'links_'
'liegen_'
'invented_'
'hot_'
'herum_'
'gives_'
'gesprochen_'
'genutzt_'
'gekommen_'
'gas_'
'fuel_'
'foot_'
'fly_'
'finding_'
'explain_'
'experiment_'
'entdecken_'
'ended_'
'earlier_'
'draw_'
'digital_'
'damals_'
'daher_'
'complex_'
'camera_'
'board_'
'birds_'
'bigger_'
'besteht_'
'baby_'
'available_'
'activity_'
'action_'
'] [_'
'Wikipedia_'
'Unternehmen_'
'Technik_'
'Tage_'
'Spaß_'
'Situation_'
'Revolution_'
'Programm_'
'Morgen_'
'Monaten_'
'Kraft_'
'Ihrem_'
'Hey_'
'Europa_'
'Designer_'
'Bevölkerung_'
'Beispiele_'
'Auswirkungen_'
'Auf_'
'8_'
' % _'
'ziehen_'
'worth_'
'worse_'
'wichtiger_'
'whose_'
'watching_'
'verlassen_'
'unmöglich_'
'type_'
'totally_'
'teach_'
'talked_'
'student_'
'spielt_'
'sonst_'
'solution_'
'sky_'
'scientific_'
'schließlich_'
'schlecht_'
'sage_'
'ready_'
'position_'
'plan_'
'phone_'
'peace_'
'nuclear_'
'niemand_'
'nenne_'
'möchten_'
'military_'
'lose_'
'listen_'
'lab_'
'kleiner_'
'kannst_'
'jobs_'
'issues_'
'involved_'
'impact_'
'immediately_'
'imagination_'
'hit_'
'hilft_'
'goal_'
'geworden_'
'genannt_'
'feed_'
'erschaffen_'
'effective_'
'effect_'
'drugs_'
'diversity_'
'difficult_'
'context_'
'conditions_'
'computers_'
'code_'
'changing_'
'bought_'
'bitte_'
'beyond_'
'begin_'
'becomes_'
'beauty_'
'aussieht_'
'allowed_'
'Zu_'
'Vortrag_'
'Video_'
'Verständnis_'
'Umwelt_'
'Team_'
'T_'
'Studien_'
'Studie_'
'Schulen_'
'Richard_'
'Osten_'
'Oberfläche_'
'Mitte_'
'Medien_'
'Maybe_'
'Linie_'
'Kontrolle_'
'Kollegen_'
'Information_'
'Heute_'
'HIV_'
'Facebook_'
'Ergebnis_'
'Erfolg_'
'Eigenschaften_'
'East_'
'Chris_'
'?" _'
'90_'
'70_'
'z_'
'yes_'
'yeah_'
'written_'
'weltweit_'
'weapons_'
'voice_'
'vergessen_'
'verbinden_'
'twice_'
'term_'
'teacher_'
'subject_'
'stimmt_'
'stark_'
'square_'
'son_'
'serious_'
'send_'
'seien_'
'rules_'
'role_'
'positive_'
'policy_'
'performance_'
'path_'
'obviously_'
'neurons_'
'meines_'
'massive_'
'leisten_'
'late_'
'konzentrieren_'
'kleines_'
'kept_'
'kaufen_'
'indeed_'
'impossible_'
'ihres_'
'herausfinden_'
'guten_'
'general_'
'fühlte_'
'fix_'
'finde_'
'fangen_'
'fall_'
'eye_'
'excited_'
'except_'
'examples_'
'evolution_'
'equivalent_'
'environmental_'
'engine_'
'electricity_'
'develop_'
'creativity_'
'complicated_'
'cognitive_'
'cities_'
'changes_'
'bringt_'
'brains_'
'bekam_'
'beide_'
'becoming_'
'approach_'
'anywhere_'
'alone_'
'Zugang_'
'Zeitpunkt_'
'Where_'
'Westen_'
'Wert_'
'Tieren_'
'Those_'
'Street_'
'Physik_'
'Modelle_'
'Mars_'
'Many_'
'Landwirtschaft_'
'Innovation_'
'Haut_'
'Harvard_'
'Great_'
'Formen_'
'Eines_'
'Ding_'
'Denken_'
'Darwin_'
'California_'
'Beziehung_'
'Bewusstsein_'
'Asia_'
'After_'
'99_'
'., _'
' — _'
'zweiten_'
'wish_'
'weight_'
'voll_'
'unterschiedliche_'
'trees_'
'treatment_'
'tief_'
'taten_'
'suddenly_'
'starts_'
'stars_'
'somewhere_'
'solutions_'
'sent_'
'seconds_'
'search_'
'rund_'
'rich_'
'results_'
'rechts_'
'range_'
'putting_'
'produzieren_'
'please_'
'planets_'
'phenomenon_'
'personal_'
'original_'
'office_'
'obwohl_'
'nahmen_'
'multiple_'
'movement_'
'mostly_'
'modern_'
'models_'
'minds_'
'mental_'
'memory_'
'medicine_'
'mass_'
'manche_'
'main_'
'literature_'
'lead_'
'kostet_'
'killed_'
'kaum_'
'issue_'
'interessiert_'
'increase_'
'income_'
'hundred_'
'helped_'
'hab_'
'größten_'
'gewinnen_'
'geschehen_'
'gegangen_'
'ganzes_'
'fahren_'
'extremely_'
'evolved_'
'everywhere_'
'eventually_'
'event_'
'essentially_'
'erzählte_'
'engage_'
'einfachen_'
'ebenfalls_'
'deine_'
'de_'
'daraus_'
'critical_'
'creative_'
'consider_'
'coffee_'
'carry_'
'bunch_'
'buildings_'
'bewusst_'
'bestimmt_'
'begannen_'
'bedeuten_'
'außer_'
'aussehen_'
'act_'
'Zeug_'
'Wissenschaftler_'
'Wesen_'
'Werkzeuge_'
'TV_'
'Straße_'
'Sicht_'
'Schüler_'
'School_'
'Orte_'
'Ordnung_'
'Natürlich_'
'NASA_'
'Meilen_'
'Manche_'
'Luft_'
'Los_'
'Look_'
'Landes_'
'Krieg_'
'Konzept_'
'Kamera_'
'Jobs_'
'Instead_'
'Grenzen_'
'Gesundheit_'
'Gesetz_'
'George_'
'Ganze_'
'From_'
'Flugzeug_'
'Firmen_'
'Firma_'
'Ergebnisse_'
'College_'
'Beziehungen_'
'Australia_'
'Another_'
'Americans_'
'AIDS_'
'3D_'
'24_'
'zeigte_'
'window_'
'wait_'
'visual_'
'verkauft_'
'verbringen_'
'useful_'
'urban_'
'truth_'
'trouble_'
'trial_'
'therefore_'
'television_'
'teaching_'
'tail_'
'supposed_'
'support_'
'stolz_'
'sprach_'
'specific_'
'speaking_'
'source_'
'somehow_'
'sodass_'
'shown_'
'scientist_'
'river_'
'riesige_'
'religion_'
'published_'
'production_'
'private_'
'pressure_'
'points_'
'photo_'
'particularly_'
'normalerweise_'
'networks_'
'museum_'
'muscle_'
'moves_'
'lösen_'
'läuft_'
'länger_'
'laufen_'
'larger_'
'lag_'
'journey_'
'irgendetwas_'
'investieren_'
'individuals_'
'heutigen_'
'hearing_'
'großer_'
'grosse_'
'grew_'
'graph_'
'gehe_'
'führte_'
'funny_'
'following_'
'flying_'
'floor_'
'financial_'
'film_'
'favorite_'
'extraordinary_'
'extra_'
'erlaubt_'
'empty_'
'dreams_'
'door_'
'dadurch_'
'cultural_'
'costs_'
'connection_'
'complete_'
'click_'
'brilliant_'
'bodies_'
'birth_'
'below_'
'bekannt_'
'bald_'
'aren_'
'architecture_'
'angefangen_'
'allein_'
'alive_'
'afford_'
'adults_'
'Vereinigten_'
'Universität_'
'Spielen_'
'Sinne_'
'September_'
'Sekunde_'
'Politik_'
'National_'
'Most_'
'Menschheit_'
'Medizin_'
'Lösungen_'
'Lehrer_'
'Labor_'
'Klimawandel_'
'King_'
'K_'
'Israel_'
'Indian_'
'Gesicht_'
'Freiheit_'
'Foto_'
'Familien_'
'England_'
'Eis_'
'Beginn_'
'Artikel_'
'Arm_'
'Architektur_'
'Apple_'
'Ahnung_'
'Actually_'
'800_'
'19_'
'zumindest_'
'wussten_'
'wichtige_'
'warming_'
'wall_'
'voller_'
'verursacht_'
'various_'
'usually_'
'uses_'
'untersuchen_'
'unique_'
'unglaubliche_'
'trotzdem_'
'travel_'
'touch_'
'throughout_'
'thousand_'
'teeth_'
'taste_'
'summer_'
'store_'
'starb_'
'star_'
'speech_'
'sold_'
'software_'
'skin_'
'shot_'
'sharing_'
'seines_'
'schafft_'
'safe_'
'rise_'
'reach_'
'purpose_'
'pull_'
'products_'
'practice_'
'possibility_'
'offer_'
'objects_'
'nehme_'
'neben_'
'möglichen_'
'month_'
'mentioned_'
'math_'
'levels_'
'legen_'
'langsam_'
'häufig_'
'hält_'
'hunderte_'
'hold_'
'hart_'
'globalen_'
'giant_'
'gesamten_'
'gedacht_'
'gebe_'
'früher_'
'forth_'
'foreign_'
'fing_'
'familiar_'
'faces_'
'expect_'
'exists_'
'erklären_'
'erfolgreich_'
'entdeckt_'
'einfacher_'
'driving_'
'dollar_'
'distance_'
'device_'
'deshalb_'
'democracy_'
'decade_'
'danke_'
'danach_'
'cycle_'
'continue_'
'consciousness_'
'concept_'
'circle_'
'chemical_'
'chair_'
'block_'
'biggest_'
'benefit_'
'begins_'
'arbeitet_'
'arbeite_'
'anymore_'
'anschauen_'
'amp_'
'amerikanischen_'
'although_'
'ahead_'
'Zwei_'
'Zuhause_'
'Veränderungen_'
'Verantwortung_'
'US_'
'Typ_'
'Tier_'
'Think_'
'Test_'
'Tat_'
'Sun_'
'Stelle_'
'Software_'
'Sicherheit_'
'San_'
'Ressourcen_'
'Punkte_'
'Professor_'
'Produkte_'
'Prinzip_'
'Nachricht_'
'Mr_'
'Mitgefühl_'
'Mexico_'
'Methode_'
'Medikamente_'
'Mathematik_'
'Material_'
'Maschinen_'
'Klasse_'
'Jungs_'
'Job_'
'Jedes_'
'Jahrhunderts_'
'Island_'
'Hoffnung_'
'Größe_'
'Großteil_'
'Gene_'
'Gebiet_'
'Dorf_'
'Bühne_'
'Beweis_'
'Are_'
'Again_'
'35_'
'. "_'
'" -- _'
'übertragen_'
'überleben_'
'ändert_'
'Öl_'
'zero_'
'worry_'
'wire_'
'willing_'
'wild_'
'weird_'
'walls_'
'verteilt_'
'verlieren_'
'vaccine_'
'types_'
'transformation_'
'train_'
'tough_'
'terrible_'
'tend_'
'taught_'
'successful_'
'sub_'
'ständig_'
'struggle_'
'streets_'
'strange_'
'spoke_'
'spending_'
'sorts_'
'slow_'
'sleep_'
'signals_'
'shift_'
'sex_'
'schlechte_'
'rule_'
'richtige_'
'remarkable_'
'record_'
'reagieren_'
'ran_'
'raise_'
'protect_'
'profound_'
'produced_'
'police_'
'plant_'
'photographs_'
'park_'
'organisms_'
'occur_'
'neues_'
'necessary_'
'names_'
'modernen_'
'managed_'
'machines_'
'listening_'
'list_'
'laws_'
'launched_'
'km_'
'jemanden_'
'irgendwo_'
'international_'
'institutions_'
'independent_'
'heutzutage_'
'heisst_'
'handelt_'
'großes_'
'gravity_'
'gingen_'
'geschah_'
'genommen_'
'genetic_'
'galaxies_'
'fundamental_'
'folgen_'
'flight_'
'fit_'
'final_'
'fertig_'
'feels_'
'fantastic_'
'families_'
'extrem_'
'exciting_'
'erzählt_'
'erzeugen_'
'erstaunlich_'
'ermöglicht_'
'entweder_'
'einzelne_'
'eigenes_'
'ehrlich_'
'egal_'
'easier_'
'double_'
'dog_'
'dimensional_'
'differently_'
'diejenigen_'
'deeper_'
'decide_'
'davor_'
'dauert_'
'corner_'
'connect_'
'communication_'
'cold_'
'clearly_'
'choice_'
'character_'
'career_'
'blocks_'
'biology_'
'betrachtet_'
'bessere_'
'battle_'
'basis_'
'background_'
'arguments_'
'address_'
'actual_'
'Wörter_'
'Während_'
'With_'
'Wirklichkeit_'
'Website_'
'Vorteil_'
'Versuch_'
'Unser_'
'Typen_'
'Times_'
'Theorie_'
'Systeme_'
'Sonnenlicht_'
'Sekunden_'
'See_'
'Religion_'
'Papier_'
'Orten_'
'Netzwerk_'
'Name_'
'Nacht_'
'Monat_'
'Million_'
'Markt_'
'MIT_'
'Like_'
'Last_'
'L_'
'Kreativität_'
'Krankheit_'
'Konsequenzen_'
'Karten_'
'Kampf_'
'Jungen_'
'Gut_'
'Geschwindigkeit_'
'Gerät_'
'Forscher_'
'Feuer_'
'Fehler_'
'Einer_'
'Ebene_'
'Dort_'
'Derek_'
'Bush_'
'Big_'
'Bereich_'
'Auge_'
'African_'
'2005_'
'2004_'
'150_'
'0_'
'übrigens_'
'überzeugen_'
'Über_'
'wobei_'
'waste_'
'walked_'
'vollständig_'
'virus_'
'verkaufen_'
'verbessern_'
'turning_'
'trinken_'
'tree_'
'treat_'
'training_'
'traf_'
'toll_'
'throw_'
'temperature_'
'teachers_'
'sustainable_'
'suggest_'
'studies_'
'strong_'
'straight_'
'stem_'
'stecken_'
'states_'
'spricht_'
'spread_'
'sorry_'
'sobald_'
'sitzen_'
'sign_'
'series_'
'sequence_'
'schwierig_'
'schicken_'
'schaut_'
'sahen_'
'robot_'
'riesigen_'
'response_'
'represents_'
'related_'
'reasons_'
'rain_'
'quick_'
'provide_'
'poverty_'
'post_'
'politische_'
'platform_'
'pages_'
'opportunities_'
'opened_'
'normally_'
'nochmal_'
'nobody_'
'neun_'
'near_'
'natürliche_'
'named_'
'möglicherweise_'
'movie_'
'molecules_'
'molecule_'
'messen_'
'message_'
'meistens_'
'meaning_'
'match_'
'magic_'
'lucky_'
'ließ_'
'lesson_'
'legs_'
'layer_'
'launch_'
'knows_'
'junge_'
'invited_'
'interessante_'
'influence_'
'iPhone_'
'hinein_'
'highly_'
'halte_'
'habt_'
'größere_'
'größer_'
'gleichzeitig_'
'gewonnen_'
'genes_'
'gemeinsam_'
'gehabt_'
'geführt_'
'gefragt_'
'gebracht_'
'gearbeitet_'
'games_'
'focused_'
'flu_'
'finger_'
'famous_'
'events_'
'ergibt_'
'einzigen_'
'einander_'
'effort_'
'earth_'
'drop_'
'dritte_'
'dreht_'
'discussion_'
'deswegen_'
'desto_'
'designing_'
'designers_'
'desert_'
'deinen_'
'dance_'
'core_'
'conversation_'
'coal_'
'civilization_'
'challenges_'
'broken_'
'bringing_'
'biological_'
'bilden_'
'bietet_'
'benötigen_'
'believed_'
'bees_'
'bacteria_'
'arm_'
'anyway_'
'ancient_'
'allows_'
'according_'
'above_'
'Zero_'
'Wüste_'
'Wind_'
'Vergleich_'
'Vergangenheit_'
'Tochter_'
'Thomas_'
'Their_'
'Taliban_'
'Städte_'
'Struktur_'
'Sohn_'
'Reise_'
'Rede_'
'Preis_'
'Please_'
'Planet_'
'Organismen_'
'Noch_'
'Muster_'
'Mond_'
'Middle_'
'Michael_'
'Meinung_'
'Meer_'
'Laptop_'
'Kosten_'
'Komplexität_'
'Kirche_'
'Junge_'
'James_'
'Interesse_'
'Institute_'
'Industrie_'
'His_'
'Herz_'
'Haben_'
'Good_'
'Gesetze_'
'Genom_'
'Gemeinde_'
'Gehirns_'
'Ganz_'
'Galaxien_'
'Freunden_'
'French_'
'Fluss_'
'Fisch_'
'Erfahrungen_'
'Englisch_'
'Did_'
'Daher_'
'Britain_'
'Blick_'
'Bienen_'
'Ben_'
'Abend_'
'80s_'
'600_'
'48_'
'21_'
'2000_'
'Ärzte_'
'wissenschaftlichen_'
'win_'
'wert_'
'weiss_'
'weder_'
'web_'
'videos_'
'verstanden_'
'verrückt_'
'verbracht_'
'valuable_'
'unless_'
'understood_'
'trotz_'
'trick_'
'trend_'
'tremendous_'
'treated_'
'trained_'
'town_'
'testen_'
'technical_'
'task_'
'table_'
'supply_'
'starten_'
'standing_'
'sowohl_'
'south_'
'solved_'
'smart_'
'slide_'
'significant_'
'selben_'
'scheinen_'
'sat_'
'rights_'
'rid_'
'represent_'
'rein_'
'recognize_'
'recent_'
'puts_'
'push_'
'proteins_'
'promise_'
'progress_'
'price_'
'pleasure_'
'perspective_'
'percentage_'
'passenger_'
'opening_'
'offensichtlich_'
'obvious_'
'nötig_'
'novel_'
'none_'
'nahe_'
'moon_'
'moderne_'
'meat_'
'male_'
'lower_'
'lies_'
'lief_'
'lethal_'
'leaving_'
'leaves_'
'killing_'
'kill_'
'jungen_'
'jemandem_'
'intelligent_'
'instance_'
'inspired_'
'insight_'
'importantly_'
'hydrogen_'
'husband_'
'holen_'
'hinzu_'
'hinaus_'
'herstellen_'
'healthy_'
'heads_'
'hauptsächlich_'
'harder_'
'großartige_'
'gotten_'
'gestern_'
'geschafft_'
'generate_'
'gaben_'
'frühen_'
'freien_'
'forces_'
'finish_'
'fear_'
'falsche_'
'extreme_'
'experts_'
'exist_'
'etc_'
'erzeugt_'
'erinnern_'
'erfahren_'
'entwickelte_'
'entschieden_'
'entscheiden_'
'enormous_'
'endlich_'
'email_'
'electrical_'
'edge_'
'echte_'
'ebenso_'
'eating_'
'driver_'
'driven_'
'dolphins_'
'doctors_'
'distribution_'
'diseases_'
'direction_'
'denkt_'
'degrees_'
'define_'
'deep_'
'date_'
'dangerous_'
'curious_'
'cross_'
'creates_'
'constantly_'
'components_'
'complexity_'
'com_'
'closer_'
'closed_'
'clinical_'
'choices_'
'catch_'
'campaign_'
'ca_'
'blow_'
'bleibt_'
'beschäftigt_'
'behandelt_'
'behandeln_'
'befindet_'
'baut_'
'basiert_'
'artists_'
'appear_'
'anti_'
'alte_'
'akzeptieren_'
'aktiv_'
'admit_'
'Zelle_'
'Wege_'
'Wandel_'
'Wahl_'
'Wagen_'
'Vision_'
'Verstand_'
'Universums_'
'Twitter_'
'Traum_'
'Suche_'
'Sterne_'
'Spezies_'
'Schwester_'
'SW_'
'Rätsel_'
'Robert_'
'Religionen_'
'Region_'
'Produkt_'
'Patient_'
'Paris_'
'Once_'
'Nähe_'
'Nachrichten_'
'Nach_'
'Museum_'
'Manhattan_'
'M_'
'Leistung_'
'Leidenschaft_'
'Laden_'
'Können_'
'Krise_'
'Korea_'
'Konferenz_'
'Kalifornien_'
'Intelligenz_'
'Hände_'
'Howard_'
'Himmel_'
'Gewalt_'
'Geschäft_'
'Genau_'
'Gemeinden_'
'Gelegenheit_'
'Gegenteil_'
'Gefahr_'
'Geburt_'
'GPS_'
'Fünf_'
'Fuß_'
'Frieden_'
'Fortschritt_'
'Existenz_'
'Entscheidungen_'
'Entscheidung_'
'Damit_'
'Center_'
'Cambridge_'
'Biologie_'
'Bill_'
'Behandlung_'
'Ausbildung_'
'Arzt_'
'Antworten_'
'Amerika_'
'Adam_'
'32_'
'27_'
'2009_'
'2003_'
'... _'
'". _'
' ... _'
'worst_'
'wissenschaftliche_'
'wisdom_'
'wieso_'
'weren_'
'wenigstens_'
'wann_'
'wahre_'
'vollkommen_'
'version_'
'verbreitet_'
'upper_'
'unterstützen_'
'unfortunately_'
'transform_'
'tragedy_'
'trade_'
'tool_'
'tells_'
'tech_'
'suffering_'
'subjects_'
'studied_'
'structures_'
'stick_'
'statt_'
'stages_'
'specifically_'
'sorgen_'
'song_'
'soil_'
'smell_'
'skill_'
'silk_'
'signal_'
'sicherlich_'
'shouldn_'
'shoes_'
'seriously_'
'schöne_'
'saved_'
'roof_'
'robots_'
'region_'
'rechten_'
'raw_'
'radiation_'
'proposed_'
'programs_'
'prices_'
'predict_'
'possibly_'
'plus_'
'played_'
'passion_'
'passen_'
'paint_'
'oxygen_'
'offen_'
'notion_'
'note_'
'neighborhood_'
'nahm_'
'nachzudenken_'
'mountain_'
'mitten_'
'mission_'
'meaningful_'
'mathematics_'
'married_'
'limit_'
'liked_'
'lieber_'
'letztes_'
'lernt_'
'lautet_'
'laut_'
'languages_'
'landscape_'
'kürzlich_'
'kontrollieren_'
'keeping_'
'invisible_'
'invest_'
'introduced_'
'innovative_'
'ideal_'
'hört_'
'horse_'
'holding_'
'herausgefunden_'
'held_'
'heißen_'
'handeln_'
'größeren_'
'grown_'
'greatest_'
'grandmother_'
'grade_'
'globale_'
'gilt_'
'getötet_'
'gestorben_'
'gestellt_'
'gespielt_'
'geschickt_'
'genome_'
'fördern_'
'fuhr_'
'frei_'
'freedom_'
'former_'
'forever_'
'forest_'
'flowers_'
'flow_'
'flog_'
'findet_'
'fallen_'
'explore_'
'explained_'
'expected_'
'erzähle_'
'erster_'
'erstellt_'
'ermöglichen_'
'erlauben_'
'erkennt_'
'erhält_'
'erfunden_'
'entstanden_'
'entlang_'
'engineering_'
'ends_'
'encourage_'
'emotional_'
'emerging_'
'efficient_'
'effects_'
'effectively_'
'dry_'
'discover_'
'designer_'
'decades_'
'debate_'
'dealing_'
'dasselbe_'
'dagegen_'
'cover_'
'copy_'
'cooking_'
'continues_'
'consumption_'
'considered_'
'conference_'
'choose_'
'childhood_'
'chain_'
'central_'
'cause_'
'cases_'
'carrying_'
'capital_'
'budget_'
'break_'
'blind_'
'bitten_'
'bits_'
'bestimmte_'
'beings_'
'beinahe_'
'befinden_'
'bed_'
'bat_'
'base_'
'ball_'
'außerdem_'
'aufzubauen_'
'atoms_'
'arbeitete_'
'apart_'
'annehmen_'
'amerikanische_'
'agriculture_'
'agree_'
'active_'
'absolute_'
'Zustand_'
'Zivilisation_'
'Zimmer_'
'Zentrum_'
'Zeiten_'
'Your_'
'Vorfahren_'
'Volk_'
'Very_'
'Version_'
'Tür_'
'Tradition_'
'Tod_'
'Teilen_'
'Take_'
'Summe_'
'Straßen_'
'Spitze_'
'Seit_'
'Schönheit_'
'Schritte_'
'Russia_'
'Regel_'
'Recht_'
'Realität_'
'Reaktion_'
'Radio_'
'Projekte_'
'Position_'
'Politiker_'
'Organisation_'
'Opfer_'
'Open_'
'Online_'
'Objekt_'
'Nutzen_'
'Norden_'
'Netzwerke_'
'Netz_'
'Mittel_'
'Mir_'
'Minute_'
'Mehrheit_'
'Manchmal_'
'Lebewesen_'
'Lachen_'
'Krankenhaus_'
'Kindheit_'
'Kilometer_'
'Kenya_'
'Jupiter_'
'Imagine_'
'II_'
'Händen_'
'Hintergrund_'
'Hinsicht_'
'High_'
'Herzen_'
'Gründe_'
'Grün_'
'Grad_'
'Gottes_'
'Go_'
'Gewicht_'
'Geschenk_'
'General_'
'Gedanke_'
'Futter_'
'Francisco_'
'Fläche_'
'Fenster_'
'Farben_'
'Farbe_'
'Everybody_'
'Entwicklungsländern_'
'Einsatz_'
'Deshalb_'
'Depression_'
'Definition_'
'Damen_'
'Dabei_'
'Come_'
'Brot_'
'British_'
'Bitte_'
'Bildern_'
'Bereichen_'
'Begriff_'
'Bank_'
'Band_'
'Baby_'
'Auch_'
'Armut_'
'April_'
'Abschluss_'
'9_'
'75_'
'45_'
'20th_'
'2010_'
'2008_'
'2002_'
'-, _'
' -_'
'öffentliche_'
'zieht_'
'yellow_'
'x_'
'wünschte_'
'wuchs_'
'workers_'
'woran_'
'wondering_'
'wisst_'
'whenever_'
'whales_'
'westlichen_'
'warten_'
'visit_'
'viruses_'
'violence_'
'versuchten_'
'verhindern_'
'users_'
'unusual_'
'unterrichten_'
'underneath_'
'umzugehen_'
'töten_'
'typical_'
'trifft_'
'traffic_'
'tons_'
'tonight_'
'theater_'
'thanks_'
'tax_'
'talks_'
'survive_'
'surprised_'
'super_'
'stimmen_'
'staff_'
'spreche_'
'sophisticated_'
'solchen_'
'smoke_'
'smile_'
'slowly_'
'sister_'
'shared_'
'setzt_'
'setzen_'
'services_'
'service_'
'senses_'
'selber_'
'seemed_'
'seat_'
'schließen_'
'saß_'
'saving_'
'safety_'
'sad_'
'rocket_'
'rock_'
'ring_'
'revolution_'
'return_'
'recovery_'
'recording_'
'raus_'
'rates_'
'race_'
'quasi_'
'pyramid_'
'puzzle_'
'proud_'
'protein_'
'properties_'
'profit_'
'professional_'
'producing_'
'prize_'
'plastic_'
'plane_'
'phones_'
'perception_'
'peak_'
'patent_'
'party_'
'otherwise_'
'organizations_'
'orange_'
'operating_'
'näher_'
'notwendig_'
'noise_'
'nervous_'
'negative_'
'morgen_'
'mobile_'
'miracle_'
'messages_'
'member_'
'matters_'
'markets_'
'maintain_'
'loss_'
'linken_'
'letter_'
'lernte_'
'leider_'
'leichter_'
'lebt_'
'leads_'
'knowing_'
'kilometers_'
'kenne_'
'join_'
'interface_'
'interests_'
'interessieren_'
'infrastructure_'
'infected_'
'industrial_'
'increasingly_'
'hängt_'
'hunger_'
'hoffen_'
'heat_'
'healthcare_'
'hate_'
'halbe_'
'hair_'
'grundlegende_'
'gods_'
'geändert_'
'getroffen_'
'geschaffen_'
'genießen_'
'gelöst_'
'fühle_'
'fällt_'
'fähig_'
'fully_'
'foundation_'
'forms_'
'forests_'
'folks_'
'features_'
'fairly_'
'failed_'
'fail_'
'explanation_'
'experiences_'
'exchange_'
'evening_'
'erwarten_'
'equipment_'
'entstand_'
'enter_'
'enjoy_'
'encounter_'
'employees_'
'educational_'
'drüben_'
'drin_'
'dorthin_'
'dimensions_'
'digitale_'
'differences_'
'despite_'
'describe_'
'depressed_'
'demonstrate_'
'dein_'
'defined_'
'daughter_'
'cultures_'
'correct_'
'convinced_'
'consequences_'
'concrete_'
'compare_'
'communicate_'
'comfortable_'
'combined_'
'collect_'
'clinic_'
'circumstances_'
'carried_'
'cards_'
'calling_'
'businesses_'
'breathing_'
'boys_'
'bones_'
'bisher_'
'bird_'
'billions_'
'bestimmen_'
'bestand_'
'besondere_'
'besitzen_'
'beschreiben_'
'bemerkt_'
'belief_'
'beeinflusst_'
'beantworten_'
'bauten_'
'basierend_'
'balance_'
'backwards_'
'aware_'
'außerhalb_'
'autism_'
'aufgrund_'
'attack_'
'article_'
'arrived_'
'argue_'
'apply_'
'anwenden_'
'angenommen_'
'alter_'
'allerdings_'
'affected_'
'adult_'
'achieve_'
'], _'
'[_'
'Zusammenarbeit_'
'X_'
'Wunsch_'
'Wow_'
'Wieso_'
'Welche_'
'Weile_'
'Wahrscheinlichkeit_'
'Virus_'
'Videos_'
'Verbindungen_'
'Unterschiede_'
'Union_'
'Uganda_'
'Titel_'
'Time_'
'Three_'
'Thanks_'
'Teilchen_'
'Strom_'
'Stimmen_'
'Steve_'
'Standard_'
'Staat_'
'St_'
'Sprachen_'
'Sorgen_'
'Sommer_'
'Sex_'
'Schimpansen_'
'Schiff_'
'SMS_'
'Risiko_'
'Rio_'
'Regen_'
'Quelle_'
'Präsident_'
'Plan_'
'Personen_'
'Paul_'
'Nichts_'
'Neuronen_'
'Nehmen_'
'Nature_'
'Natasha_'
'Nahrung_'
'Nachdem_'
'Motor_'
'More_'
'Microsoft_'
'Medikament_'
'Kurz_'
'Kulturen_'
'Kommunikation_'
'Karriere_'
'Kapitalismus_'
'Kaffee_'
'Jack_'
'J_'
'Irak_'
'International_'
'However_'
'Hinweise_'
'Helden_'
'Grundlage_'
'Großmutter_'
'Großbritannien_'
'Freude_'
'Frank_'
'Fleisch_'
'Feld_'
'Falls_'
'Etwas_'
'Erstens_'
'Erklärung_'
'Einfluss_'
'Einen_'
'Eigentlich_'
'Effekt_'
'Drei_'
'DR_'
'Code_'
'Chance_'
'Brennstoffe_'
'Brazil_'
'Billionen_'
'Bildschirm_'
'Berlin_'
'Belohnung_'
'Bell_'
'Beine_'
'Bakterien_'
'Back_'
'Babys_'
'Arctic_'
'Angeles_'
'Amerikaner_'
'Alzheimer_'
'Alter_'
'Africans_'
'Absicht_'
';_'
'95_'
'23_'
'22_'
'1990_'
'..._'
', [_'
', '_'
' – _'
' -- "_'
'überzeugt_'
'übernehmen_'
'zugänglich_'
'younger_'
'wählen_'
'wundervoll_'
'worüber_'
'wonder_'
'wirkt_'
'wirkliche_'
'wine_'
'wide_'
'wichtigsten_'
'wichtigste_'
'werfen_'
'welchem_'
'weiterhin_'
'weiteres_'
'wear_'
'walking_'
'vulnerable_'
'virtual_'
'victims_'
'verursachen_'
'verschiedener_'
'verließ_'
'verfolgen_'
'verantwortlich_'
'vagina_'
'usw_'
'uncertainty_'
'trust_'
'trip_'
'track_'
'toy_'
'tomorrow_'
'tolle_'
'threat_'
'text_'
'teams_'
'target_'
'switch_'
'surprising_'
'sunlight_'
'sudden_'
'studieren_'
'stuck_'
'strength_'
'strategy_'
'steps_'
'stellten_'
'steckt_'
'statistics_'
'statement_'
'starke_'
'späten_'
'spots_'
'soul_'
'smaller_'
'slightly_'
'skeletal_'
'site_'
'singen_'
'signs_'
'sick_'
'shoulder_'
'shop_'
'ship_'
'sheets_'
'setzte_'
'seltsam_'
'seed_'
'schaute_'
'sammeln_'
'roughly_'
'roll_'
'reward_'
'retten_'
'restaurant_'
'responsible_'
'responsibility_'
'report_'
'religions_'
'reiste_'
'reisen_'
'reduce_'
'rats_'
'random_'
'raised_'
'radio_'
'quote_'
'provides_'
'property_'
'professor_'
'processes_'
'prison_'
'principles_'
'prime_'
'prevent_'
'potentially_'
'popular_'
'pigeon_'
'paying_'
'particles_'
'papers_'
'outcome_'
'organized_'
'organ_'
'orchestra_'
'options_'
'odd_'
'oceans_'
'obesity_'
'nutzt_'
'neuer_'
'neighbor_'
'na_'
'moral_'
'molecular_'
'missed_'
'miss_'
'mid_'
'method_'
'meeting_'
'masses_'
'marketing_'
'manage_'
'malaria_'
'loud_'
'lokalen_'
'limits_'
'limited_'
'letters_'
'lehren_'
'leader_'
'kämpfen_'
'kurzem_'
'kommunizieren_'
'komme_'
'klein_'
'kennt_'
'kaufte_'
'kaputt_'
'kannten_'
'jump_'
'irony_'
'irgendjemand_'
'introduce_'
'interact_'
'intellectual_'
'institution_'
'hospitals_'
'horrible_'
'hole_'
'hinten_'
'hinsichtlich_'
'helps_'
'hasn_'
'gäbe_'
'gutes_'
'gray_'
'governments_'
'globalization_'
'glaubt_'
'glass_'
'glamorous_'
'gewöhnt_'
'gewisse_'
'generations_'
'gemeinsame_'
'gelesen_'
'gelassen_'
'gegründet_'
'gefährlich_'
'frame_'
'frage_'
'fourth_'
'fortune_'
'forget_'
'foods_'
'finished_'
'filled_'
'figured_'
'fighting_'
'fiel_'
'fewer_'
'female_'
'farm_'
'falschen_'
'factory_'
'factor_'
'extinct_'
'exploration_'
'existing_'
'essential_'
'erwähnt_'
'erstes_'
'erstellen_'
'erlebt_'
'erleben_'
'erkannte_'
'erinnere_'
'erhöhen_'
'epidemic_'
'entwickelten_'
'entstehen_'
'entspricht_'
'entschied_'
'enormen_'
'embedded_'
'einsetzen_'
'einiger_'
'dürfen_'
'drinking_'
'dough_'
'dominant_'
'dioxide_'
'dictionary_'
'diagram_'
'devices_'
'desire_'
'described_'
'derzeit_'
'definition_'
'deeply_'
'daß_'
'dancing_'
'damage_'
'dahinter_'
'dad_'
'cutting_'
'crime_'
'creature_'
'cow_'
'controlling_'
'contact_'
'colors_'
'collapse_'
'clever_'
'clean_'
'claim_'
'charity_'
'charge_'
'characters_'
'caught_'
'cable_'
'breast_'
'brauchte_'
'brauche_'
'brachten_'
'boom_'
'boat_'
'blau_'
'bizarre_'
'bezahlt_'
'betrifft_'
'betreiben_'
'bestimmten_'
'benötigt_'
'bekamen_'
'behaupten_'
'begeistert_'
'bear_'
'avoid_'
'aufhören_'
'associated_'
'artificial_'
'arrested_'
'ans_'
'angesehen_'
'anderem_'
'amounts_'
'alleine_'
'affect_'
'Zusammenhang_'
'Zunächst_'
'Zufall_'
'Zeichen_'
'Would_'
'Werk_'
'Weibchen_'
'Wald_'
'Väter_'
'Viertel_'
'Vielfalt_'
'Verhältnis_'
'Van_'
'Untersuchung_'
'Unterstützung_'
'Universitäten_'
'Uhr_'
'Two_'
'Today_'
'Text_'
'Teszler_'
'Talk_'
'Stufe_'
'Stewart_'
'Statistiken_'
'Stanford_'
'Spiele_'
'Sir_'
'Signale_'
'Seine_'
'Second_'
'Schrift_'
'Satz_'
'Richtig_'
'Resultat_'
'Restaurant_'
'Respekt_'
'Produktion_'
'Park_'
'Obwohl_'
'Objekte_'
'OECD_'
'Nothing_'
'Nigeria_'
'Niemand_'
'Nationen_'
'Naja_'
'Nachbarn_'
'Männern_'
'Muslims_'
'Mund_'
'Milliarde_'
'Loch_'
'Lincoln_'
'Life_'
'Level_'
'Lernen_'
'Lager_'
'Kunden_'
'Krankheiten_'
'Konflikt_'
'Komponenten_'
'Kepler_'
'Keine_'
'Jesus_'
'Jeff_'
'Jede_'
'Jane_'
'Isn_'
'Infrastruktur_'
'Identität_'
'Häuser_'
'Hill_'
'Herren_'
'Gleichgewicht_'
'Glauben_'
'Gesundheitswesen_'
'Geschmack_'
'Geist_'
'Geheimnis_'
'Gegend_'
'Gebäudes_'
'Gang_'
'Fällen_'
'Funktionen_'
'Franklin_'
'Foundation_'
'Fotos_'
'Florida_'
'Filme_'
'Everything_'
'Euch_'
'Ereignis_'
'Endes_'
'Dynamik_'
'Druck_'
'Deep_'
'Dazu_'
'Dass_'
'Dafür_'
'Dach_'
'Could_'
'Charles_'
'Carl_'
'Bürger_'
'Bruder_'
'Brad_'
'Armen_'
'Arab_'
'Ansicht_'
'Amerikas_'
'Amazon_'
'Al_'
'Aktivität_'
'Afrikaner_'
'Achse_'
'55_'
'26_'
'2020_'
'1973_'
'1900_'
' ...] [... _'
'Ökonomen_'
'Änderung_'
'zurückkehren_'
'zunächst_'
'zufällig_'
'zone_'
'zerstört_'
'zerstören_'
'zeichnen_'
'yesterday_'
'wunderbare_'
'wunderbar_'
'wrist_'
'worauf_'
'wirst_'
'wired_'
'winter_'
'wilde_'
'wieviel_'
'weshalb_'
'werdet_'
'wenigen_'
'welchen_'
'weiteren_'
'weather_'
'wearing_'
'warm_'
'wanting_'
'vorbereitet_'
'vielerlei_'
'via_'
'vertical_'
'verstand_'
'verschwinden_'
'vermitteln_'
'vermeiden_'
'vergleichen_'
'verdoppelt_'
'verdammt_'
'verbessert_'
'variety_'
'usual_'
'unterscheiden_'
'umwandeln_'
'umgehen_'
'tumor_'
'tue_'
'trials_'
'transportation_'
'translate_'
'tradition_'
'toward_'
'tour_'
'till_'
'threw_'
'thoughts_'
'texts_'
'telephone_'
'technological_'
'technische_'
'technisch_'
'technique_'
'tank_'
'symbol_'
'swimming_'
'survival_'
'suit_'
'sugar_'
'style_'
'studiert_'
'stress_'
'stream_'
'stoppen_'
'stopped_'
'stood_'
'spot_'
'split_'
'spider_'
'spectrum_'
'spaces_'
'sozialen_'
'soweit_'
'somewhat_'
'solving_'
'solcher_'
'sleeping_'
'shrimp_'
'shapes_'
'shall_'
'setting_'
'sets_'
'sending_'
'seitdem_'
'seid_'
'seeking_'
'schönen_'
'schreckliche_'
'schief_'
'scene_'
'sauce_'
'rural_'
'runter_'
'runs_'
'ruhig_'
'round_'
'rot_'
'rope_'
'rising_'
'rief_'
'ride_'
'resource_'
'representation_'
'remarkably_'
'regime_'
'reduced_'
'rede_'
'recognition_'
'quiet_'
'quarter_'
'pushing_'
'prove_'
'prototype_'
'protecting_'
'produziert_'
'print_'
'principle_'
'primary_'
'press_'
'praktisch_'
'practical_'
'portion_'
'pollution_'
'politischen_'
'politics_'
'plans_'
'pitch_'
'phrase_'
'photos_'
'photograph_'
'phosphorus_'
'phantom_'
'perfekte_'
'perfekt_'
'perfectly_'
'pen_'
'peers_'
'peer_'
'passt_'
'pass_'
'painting_'
'pain_'
'paid_'
'origami_'
'organs_'
'organization_'
'ordinary_'
'observation_'
'notes_'
'neuron_'
'nearly_'
'naturally_'
'national_'
'narrative_'
'nannte_'
'mortality_'
'monkey_'
'monitor_'
'mom_'
'mittleren_'
'missing_'
'mindestens_'
'meter_'
'metal_'
'mention_'
'menschlicher_'
'meist_'
'mehrere_'
'management_'
'magazine_'
'loving_'
'loves_'
'limb_'
'likes_'
'lights_'
'lifetime_'
'lessons_'
'leid_'
'legal_'
'leap_'
'leading_'
'laptop_'
'langfristige_'
'langen_'
'lady_'
'lack_'
'labeled_'
'la_'
'kümmert_'
'kompliziert_'
'kitchen_'
'keiner_'
'jährigen_'
'interestingly_'
'interactive_'
'intensity_'
'inspiriert_'
'inspire_'
'inevitable_'
'indische_'
'increasing_'
'importance_'
'immune_'
'iPods_'
'honor_'
'holes_'
'hohe_'
'hieß_'
'hergestellt_'
'handle_'
'hadn_'
'grüne_'
'greenhouse_'
'greater_'
'gotta_'
'gold_'
'god_'
'glue_'
'gewählt_'
'getrennt_'
'gentlemen_'
'gene_'
'gelangen_'
'gefallen_'
'gather_'
'gap_'
'gang_'
'fühlt_'
'fängt_'
'funded_'
'functional_'
'fuer_'
'fragt_'
'fossil_'
'fort_'
'formed_'
'folgendes_'
'fingers_'
'fingen_'
'figures_'
'fell_'
'fat_'
'fascinating_'
'fair_'
'factors_'
'faced_'
'experiments_'
'expanding_'
'exercise_'
'excuse_'
'eure_'
'erwarteten_'
'erneut_'
'environments_'
'entsteht_'
'entscheidend_'
'entrepreneurs_'
'entrepreneur_'
'engineers_'
'engineer_'
'engagement_'
'eigentlichen_'
'easily_'
'earliest_'
'dramatically_'
'distributed_'
'distant_'
'disorder_'
'discovery_'
'disaster_'
'disappear_'
'direct_'
'dinner_'
'dimension_'
'diet_'
'dieselbe_'
'determined_'
'detect_'
'derselben_'
'dennoch_'
'democratic_'
'delivered_'
'deinem_'
'decision_'
'daughters_'
'dahin_'
'curve_'
'currently_'
'creation_'
'crash_'
'covered_'
'cortex_'
'coral_'
'convince_'
'controlled_'
'contribute_'
'construction_'
'connecting_'
'confidence_'
'conclusion_'
'concerned_'
'concentration_'
'colored_'
'collective_'
'colleagues_'
'collaboration_'
'clouds_'
'classroom_'
'circuits_'
'chose_'
'chocolate_'
'chief_'
'chemistry_'
'cheap_'
'chart_'
'causing_'
'cartoon_'
'carefully_'
'capitalism_'
'calculate_'
'burned_'
'bubble_'
'brown_'
'brother_'
'brings_'
'bridge_'
'brand_'
'bomb_'
'blaue_'
'birthday_'
'biodiversity_'
'bewirken_'
'betroffen_'
'beteiligt_'
'besucht_'
'besuchen_'
'besseren_'
'beschäftigen_'
'besagt_'
'benefits_'
'bemerkte_'
'bemerken_'
'behalten_'
'begonnen_'
'bank_'
'awful_'
'awesome_'
'awareness_'
'ausmachen_'
'aufgenommen_'
'attempt_'
'atmosphere_'
'ate_'
'astonishing_'
'aspects_'
'aside_'
'arts_'
'artist_'
'architects_'
'application_'
'appears_'
'answers_'
'ansieht_'
'anschaut_'
'announced_'
'algorithms_'
'algorithm_'
'airplane_'
'aid_'
'afraid_'
'advice_'
'advantage_'
'ad_'
'acid_'
'achten_'
'accurate_'
'academic_'
'Zur_'
'Zug_'
'YR_'
'Worte_'
'Women_'
'While_'
'Werkzeug_'
'Weltkrieg_'
'Wal_'
'Vögel_'
'Vogel_'
'Versuche_'
'Valley_'
'Umständen_'
'Themen_'
'Stärke_'
'Studierenden_'
'Stop_'
'Status_'
'Station_'
'Stammzellen_'
'Sport_'
'Spiegel_'
'Space_'
'Sorte_'
'Sorry_'
'Sobald_'
'Sind_'
'Since_'
'Sehr_'
'Schwarzen_'
'Schreiben_'
'Schmerz_'
'Schlüssel_'
'Sauerstoff_'
'Russland_'
'River_'
'Regierungen_'
'Red_'
'Ray_'
'Ratten_'
'Präsentation_'
'Proteine_'
'Protein_'
'Programme_'
'Prize_'
'Prinzipien_'
'Partner_'
'Ozean_'
'Oxford_'
'Organ_'
'Ok_'
'Obama_'
'Number_'
'Nest_'
'Mut_'
'Muslim_'
'Motoren_'
'Motivation_'
'Moses_'
'Moleküle_'
'Molekül_'
'Mitarbeiter_'
'Mission_'
'Milo_'
'Methoden_'
'Metern_'
'Mengen_'
'McDonald_'
'Maus_'
'Materialien_'
'Mary_'
'Mark_'
'Magie_'
'Löcher_'
'Linien_'
'Leid_'
'Landschaft_'
'LG_'
'Körpers_'
'König_'
'Kurve_'
'Kugel_'
'Kuchen_'
'Kreis_'
'Korruption_'
'Kontinent_'
'Kombination_'
'Klang_'
'Kerl_'
'Kannst_'
'Kabel_'
'Journal_'
'Joseph_'
'Japanese_'
'Jahrzehnte_'
'Islamic_'
'Investitionen_'
'Institutionen_'
'Institut_'
'Impfstoff_'
'Hunderte_'
'Hotel_'
'Herstellung_'
'Hallo_'
'Gutes_'
'Gulf_'
'Globalisierung_'
'Gleiche_'
'Glas_'
'Gestalt_'
'Gespräche_'
'Gespräch_'
'Gesichter_'
'Geräusche_'
'Gerade_'
'Gen_'
'Gefängnis_'
'Garten_'
'G_'
'Funktion_'
'Francis_'
'Folgendes_'
'Folgen_'
'Five_'
'Figur_'
'Fahrrad_'
'Fahrer_'
'Erst_'
'Eric_'
'Elemente_'
'Einfachheit_'
'Egyptian_'
'Each_'
'Durch_'
'Doesn_'
'Diabetes_'
'Deswegen_'
'Den_'
'Cochrane_'
'Child_'
'Chicago_'
'Büro_'
'Brooklyn_'
'Botschaft_'
'Boston_'
'Bis_'
'Biosphäre_'
'Besonders_'
'Benjamin_'
'Bedingungen_'
'Baum_'
'Bang_'
'Außerdem_'
'Augenblick_'
'Aspekte_'
'Arme_'
'Archimedes_'
'Antrieb_'
'Ansatz_'
'Alternative_'
'Algorithmus_'
'Aktivitäten_'
'Akt_'
'Afrikas_'
'?] [_'
'37_'
'350_'
'21st_'
'2100_'
'2050_'
'2011_'
'1950_'
'&_'
'"?_'
' &_'
'überlegen_'
'öffnen_'
'äußerst_'
'ärmsten_'
'ältere_'
'ähnliches_'
'ähnliche_'
'Ärzten_'
'Ära_'
'zählen_'
'zweimal_'
'zuhören_'
'zog_'
'y_'
'wünsche_'
'wächst_'
'wunderschöne_'
'worum_'
'worried_'
'worlds_'
'worker_'
'womit_'
'wirken_'
'winner_'
'wichtigen_'
'wherever_'
'wheel_'
'whatsoever_'
'whale_'
'wesentlich_'
'wenden_'
'weiterer_'
'waves_'
'wave_'
'watched_'
'wars_'
'waiting_'
'wahrnehmen_'
'wahrhaftig_'
'vote_'
'vorn_'
'vorherigen_'
'visuelle_'
'visible_'
'vierte_'
'veröffentlicht_'
'verwandeln_'
'verstecken_'
'verschwindet_'
'verliert_'
'verfügbar_'
'verb_'
'verarbeiten_'
'vehicles_'
'vast_'
'values_'
'upset_'
'untersucht_'
'unterstützt_'
'unterschiedlich_'
'unprecedented_'
'unknown_'
'unit_'
'unhappy_'
'uncomfortable_'
'unclear_'
'truck_'
'treten_'
'traveling_'
'traurig_'
'translation_'
'traditionelle_'
'toys_'
'tot_'
'ton_'
'tollen_'
'tissue_'
'tired_'
'thrown_'
'thinks_'
'theories_'
'tests_'
'tens_'
'tausende_'
'tape_'
'sweet_'
'surprise_'
'surgery_'
'sum_'
'substance_'
'stärker_'
'studying_'
'struggling_'
'stronger_'
'sticks_'
'stelle_'
'steigt_'
'steigen_'
'stehe_'
'status_'
'station_'
'standard_'
'stammen_'
'stable_'
'spüren_'
'spät_'
'spiral_'
'spielte_'
'speziellen_'
'spezielle_'
'speziell_'
'sozusagen_'
'sowie_'
'soviel_'
'sooner_'
'soldiers_'
'sogenannten_'
'soft_'
'snake_'
'sites_'
'simplicity_'
'silver_'
'signed_'
'shirt_'
'shelter_'
'setzten_'
'session_'
'sequences_'
'selten_'
'selling_'
'sees_'
'sector_'
'seats_'
'schützen_'
'schweigen_'
'schnellen_'
'schnelle_'
'schlug_'
'schlafen_'
'schickten_'
'sand_'
'sample_'
'row_'
'rote_'
'rooms_'
'rocks_'
'roads_'
'risks_'
'reverse_'
'respond_'
'researchers_'
'researcher_'
'replace_'
'repeat_'
'repair_'
'rent_'
'remote_'
'reminded_'
'release_'
'relationships_'
'reform_'
'reflection_'
'realizing_'
'realen_'
'ray_'
'raising_'
'quantum_'
'qualities_'
'pulled_'
'provided_'
'produces_'
'printing_'
'president_'
'presentation_'
'prepared_'
'precise_'
'powered_'
'pounds_'
'posted_'
'positiv_'
'planning_'
'placed_'
'pilot_'
'picked_'
'phase_'
'permanent_'
'patents_'
'passed_'
'partner_'
'partly_'
'particle_'
'paralyzed_'
'pair_'
'overall_'
'organizing_'
'organize_'
'opposite_'
'olds_'
'oftmals_'
'offenen_'
'occurred_'
'obstacles_'
'obsessed_'
'observe_'
'nächstes_'
'nucleus_'
'noticed_'
'nose_'
'niemanden_'
'nerves_'
'neighbors_'
'necessarily_'
'natürlichen_'
'nations_'
'mögliche_'
'multi_'
'mountains_'
'motion_'
'morality_'
'moments_'
'mode_'
'mindset_'
'mile_'
'microbes_'
'methods_'
'meters_'
'members_'
'measured_'
'mathematical_'
'manufacturing_'
'mammography_'
'majority_'
'machst_'
'lying_'
'lung_'
'loop_'
'location_'
'link_'
'linear_'
'letztendlich_'
'leg_'
'lecture_'
'lebte_'
'leather_'
'lasst_'
'laid_'
'kümmern_'
'kurzen_'
'kurze_'
'kulturelle_'
'krank_'
'konzentriert_'
'komplex_'
'knapp_'
'klingt_'
'keyboard_'
'keeps_'
'junger_'
'joy_'
'jihad_'
'jene_'
'irgendwann_'
'inzwischen_'
'investiert_'
'invested_'
'invention_'
'intuitive_'
'internet_'
'interior_'
'interessanterweise_'
'interessanten_'
'interaction_'
'intend_'
'inspirieren_'
'insgesamt_'
'innere_'
'initially_'
'infiziert_'
'industriellen_'
'impression_'
'höheren_'
'hängen_'
'hungry_'
'humor_'
'houses_'
'hook_'
'honest_'
'hohen_'
'hire_'
'hinzufügen_'
'hinauf_'
'highest_'
'hide_'
'herself_'
'helping_'
'hell_'
'helium_'
'heilen_'
'heavy_'
'headed_'
'harmony_'
'habitat_'
'guter_'
'großartig_'
'grid_'
'grass_'
'grant_'
'grandfather_'
'graduate_'
'grabbed_'
'globe_'
'glamour_'
'gewisser_'
'gesund_'
'gestalten_'
'gesetzt_'
'gesammelt_'
'geometry_'
'genügend_'
'gentleman_'
'generally_'
'gemessen_'
'gelingt_'
'gelehrt_'
'gelebt_'
'gelang_'
'gefällt_'
'gefahren_'
'gedreht_'
'gebraucht_'
'galaxy_'
'fährt_'
'functions_'
'function_'
'früh_'
'froh_'
'fragten_'
'flew_'
'finanziell_'
'films_'
'festgestellt_'
'faszinierend_'
'fashion_'
'farming_'
'fan_'
'faith_'
'facing_'
'fabulous_'
'express_'
'exploring_'
'expertise_'
'expert_'
'estimate_'
'essence_'
'erwartet_'
'ersetzen_'
'erscheinen_'
'entirely_'
'engaged_'
'enden_'
'empathy_'
'emotions_'
'embrace_'
'element_'
'electric_'
'election_'
'einzelnen_'
'eingesetzt_'
'einführen_'
'eindeutig_'
'efficiency_'
'effektiv_'
'ecology_'
'ears_'
'dynamics_'
'dynamic_'
'dying_'
'durchschnittliche_'
'durchgeführt_'
'due_'
'drove_'
'drill_'
'dress_'
'drehte_'
'drehen_'
'drauf_'
'dran_'
'dramatic_'
'dragonflies_'
'dopamine_'
'domestic_'
'dogs_'
'district_'
'dish_'
'director_'
'directly_'
'directions_'
'dinosaurs_'
'diameter_'
'devil_'
'deutlich_'
'detail_'
'depression_'
'dependent_'
'density_'
'demands_'
'degree_'
'definitely_'
'definieren_'
'defense_'
'deck_'
'debt_'
'darf_'
'dank_'
'damaged_'
'customer_'
'credit_'
'creatures_'
'cracked_'
'count_'
'conventional_'
'condition_'
'compromise_'
'completed_'
'compared_'
'commercial_'
'coast_'
'closely_'
'clip_'
'circuit_'
'chicken_'
'cheaper_'
'challenging_'
'centuries_'
'causes_'
'cast_'
'caring_'
'captured_'
'capture_'
'capable_'
'camp_'
'cameras_'
'calls_'
'bus_'
'buchstäblich_'
'brothers_'
'brauchten_'
'borders_'
'bombsight_'
'biologischen_'
'bezeichnen_'
'bezahlte_'
'beweisen_'
'beträgt_'
'bestätigt_'
'bestehen_'
'beschlossen_'
'berühmt_'
'beobachtet_'
'benutzten_'
'beispielsweise_'
'beinhaltet_'
'behave_'
'beer_'
'bedeutete_'
'beautifully_'
'baute_'
'bag_'
'automatisch_'
'aufs_'
'aufeinander_'
'assumed_'
'artistic_'
'arms_'
'architect_'
'applied_'
'apartment_'
'angle_'
'angeht_'
'anfing_'
'analyze_'
'analysis_'
'alternative_'
'airplanes_'
'aging_'
'actor_'
'activities_'
'accuracy_'
'abhängig_'
'abgesehen_'
'Zähne_'
'Zweck_'
'Zitat_'
'ZK_'
'YouTube_'
'Yorker_'
'Yet_'
'Wörtern_'
'Wolken_'
'Wisst_'
'Wirtschaftswachstum_'
'Winter_'
'Windows_'
'Werte_'
'Werden_'
'Werbung_'
'Welle_'
'Welches_'
'Wegen_'
'Wall_'
'Vorteile_'
'Vorstellungskraft_'
'Verwendung_'
'Verteilung_'
'Verlangen_'
'Unsicherheit_'
'Ungefähr_'
'Unfortunately_'
'Türkei_'
'Töchter_'
'Träume_'
'Tränen_'
'Transport_'
'Teufel_'
'Temperatur_'
'Teams_'
'Tausend_'
'Tasche_'
'Süden_'
'Sweden_'
'Sunday_'
'Stücke_'
'Stuhl_'
'Studium_'
'Stopp_'
'Stiftung_'
'Stand_'
'Spanish_'
'Source_'
'Sometimes_'
'Something_'
'Solar_'
'Sogar_'
'Simon_'
'Sierra_'
'Sichtweise_'
'Shanghai_'
'Shakespeare_'
'Serie_'
'Schutz_'
'Schuhe_'
'Schmerzen_'
'Sarah_'
'Sand_'
'Sam_'
'Saharan_'
'SETI_'
'Räume_'
'Roman_'
'Republikaner_'
'Rahmen_'
'R_'
'Quadrat_'
'Prozesse_'
'Protozellen_'
'Produkten_'
'Problemen_'
'President_'
'Potential_'
'Plötzlich_'
'Plattform_'
'Phantom_'
'Pfund_'
'Paar_'
'Option_'
'Ohren_'
'Oft_'
'Oel_'
'Null_'
'November_'
'Niere_'
'Next_'
'Neil_'
'Musiker_'
'Movember_'
'Mother_'
'Monterey_'
'Mittleren_'
'Mikroben_'
'Mike_'
'Mexiko_'
'Me_'
'McMurdo_'
'May_'
'Marx_'
'Mangel_'
'Malaria_'
'MT_'
'MRI_'
'MO_'
'Lächeln_'
'Logo_'
'Logik_'
'Lied_'
'Lichter_'
'Library_'
'Lesterland_'
'Leone_'
'Leider_'
'Lebensmittel_'
'Laufe_'
'Laptops_'
'Kyoto_'
'Kreislauf_'
'Krankenhäusern_'
'Korean_'
'Kooperation_'
'Kontext_'
'Kontakt_'
'Kohlenstoff_'
'Knochen_'
'Kiteflyer_'
'Kenia_'
'Kanada_'
'Jones_'
'Je_'
'Januar_'
'Jahres_'
'Jackson_'
'JH_'
'Institution_'
'Insekten_'
'Innerhalb_'
'Inder_'
'Immer_'
'Ihres_'
'Höhe_'
'Hypothesen_'
'Hunger_'
'Hund_'
'Herausforderungen_'
'Hawaii_'
'Hat_'
'Handeln_'
'H_'
'HC_'
'Gute_'
'Ground_'
'Grand_'
'Gramm_'
'Geräte_'
'German_'
'Gemeinschaften_'
'Gegenwart_'
'Geburtstag_'
'Gebrauch_'
'Geben_'
'Galaxie_'
'GDP_'
'Four_'
'Folie_'
'Flugzeuge_'
'Flughafen_'
'Fliegen_'
'Faktor_'
'Experten_'
'Experimente_'
'European_'
'Erwachsenen_'
'Ernährung_'
'Erlebnis_'
'Erkenntnisse_'
'Erkenntnis_'
'Erinnerung_'
'Entfernung_'
'Empfänger_'
'Emissionen_'
'Elektrizität_'
'Eins_'
'Einrichtungen_'
'Einkommen_'
'Ehre_'
'Edinburgh_'
'Echtzeit_'
'EM_'
'Dschihad_'
'Does_'
'Diskussion_'
'Dinger_'
'Dienstleistungen_'
'Diagnose_'
'Details_'
'Detail_'
'Denkweise_'
'Dead_'
'Day_'
'Darstellung_'
'Danach_'
'Dalai_'
'DP_'
'DNS_'
'DJ_'
'Congress_'
'Coast_'
'Coach_'
'Charakter_'
'Canada_'
'Bäume_'
'Business_'
'Buchstaben_'
'Boot_'
'Bonobo_'
'Bob_'
'Blut_'
'Bioenergie_'
'Beweise_'
'Bewegungen_'
'Betrachtung_'
'Beth_'
'Berge_'
'Beinen_'
'Beethoven_'
'Bauern_'
'Bau_'
'Bangalore_'
'Babies_'
'BIP_'
'Auswirkung_'
'Australian_'
'Ausrede_'
'Ausmaß_'
'Ausgaben_'
'Ausdruck_'
'Aufstieg_'
'Aufgaben_'
'Audience_'
'Apollo_'
'Anyway_'
'Anstatt_'
'Anruf_'
'Annahme_'
'Alex_'
'Aktion_'
'Abed_'
'AV_'
'? -- _'
': »_'
': [_'
'85_'
'70s_'
'40s_'
'36_'
'29_'
'250_'
'2012_'
'2006_'
'1960_'
'." "_'
'-- _'
'"-_'
' – – _'
' = _'
'überwinden_'
'überraschend_'
'ähnlichen_'
'ähnelt_'
'Überleben_'
'Öffentlichkeit_'
'Ähnlichkeit_'
'zählt_'
'zwingen_'
'zuzuhören_'
'zuhause_'
'zentralen_'
'zeigten_'
'zeichnet_'
'wuerden_'
'workshops_'
'wondered_'
'wodurch_'
'woanders_'
'windows_'
'willst_'
'whom_'
'whereas_'
'wheels_'
'wette_'
'wenige_'
'wen_'
'weiße_'
'weak_'
'watts_'
'wartete_'
'vorzustellen_'
'vorwärts_'
'vorne_'
'vorkommen_'
'volume_'
'voices_'
'visuellen_'
'virtually_'
'villages_'
'vieler_'
'vessels_'
'vessel_'
'versteht_'
'versorgen_'
'verschwunden_'
'vermutlich_'
'verlässt_'
'verletzen_'
'verfolgt_'
'verbreiten_'
'verbraucht_'
'verbindet_'
'venture_'
'variation_'
'unterschiedlichen_'
'university_'
'units_'
'unglücklich_'
'unglaublichen_'
'unendlich_'
'underground_'
'unbedingt_'
'unabhängig_'
'umso_'
'umgewandelt_'
'ultimately_'
'u_'
'täglich_'
'tumors_'
'tube_'
'träumen_'
'trägt_'
'truths_'
'trucks_'
'troops_'
'trivial_'
'tricks_'
'tribes_'
'treiben_'
'treating_'
'trat_'
'transition_'
'transformed_'
'trainiert_'
'tragic_'
'trafen_'
'toxic_'
'topic_'
'toes_'
'tiefer_'
'tiefen_'
'threats_'
'thick_'
'teuer_'
'testing_'
'terrific_'
'tendency_'
'temporary_'
'telescopes_'
'teilweise_'
'teilnehmen_'
'teil_'
'technischen_'
'techniques_'
'tears_'
'taxes_'
'tasks_'
'tanzen_'
'symbols_'
'switched_'
'survey_'
'suffered_'
'suchte_'
'succeed_'
'subtle_'
'städtischen_'
'strongly_'
'strip_'
'strategies_'
'stieg_'
'steigern_'
'staying_'
'stattdessen_'
'stammt_'
'spring_'
'sprachen_'
'sphere_'
'spenden_'
'speaks_'
'speakers_'
'sparen_'
'span_'
'soup_'
'soliden_'
'solange_'
'smoking_'
'sliver_'
'skeleton_'
'sitze_'
'singing_'
'simulation_'
'simpler_'
'signature_'
'shut_'
'shipping_'
'sexual_'
'separate_'
'sentence_'
'sensitive_'
'selection_'
'selbe_'
'segment_'
'secret_'
'season_'
'seas_'
'searching_'
'seal_'
'screens_'
'schätzen_'
'schwimmen_'
'schwarzen_'
'schrecklich_'
'schlägt_'
'schlimmer_'
'schien_'
'scheinbar_'
'schauten_'
'schafften_'
'scary_'
'sank_'
'sandwich_'
'sacred_'
'russischen_'
'roots_'
'ritual_'
'revenues_'
'revenue_'
'reveal_'
'restaurants_'
'residents_'
'requires_'
'required_'
'reputation_'
'represented_'
'reports_'
'reported_'
'remove_'
'remind_'
'remain_'
'religious_'
'relief_'
'reliable_'
'released_'
'relations_'
'reichen_'
'reich_'
'regeneriert_'
'reduzieren_'
'recognizing_'
'recall_'
'rebuild_'
'reactor_'
'reaction_'
'reached_'
'rat_'
'rare_'
'rapidly_'
'quarters_'
'pure_'
'pulls_'
'psychological_'
'prototyping_'
'prosperity_'
'proportional_'
'promote_'
'profoundly_'
'profits_'
'profile_'
'previous_'
'pressures_'
'prefer_'
'predictions_'
'precisely_'
'precious_'
'prairie_'
'possibilities_'
'pollen_'
'politician_'
'poison_'
'poetry_'
'poem_'
'plug_'
'plenty_'
'players_'
'player_'
'planned_'
'planes_'
'pipeline_'
'piano_'
'persönlichen_'
'persönliche_'
'personally_'
'personality_'
'perform_'
'perceived_'
'penguin_'
'paste_'
'participate_'
'parent_'
'parameters_'
'paradigm_'
'panels_'
'painted_'
'ownership_'
'overwhelmed_'
'outcomes_'
'ought_'
'organic_'
'optimism_'
'optical_'
'opposed_'
'openness_'
'odor_'
'odds_'
'nützlich_'
'nuclei_'
'northern_'
'normale_'
'niemandem_'
'neulich_'
'netten_'
'neighborhoods_'
'navigate_'
'nationale_'
'nation_'
'nachts_'
'nachdenkt_'
'müssten_'
'müsst_'
'möglichst_'
'mächtige_'
'mystery_'
'mysterious_'
'musst_'
'musical_'
'muscles_'
'multinational_'
'motor_'
'morgens_'
'mood_'
'momentan_'
'mix_'
'mistakes_'
'mistake_'
'mirror_'
'mining_'
'mice_'
'menschliches_'
'meinte_'
'medizinischen_'
'medizinische_'
'medium_'
'measures_'
'meantime_'
'maximum_'
'mating_'
'master_'
'marriage_'
'mark_'
'manchen_'
'malte_'
'malnutrition_'
'magician_'
'luxury_'
'lustig_'
'losing_'
'lohnt_'
'locations_'
'liver_'
'lining_'
'lifestyle_'
'liefern_'
'liebt_'
'letzter_'
'lese_'
'lens_'
'length_'
'legt_'
'leeren_'
'lebten_'
'lay_'
'laugh_'
'latest_'
'langer_'
'künstlerische_'
'könnt_'
'könne_'
'kreieren_'
'kreativen_'
'kreative_'
'kosten_'
'konfrontiert_'
'kommenden_'
'kognitiven_'
'koennen_'
'klug_'
'klinische_'
'kleinste_'
'klassische_'
'klappt_'
'king_'
'justice_'
'judge_'
'joined_'
'jenseits_'
'jener_'
'jederzeit_'
'island_'
'iron_'
'irgendwas_'
'involviert_'
'involves_'
'investment_'
'intervention_'
'internationalen_'
'interagieren_'
'intent_'
'intelligenten_'
'insbesondere_'
'inner_'
'infection_'
'inevitably_'
'industries_'
'individuelle_'
'indischen_'
'increases_'
'included_'
'inch_'
'improve_'
'implications_'
'imitieren_'
'illegal_'
'identity_'
'identical_'
'iPod_'
'hörten_'
'höher_'
'höchste_'
'hut_'
'hurt_'
'hundert_'
'humanity_'
'however_'
'household_'
'hotel_'
'horizon_'
'hop_'
'hometown_'
'homes_'
'holds_'
'hitting_'
'hits_'
'historischen_'
'hilfreich_'
'highway_'
'heutige_'
'heavily_'
'hardest_'
'happier_'
'handful_'
'halb_'
'hackers_'
'h_'
'gun_'
'gucken_'
'gründen_'
'grün_'
'grossartige_'
'gras_'
'grain_'
'graduated_'
'grading_'
'goats_'
'gewöhnlich_'
'gewaltig_'
'gering_'
'geraten_'
'genetischen_'
'genetische_'
'generator_'
'gekauft_'
'gehören_'
'gebeten_'
'gases_'
'garden_'
'gallon_'
'füllen_'
'funktionierten_'
'funktionierte_'
'frightening_'
'friction_'
'fresh_'
'frequency_'
'freely_'
'fortunate_'
'forming_'
'forced_'
'football_'
'folgt_'
'folgende_'
'folding_'
'foie_'
'flows_'
'flower_'
'flip_'
'flies_'
'fliegt_'
'flavor_'
'flat_'
'fires_'
'fiction_'
'feststellte_'
'feststellen_'
'fathers_'
'fasziniert_'
'fascinated_'
'farms_'
'fantastisch_'
'false_'
'failure_'
'extended_'
'expression_'
'exponential_'
'explaining_'
'expecting_'
'existiert_'
'existieren_'
'exhibition_'
'evolutionary_'
'evil_'
'ethical_'
'eröffnen_'
'ersetzt_'
'erscheint_'
'errichtet_'
'erotic_'
'ernähren_'
'ernst_'
'erledigen_'
'erklärte_'
'erinnert_'
'erhielt_'
'ergeben_'
'erfuhr_'
'erforschen_'
'erfassen_'
'entwerfen_'
'entschlossen_'
'entschloss_'
'entscheidenden_'
'enorm_'
'enjoying_'
'englische_'
'engaging_'
'enemy_'
'endangered_'
'enables_'
'emotionale_'
'elephants_'
'elektronische_'
'elektrische_'
'electrons_'
'electrodes_'
'elections_'
'elected_'
'einiges_'
'einfaches_'
'efforts_'
'efficiently_'
'ecosystem_'
'economists_'
'economics_'
'echten_'
'echt_'
'eben_'
'east_'
'earn_'
'ear_'
'dust_'
'durfte_'
'dunklen_'
'dug_'
'dropped_'
'drives_'
'drittes_'
'dot_'
'doppelt_'
'display_'
'dishes_'
'discuss_'
'differentiated_'
'dienen_'
'dichter_'
'description_'
'department_'
'denselben_'
'dense_'
'denkst_'
'demo_'
'demand_'
'deiner_'
'decline_'
'decisions_'
'dazwischen_'
'dauerte_'
'dauern_'
'darunter_'
'darstellt_'
'dar_'
'danger_'
'customers_'
'currency_'
'cure_'
'crops_'
'courses_'
'counter_'
'cosmic_'
'corruption_'
'convey_'
'conversations_'
'contrast_'
'contract_'
'consumers_'
'conservation_'
'confront_'
'conflict_'
'confident_'
'conclude_'
'concerns_'
'concern_'
'concentrate_'
'computing_'
'competition_'
'companion_'
'comment_'
'combination_'
'collecting_'
'cloud_'
'clock_'
'clay_'
'classical_'
'classes_'
'chunk_'
'chosen_'
'chinesischen_'
'chemicals_'
'channels_'
'cents_'
'celebrate_'
'caused_'
'categories_'
'cat_'
'carrots_'
'card_'
'canopy_'
'burden_'
'bump_'
'bulbs_'
'brechen_'
'breathe_'
'breaks_'
'boundaries_'
'boring_'
'bored_'
'bold_'
'bloß_'
'blog_'
'blieb_'
'blauen_'
'blame_'
'blah_'
'bio_'
'billiger_'
'bieten_'
'bicycle_'
'bias_'
'beten_'
'besseres_'
'besessen_'
'beschränkt_'
'berührt_'
'berichten_'
'benutzte_'
'beneath_'
'bell_'
'beliebigen_'
'bekannten_'
'begrenzt_'
'befassen_'
'beetle_'
'beeinflussen_'
'bedeutsam_'
'battery_'
'bar_'
'balls_'
'balloon_'
'aß_'
'axis_'
'autonomously_'
'automatically_'
'authorities_'
'auszuprobieren_'
'auszudrücken_'
'auseinander_'
'aufwuchs_'
'aufstellen_'
'aufmerksam_'
'aufgeregt_'
'aufgebaut_'
'audio_'
'attraction_'
'attract_'
'assume_'
'arrow_'
'argumentieren_'
'architectural_'
'arabischen_'
'appropriate_'
'applications_'
'app_'
'anzugreifen_'
'anscheinend_'
'anrief_'
'ankommen_'
'angry_'
'angeschaut_'
'angeboten_'
'ancestors_'
'amazed_'
'aluminum_'
'altitude_'
'aktuellen_'
'aircraft_'
'ain_'
'agreed_'
'aggressive_'
'afterwards_'
'advanced_'
'added_'
'actors_'
'actions_'
'acting_'
'acres_'
'accident_'
'abschließen_'
'abhängen_'
'Zuerst_'
'Zentren_'
'Zeitung_'
'Wut_'
'Wunder_'
'Woher_'
'Within_'
'Williams_'
'Willen_'
'Werten_'
'Werke_'
'Weltbevölkerung_'
'Wein_'
'Wechsel_'
'Webseite_'
'Wand_'
'Wahrnehmung_'
'Waffe_'
'Vietnam_'
'Verteidigung_'
'Verlust_'
'Verlauf_'
'Vergnügen_'
'Vegas_'
'Vaters_'
'V_'
'Up_'
'Uns_'
'Uni_'
'Unfall_'
'Tumor_'
'Truppen_'
'Tonnen_'
'Toilette_'
'Titan_'
'Tisch_'
'Through_'
'Techniken_'
'Tausende_'
'Taschen_'
'TEDTalks_'
'Süd_'
'Sätze_'
'Synästhesie_'
'Syndrom_'
'Symbol_'
'Sylvia_'
'Sue_'
'Sudan_'
'Städten_'
'Studio_'
'Strukturen_'
'Stress_'
'Streitgespräche_'
'Strahlung_'
'Stoff_'
'Steuer_'
'Stephen_'
'Staub_'
'Starbucks_'
'Square_'
'Sputnik_'
'Sprung_'
'Spiels_'
'Southern_'
'Smith_'
'Signal_'
'Show_'
'Seymour_'
'Sender_'
'Sektor_'
'Sei_'
'Science_'
'Schulden_'
'Schokolade_'
'Schluss_'
'Schicht_'
'Schatten_'
'Schaffen_'
'Schaden_'
'Savage_'
'Rücken_'
'Russians_'
'Russen_'
'Rumbaugh_'
'Richtungen_'
'Research_'
'Remember_'
'Reichweite_'
'Reden_'
'Really_'
'Rande_'
'Rand_'
'Pyramide_'
'Präsidenten_'
'Propaganda_'
'Project_'
'Praxis_'
'Pollen_'
'Polio_'
'Pinguin_'
'Pilze_'
'Phase_'
'Pflege_'
'Peter_'
'Papa_'
'P_'
'PM_'
'Over_'
'Organe_'
'Orchester_'
'Optimismus_'
'Operationen_'
'Operation_'
'Oma_'
'Offensichtlich_'
'October_'
'Ocean_'
'Oberflächen_'
'Ob_'
'O_'
'Noten_'
'Northern_'
'Normalerweise_'
'Nord_'
'Nobody_'
'Nike_'
'Newton_'
'Neumann_'
'Neues_'
'Nervenzelle_'
'Nelson_'
'Nation_'
'Namibia_'
'Na_'
'Mütter_'
'Märkte_'
'Männchen_'
'Mutanten_'
'Mumbai_'
'Moon_'
'Militär_'
'Meile_'
'Medium_'
'Matt_'
'Mathe_'
'Materie_'
'Masse_'
'Marke_'
'Management_'
'Mammographie_'
'Mama_'
'Make_'
'Mail_'
'Lärm_'
'Länge_'
'Lungen_'
'Listen_'
'Lebensmitteln_'
'Latin_'
'Lateinamerika_'
'Lasst_'
'Las_'
'La_'
'Köpfe_'
'Könnten_'
'Käse_'
'Käfer_'
'Kyros_'
'Kunstwerk_'
'Kuh_'
'Krähen_'
'Krieges_'
'Kreaturen_'
'Koran_'
'Kopfschmerzen_'
'Kopenhagen_'
'Kollege_'
'Kleidung_'
'Kilo_'
'Kennen_'
'Katastrophe_'
'Karl_'
'Kapital_'
'Joshua_'
'Joe_'
'Jerusalem_'
'Jemand_'
'Jeden_'
'Jean_'
'Its_'
'Ironie_'
'Ireland_'
'Iranian_'
'Intuition_'
'Interessen_'
'Interaktion_'
'Inspiration_'
'Insel_'
'Inhalt_'
'Indus_'
'Indianer_'
'IQ_'
'IPCC_'
'IBM_'
'Hügel_'
'Höhle_'
'Huh_'
'Hubble_'
'Homer_'
'Hitze_'
'Higgs_'
'Heutzutage_'
'Her_'
'Health_'
'Handlung_'
'Hall_'
'Haiti_'
'Götter_'
'Guten_'
'Gründen_'
'Großeltern_'
'Grenze_'
'Grafik_'
'Gibt_'
'Gewässer_'
'Get_'
'Geräten_'
'Germany_'
'Gemüse_'
'Gelände_'
'Geister_'
'Gehirnen_'
'Gehirne_'
'Gegensatz_'
'Gefühle_'
'Gedächtnis_'
'Gedicht_'
'Gebäuden_'
'Gattung_'
'Gates_'
'Gas_'
'Füßen_'
'Füße_'
'Fülle_'
'Führung_'
'Fungi_'
'Front_'
'Fortschritte_'
'Flasche_'
'Fische_'
'Fertigkeiten_'
'Fernseher_'
'Fernsehen_'
'Felder_'
'Februar_'
'Fantasie_'
'Fallschirm_'
'Fahrzeuge_'
'F_'
'Extra_'
'Eve_'
'Eule_'
'Erkrankungen_'
'Erkrankung_'
'Erinnerungen_'
'Erfinder_'
'Entwicklungen_'
'Entschuldigung_'
'Engagement_'
'El_'
'Einheit_'
'Eindruck_'
'Ehemann_'
'Ecke_'
'Ebenen_'
'Eastern_'
'Dutzend_'
'Dimensionen_'
'Dialog_'
'Detektor_'
'Demokratie_'
'Demokraten_'
'Debatte_'
'Darüber_'
'Daniel_'
'Dakota_'
'Dadurch_'
'Dad_'
'Cyrus_'
'Cooper_'
'Connectome_'
'Connecticut_'
'Columbia_'
'Church_'
'Christians_'
'Christen_'
'Chemotherapie_'
'Cancer_'
'CNN_'
'Brücke_'
'Bruce_'
'Brown_'
'Bronx_'
'Brian_'
'Boy_'
'Blue_'
'Blase_'
'Bibliothek_'
'Bhutan_'
'Bett_'
'Betracht_'
'Beste_'
'Bestandteile_'
'Besitz_'
'Bergen_'
'Bein_'
'Beide_'
'Behind_'
'Before_'
'Bedürfnisse_'
'Bauch_'
'Basis_'
'Bangladesh_'
'Ballon_'
'Balance_'
'Bach_'
'Australien_'
'Aussage_'
'Ausrüstung_'
'Atomenergie_'
'Atlantic_'
'Atlanta_'
'Astronomen_'
'Aspekt_'
'Asien_'
'Argentina_'
'Arbeiten_'
'Anwendungen_'
'Antarctica_'
'Anhänger_'
'Andrew_'
'Amy_'
'Altern_'
'Alaska_'
'Akkord_'
'Akademiker_'
'Ah_'
'Age_'
'Affe_'
'Act_'
'Ach_'
'AO_'
'57_'
'50s_'
'28_'
'2001_'
'130_'
'" – _'
' –_'
' –, _'
' – "_'
' ...] [_'
' --_'
' - - _'
' , _'
'übrig_'
'überzeugte_'
'übersetzt_'
'überqueren_'
'überlebt_'
'überein_'
'ökonomischen_'
'öffentlichen_'
'änderte_'
'älteren_'
'Überraschung_'
'Übel_'
'Ökosystem_'
'Ängste_'
'Änderungen_'
'zwanzig_'
'zutrifft_'
'zusammenzubringen_'
'zusammenarbeiten_'
'zurückgeht_'
'zurückgehen_'
'zunehmend_'
'zukünftigen_'
'zukünftige_'
'zugrunde_'
'zufrieden_'
'zahlen_'
'yourselves_'
'yards_'
'wählt_'
'wunderschönen_'
'wunderbaren_'
'wow_'
'wovon_'
'worthy_'
'worldwide_'
'workforce_'
'wohin_'
'wirtschaftlichen_'
'winzigen_'
'winzige_'
'winzig_'
'wings_'
'wiegt_'
'wiederholt_'
'widmen_'
'wheelchair_'
'wet_'
'wesentlichen_'
'weiten_'
'weiblichen_'
'wechseln_'
'wealthy_'
'wealth_'
'wartet_'
'warst_'
'wahren_'
'vulnerability_'
'voted_'
'vorsichtig_'
'vorhin_'
'volle_'
'visited_'
'viral_'
'vielmehr_'
'vicious_'
'veröffentlichten_'
'veröffentlichen_'
'veränderte_'
'verwirklichen_'
'verwendeten_'
'verwendete_'
'verwandelte_'
'verwandelt_'
'vertraut_'
'versus_'
'verstehe_'
'verschwand_'
'versagt_'
'verringert_'
'verpflichtet_'
'vermute_'
'verlor_'
'verlegen_'
'verlangt_'
'verlangsamt_'
'verlangen_'
'verkaufte_'
'vergangenen_'
'verfügt_'
'verfügen_'
'verbrachte_'
'verblüffend_'
'vegetable_'
'vary_'
'variations_'
'variables_'
'van_'
'vaccines_'
'utility_'
'useless_'
'ursprünglichen_'
'ursprüngliche_'
'ups_'
'unterwegs_'
'unterscheidet_'
'unsichtbare_'
'unsichtbar_'
'unseen_'
'universal_'
'unicorn_'
'ungewöhnliche_'
'ungewöhnlich_'
'unfair_'
'unexpected_'
'unable_'
'umzusetzen_'
'umsetzen_'
'umgeben_'
'ubiquitous_'
'täuschen_'
'typischen_'
'twist_'
'twenty_'
'tune_'
'tsunami_'
'tropics_'
'trillion_'
'tricky_'
'tribe_'
'trennen_'
'trapped_'
'transparent_'
'transmit_'
'trait_'
'trainieren_'
'title_'
'tipp_'
'tin_'
'tightly_'
'tiefe_'
'tie_'
'tick_'
'thinkers_'
'therapy_'
'theme_'
'tested_'
'terrifying_'
'telescope_'
'teenagers_'
'tear_'
'tausend_'
'tasted_'
'targets_'
'tar_'
'tackle_'
'südlichen_'
'systematisch_'
'syndrome_'
'swap_'
'sustain_'
'survivors_'
'surroundings_'
'surrounded_'
'suppose_'
'supporting_'
'summarize_'
'suggests_'
'suggesting_'
'sucks_'
'sucht_'
'successfully_'
'submarine_'
'stupid_'
'stunts_'
'studio_'
'struck_'
'strings_'
'string_'
'strangers_'
'stranger_'
'stops_'
'stone_'
'stirbt_'
'sticky_'
'sticking_'
'starteten_'
'staring_'
'standen_'
'stamp_'
'stability_'
'sport_'
'spinning_'
'spinal_'
'spill_'
'spends_'
'spannend_'
'spaghetti_'
'spades_'
'sozial_'
'sowieso_'
'southern_'
'sources_'
'solle_'
'solch_'
'sogenannte_'
'socially_'
'smiling_'
'slip_'
'slight_'
'sisters_'
'sir_'
'sinnvoll_'
'sing_'
'simplest_'
'siehst_'
'sideways_'
'sides_'
'sicherstellen_'
'shoreline_'
'shoot_'
'shipped_'
'shell_'
'sheet_'
'shaped_'
'servers_'
'serve_'
'semi_'
'selves_'
'selbstverständlich_'
'seht_'
'sectors_'
'section_'
'secrets_'
'script_'
'screening_'
'score_'
'schwierige_'
'schuldig_'
'schrieben_'
'schreien_'
'schlimmsten_'
'schließe_'
'schlagen_'
'schlage_'
'schaue_'
'scared_'
'saßen_'
'samples_'
'salt_'
'sales_'
'sag_'
'rufen_'
'rolling_'
'robotic_'
'riskieren_'
'riesiges_'
'ridiculous_'
'richtiges_'
'richten_'
'rex_'
'revealed_'
'retreat_'
'responded_'
'resemble_'
'rescue_'
'requests_'
'request_'
'repariert_'
'rennen_'
'rendering_'
'removal_'
'religiöse_'
'relevant_'
'relative_'
'relativ_'
'reicht_'
'reflektieren_'
'reflected_'
'reflect_'
'reefs_'
'reduction_'
'records_'
'recommendation_'
'recognized_'
'recharge_'
'recession_'
'receiving_'
'received_'
'receive_'
'reale_'
'readers_'
'reactors_'
'react_'
'rarely_'
'rannte_'
'radikal_'
'radical_'
'quit_'
'quest_'
'puzzles_'
'pursuit_'
'purple_'
'pump_'
'pulse_'
'pulling_'
'publishing_'
'psychology_'
'protocell_'
'protected_'
'proportion_'
'proof_'
'projections_'
'programmiert_'
'profitieren_'
'productivity_'
'producers_'
'probe_'
'prisoners_'
'printer_'
'preparation_'
'pre_'
'praktische_'
'powder_'
'postcards_'
'positives_'
'pop_'
'politisch_'
'politicians_'
'policies_'
'poet_'
'plot_'
'playful_'
'platforms_'
'planen_'
'pizza_'
'pills_'
'picks_'
'physischen_'
'physicists_'
'physician_'
'photographed_'
'philosophy_'
'pharmaceutical_'
'performing_'
'perfekten_'
'pencil_'
'pause_'
'patentieren_'
'patented_'
'partners_'
'parties_'
'parking_'
'pan_'
'owned_'
'owl_'
'overcome_'
'organism_'
'organisiert_'
'organisieren_'
'org_'
'orbit_'
'opinion_'
'opera_'
'oldest_'
'offshore_'
'offene_'
'occupied_'
'occasion_'
'nutzte_'
'nuts_'
'nut_'
'nurse_'
'noticing_'
'north_'
'nor_'
'nitrogen_'
'niedrig_'
'newspapers_'
'newspaper_'
'neugierig_'
'neuesten_'
'negotiate_'
'namely_'
'naja_'
'naive_'
'nackt_'
'nachgedacht_'
'n_'
'müsste_'
'männlichen_'
'mächtig_'
'mutig_'
'muslimischen_'
'mushrooms_'
'mushroom_'
'muessen_'
'movies_'
'mouse_'
'mothers_'
'mosquito_'
'monster_'
'mittlerweile_'
'mittlere_'
'missile_'
'minimum_'
'mines_'
'mindful_'
'millionth_'
'milk_'
'microscopic_'
'microscope_'
'merken_'
'mehreren_'
'medieval_'
'medicines_'
'mechanism_'
'maze_'
'marry_'
'marketplace_'
'makers_'
'magnetic_'
'löschen_'
'lächeln_'
'livestock_'
'lists_'
'linked_'
'lightning_'
'liest_'
'library_'
'levers_'
'lernten_'
'leiten_'
'leise_'
'legten_'
'legacy_'
'lebendig_'
'lebenden_'
'lebe_'
'learner_'
'leadership_'
'layers_'
'lawyer_'
'laufenden_'
'lasts_'
'laser_'
'las_'
'laptops_'
'langweilig_'
'langsamer_'
'landet_'
'ladies_'
'ladder_'
'laboratory_'
'label_'
'künstlichen_'
'kurzes_'
'kurzer_'
'kulturellen_'
'kritische_'
'kostenlos_'
'komplizierter_'
'komplexer_'
'knife_'
'klick_'
'klasse_'
'klang_'
'kit_'
'kingdom_'
'kauft_'
'jüngsten_'
'jumped_'
'journal_'
'joke_'
'items_'
'issued_'
'irgendeinem_'
'invite_'
'investors_'
'investing_'
'invent_'
'intuitiv_'
'introduction_'
'intimacy_'
'internationale_'
'interessanter_'
'intention_'
'intelligente_'
'integrated_'
'insurance_'
'instructions_'
'instantly_'
'inspirierend_'
'insecure_'
'insects_'
'input_'
'innen_'
'inklusive_'
'injured_'
'ingredients_'
'informed_'
'inefficient_'
'incident_'
'incentive_'
'implicated_'
'imitation_'
'ignoriert_'
'identify_'
'hybrid_'
'humbling_'
'housing_'
'horizontal_'
'hopefully_'
'honeybees_'
'honey_'
'homework_'
'historic_'
'hired_'
'hip_'
'hinweg_'
'hinunter_'
'hingehen_'
'hindurch_'
'herzlichen_'
'hervor_'
'herstellt_'
'heritage_'
'herein_'
'herausstellt_'
'herauskommen_'
'hence_'
'helpful_'
'heiraten_'
'hearts_'
'harvest_'
'harm_'
'hanging_'
'hang_'
'halt_'
'hallway_'
'hallucinations_'
'halben_'
'günstig_'
'gyrus_'
'gründlich_'
'grundlegenden_'
'großartiger_'
'grows_'
'greifen_'
'granted_'
'grab_'
'goods_'
'gonna_'
'golfer_'
'goals_'
'glückliche_'
'glad_'
'gift_'
'gezogen_'
'gewissermaßen_'
'getreten_'
'getestet_'
'gesünder_'
'geschlossen_'
'geringem_'
'geography_'
'genius_'
'genial_'
'generiert_'
'gender_'
'genannten_'
'gelegt_'
'gehst_'
'geholfen_'
'gehalten_'
'gefangen_'
'gedruckt_'
'geblieben_'
'gathering_'
'gangs_'
'gain_'
'fürchten_'
'führten_'
'funding_'
'fundamentally_'
'fuhren_'
'frontal_'
'freiwillig_'
'freie_'
'framework_'
'fossilen_'
'fortfahren_'
'formt_'
'formen_'
'forgotten_'
'forgot_'
'footprint_'
'folgten_'
'folgenden_'
'flown_'
'fled_'
'flashing_'
'fishing_'
'firms_'
'filter_'
'fill_'
'fields_'
'fern_'
'fellow_'
'fehlen_'
'feelings_'
'feeding_'
'favorites_'
'farmer_'
'fake_'
'facts_'
'facilities_'
'facial_'
'fabric_'
'extension_'
'exposed_'
'exponentiell_'
'explosion_'
'explains_'
'experimentation_'
'experiencing_'
'expense_'
'expectancy_'
'expansion_'
'expand_'
'existed_'
'evolve_'
'everyday_'
'ethic_'
'eröffneten_'
'eröffnet_'
'erzogen_'
'erwähnen_'
'erweitert_'
'erstellten_'
'erstellte_'
'erstaunlichen_'
'errors_'
'error_'
'errichten_'
'erneuerbaren_'
'ermutigen_'
'erlernen_'
'erkunden_'
'erklärt_'
'erkannt_'
'erinnerte_'
'erhöht_'
'era_'
'equation_'
'equally_'
'equal_'
'episode_'
'envision_'
'entworfen_'
'entwarf_'
'enthalten_'
'entdeckte_'
'enorme_'
'enhances_'
'englischen_'
'engines_'
'eng_'
'endeavor_'
'enabled_'
'enable_'
'empower_'
'employ_'
'emotion_'
'emerge_'
'embraced_'
'elevator_'
'elements_'
'elementary_'
'electronics_'
'electromagnetic_'
'einzusetzen_'
'einzelnes_'
'eingeschränkt_'
'einfallen_'
'eineinhalb_'
'einbringen_'
'eigener_'
'economies_'
'durchschnittlichen_'
'durchschnittlich_'
'durchlaufen_'
'durchbrechen_'
'dunkel_'
'dung_'
'dumm_'
'dude_'
'drücken_'
'drunk_'
'dropping_'
'drone_'
'dritten_'
'drawn_'
'drawing_'
'dozen_'
'doubt_'
'dots_'
'domain_'
'documents_'
'documenting_'
'document_'
'divide_'
'disk_'
'discussed_'
'discipline_'
'disability_'
'direkter_'
'direkte_'
'digits_'
'dig_'
'differ_'
'dictionaries_'
'dialogue_'
'diagnosis_'
'diagnosed_'
'determine_'
'detector_'
'destroy_'
'destiny_'
'derzeitigen_'
'depends_'
'depend_'
'denial_'
'demonstration_'
'deliver_'
'default_'
'deepest_'
'deaf_'
'deadly_'
'cycles_'
'crying_'
'crows_'
'creepy_'
'creators_'
'cream_'
'crank_'
'covering_'
'corporate_'
'cord_'
'cooperation_'
'cookies_'
'cookie_'
'convention_'
'controls_'
'contribution_'
'contributing_'
'consumer_'
'constant_'
'consciously_'
'composite_'
'complained_'
'comic_'
'collectively_'
'colleague_'
'collapsed_'
'collaborating_'
'coined_'
'coastal_'
'cluster_'
'clubs_'
'classic_'
'civilizations_'
'citizens_'
'circles_'
'circa_'
'chromosomes_'
'chinesisches_'
'chinesischer_'
'chimpanzees_'
'chickens_'
'checking_'
'check_'
'chaotic_'
'chaos_'
'chairs_'
'centers_'
'celebrity_'
'carpet_'
'cardboard_'
'capita_'
'capability_'
'candidate_'
'calm_'
'cake_'
'buying_'
'burning_'
'broadband_'
'bright_'
'briefly_'
'brief_'
'breit_'
'breeders_'
'breath_'
'breakthroughs_'
'breaking_'
'brach_'
'bow_'
'boss_'
'booms_'
'bone_'
'bombs_'
'blows_'
'blicken_'
'bitter_'
'biosphere_'
'bildeten_'
'bildet_'
'bike_'
'bezeichnet_'
'bewegte_'
'bevorzugen_'
'betrieben_'
'betrachteten_'
'betrachte_'
'beteiligen_'
'besorgt_'
'besitzt_'
'beschäftigte_'
'beschrieben_'
'beschreibt_'
'beschloss_'
'besaß_'
'berühmten_'
'benannt_'
'bekomme_'
'bekannte_'
'beigebracht_'
'beides_'
'beibringen_'
'behaviors_'
'behauptete_'
'behalf_'
'begreifen_'
'begeisterte_'
'befördert_'
'bee_'
'beds_'
'beat_'
'bears_'
'beard_'
'beachtet_'
'basement_'
'band_'
'baker_'
'autos_'
'automobile_'
'authors_'
'ausüben_'
'auswählen_'
'aussah_'
'ausgewählt_'
'ausgestellt_'
'ausgebildet_'
'ausgeben_'
'ausbilden_'
'augmented_'
'aufweisen_'
'auftritt_'
'auftreten_'
'aufregend_'
'aufbaut_'
'aufbauen_'
'auditorium_'
'audiences_'
'attributes_'
'attached_'
'atomic_'
'astronomers_'
'assumption_'
'assessment_'
'aspect_'
'array_'
'army_'
'arme_'
'arc_'
'arbeiteten_'
'approaching_'
'appeared_'
'anzunehmen_'
'ants_'
'antibiotics_'
'ansprechen_'
'ankommt_'
'animation_'
'angiogenesis_'
'angeschlossen_'
'angenehmer_'
'angebracht_'
'amerikanischer_'
'allowing_'
'allmählich_'
'allerersten_'
'aktuelle_'
'aktuell_'
'aktivieren_'
'airport_'
'agricultural_'
'agieren_'
'agents_'
'afternoon_'
'adopted_'
'adapting_'
'achieving_'
'accumulate_'
'accountability_'
'account_'
'accept_'
'academics_'
'abstract_'
'abnehmen_'
'abgedeckt_'
']._'
'Zweitens_'
'Zutaten_'
'Zuschauer_'
'Zuhören_'
'Zufriedenheit_'
'Zerstörung_'
'Zentimeter_'
'Zeitraum_'
'Zeitalter_'
'Zehntausende_'
'Zealand_'
'Zauberer_'
'Würstchen_'
'Würden_'
'Wärme_'
'Wägezelle_'
'Wurzeln_'
'Worten_'
'Wolfram_'
'Wohlstand_'
'Wissenschaftlern_'
'Wirkung_'
'Wirklich_'
'Winkel_'
'Windenergie_'
'Wille_'
'Widerspruch_'
'White_'
'Whitacre_'
'Welten_'
'Weltall_'
'Waren_'
'Wandertauben_'
'Wahrscheinlich_'
'Wahrheiten_'
'Wahlen_'
'Waffen_'
'Völkern_'
'Völker_'
'Voyager_'
'Vorstellungen_'
'Vorlieben_'
'Vertrauen_'
'Verstehen_'
'Vernetzung_'
'Verletzungen_'
'Vereinten_'
'Verbreitung_'
'Verbesserung_'
'Verb_'
'Venezuela_'
'Vagina_'
'VC_'
'Ursprünge_'
'Ursache_'
'Urknall_'
'Until_'
'Unterricht_'
'Unterhaltung_'
'Unter_'
'Unmengen_'
'Ungleichgewicht_'
'Unbekannten_'
'Umgebungen_'
'Umgang_'
'Umfrage_'
'Umfeld_'
'Träumen_'
'Treibstoff_'
'Treibhausgase_'
'Transparenz_'
'Training_'
'Tony_'
'Tonne_'
'Ton_'
'Tom_'
'Tokyo_'
'Together_'
'Tode_'
'Theater_'
'Teufelskreis_'
'Tests_'
'Terminal_'
'Tennessee_'
'Ten_'
'Teller_'
'Telescope_'
'Telefon_'
'Teilnehmer_'
'Teheran_'
'Taylor_'
'Tattoos_'
'Tasmanischen_'
'Talent_'
'Systems_'
'Syrien_'
'Swiss_'
'Sweeney_'
'Suey_'
'Suddenly_'
'Substanz_'
'Subjekt_'
'Stühle_'
'Störungen_'
'Stufen_'
'Strategie_'
'Sternen_'
'Stein_'
'Stattdessen_'
'Statt_'
'State_'
'Star_'
'Stamm_'
'Stage_'
'Stabilität_'
'Staates_'
'Spieler_'
'Soziale_'
'Soviet_'
'Sound_'
'Song_'
'Sondern_'
'Somit_'
'Solarenergie_'
'Social_'
'Sobule_'
'Slow_'
'Skelettmuskeln_'
'Skala_'
'Six_'
'Situationen_'
'Simulation_'
'Sicher_'
'Should_'
'Sein_'
'Seil_'
'Seide_'
'Secondly_'
'Seattle_'
'Schön_'
'Schätzung_'
'Schwierigkeiten_'
'Schwanz_'
'Schuld_'
'Schnitt_'
'Schlange_'
'Schlafzimmer_'
'Schiffe_'
'Schicksal_'
'Schau_'
'Sarajevo_'
'Sanghamitra_'
'Samuel_'
'Same_'
'Sagen_'
'Saal_'
'SS_'
'SOPA_'
'SB_'
'Rückseite_'
'Ruanda_'
'Rome_'
'Rock_'
'Road_'
'Ritual_'
'Risiken_'
'Rick_'
'Rhode_'
'Rezession_'
'Restaurants_'
'Republic_'
'Reis_'
'Reef_'
'Rechte_'
'Rechenschaft_'
'Rauch_'
'Rate_'
'RG_'
'Queen_'
'Qualität_'
'Quadratmeter_'
'Public_'
'Prozesses_'
'Projekten_'
'Programmieren_'
'Progerie_'
'Profil_'
'Procter_'
'Proben_'
'Princeton_'
'Prince_'
'Premierminister_'
'Preise_'
'PowerPoint_'
'Potter_'
'Planung_'
'Pizza_'
'Pipeline_'
'Pilot_'
'Phänomen_'
'Physiker_'
'Photoshop_'
'Philosophie_'
'Philips_'
'Philip_'
'Philadelphia_'
'Pferd_'
'Pfeifen_'
'Perspektive_'
'Peace_'
'Pause_'
'Patent_'
'Party_'
'Panbanisha_'
'Pacific_'
'PH_'
'Oscar_'
'Organization_'
'Only_'
'Oliver_'
'Oktober_'
'Ohne_'
'Nutzung_'
'Nobel_'
'Niveau_'
'Nick_'
'News_'
'Netze_'
'Natural_'
'Najmuddin_'
'Nachmittag_'
'Nachfrage_'
'N_'
'NK_'
'NG_'
'Mythos_'
'Muskel_'
'Murray_'
'Moral_'
'Momente_'
'Mittagessen_'
'Mitglieder_'
'Miss_'
'Mischung_'
'Minen_'
'Milch_'
'Metapher_'
'Messer_'
'Mehr_'
'Meere_'
'Media_'
'Mechanismus_'
'Maßstab_'
'Mathematiker_'
'Massachusetts_'
'Martin_'
'Mart_'
'Marine_'
'Map_'
'Mannschaft_'
'Manju_'
'Mangelernährung_'
'Mandarin_'
'Male_'
'Mahmoud_'
'Machen_'
'Löwen_'
'Lucy_'
'Louis_'
'Lord_'
'Live_'
'Little_'
'Literatur_'
'Lindbergh_'
'Lichts_'
'Liberia_'
'Lesen_'
'Lektion_'
'Lehrern_'
'Lehrerin_'
'Lebensspanne_'
'Lebensqualität_'
'Lava_'
'Laufen_'
'Lauf_'
'Lass_'
'Lama_'
'Lakota_'
'Lab_'
'Küste_'
'Kühlung_'
'Kühe_'
'Käfig_'
'Kurzem_'
'Kunde_'
'Kreuz_'
'Konzepte_'
'Konferenzen_'
'Kometen_'
'Kohle_'
'Knoten_'
'Kluft_'
'Klick_'
'Klar_'
'Kindersitz_'
'Kevin_'
'Kern_'
'Kerle_'
'Keiner_'
'Keep_'
'Kay_'
'Katze_'
'Katrina_'
'Kartoffeln_'
'Kapitel_'
'Kanzi_'
'Kann_'
'Kameras_'
'Kalender_'
'Juni_'
'Jude_'
'Jonas_'
'Jennifer_'
'Jefferson_'
'Jeep_'
'Jagger_'
'Ivan_'
'Italien_'
'Istanbul_'
'Isolation_'
'Iraq_'
'Interessanterweise_'
'Intel_'
'Insulin_'
'Instrumente_'
'Innovationen_'
'Individuen_'
'Immunsystem_'
'Illusion_'
'Hölle_'
'Hormone_'
'Hong_'
'Homo_'
'Holland_'
'Hmm_'
'History_'
'Hindernisse_'
'Hindernis_'
'Himmels_'
'Hi_'
'Herr_'
'Hermes_'
'Herbst_'
'Henry_'
'Hello_'
'Helium_'
'Helen_'
'Heimatstadt_'
'Heart_'
'Headwaters_'
'Have_'
'Hast_'
'Happy_'
'Hans_'
'Hang_'
'Handys_'
'Haken_'
'Hai_'
'Haare_'
'Gruppierungen_'
'Grundschule_'
'Großvater_'
'Group_'
'Griff_'
'Greenland_'
'Greek_'
'Graphen_'
'Grace_'
'Gore_'
'Goliath_'
'Golf_'
'Gold_'
'Glücklicherweise_'
'Gleichzeitig_'
'Girls_'
'Girl_'
'Ghana_'
'Gewinn_'
'Gesundheitsversorgung_'
'Geschlecht_'
'Gerechtigkeit_'
'Georgia_'
'Geographic_'
'Genie_'
'Generationen_'
'Genauigkeit_'
'Gehör_'
'Gehen_'
'Gegner_'
'Gebieten_'
'Gebiete_'
'Gangs_'
'Gandhi_'
'Gamble_'
'Fälle_'
'Fundament_'
'Freiwilligen_'
'Fotograf_'
'Forschungen_'
'Ford_'
'Force_'
'Folge_'
'Fokus_'
'Flug_'
'Finally_'
'Filmen_'
'Fibonacci_'
'Feynman_'
'Fettleibigkeit_'
'February_'
'Fasern_'
'Fakten_'
'Fahrzeug_'
'Fabriken_'
'FOXO_'
'Explosion_'
'Eure_'
'Essentially_'
'Erziehung_'
'Erwärmung_'
'Erwachsene_'
'Erklärungen_'
'Erfüllung_'
'Erdöl_'
'Erden_'
'Entropie_'
'Entdeckungen_'
'Entdeckung_'
'Energien_'
'Emotionen_'
'Element_'
'Einzelne_'
'Einschränkung_'
'Einheiten_'
'Eduardo_'
'Eden_'
'EEG_'
'Dutch_'
'Durchschnitt_'
'Durchmesser_'
'Drucker_'
'Drogen_'
'Distanz_'
'Disney_'
'Dimension_'
'Digital_'
'Dichter_'
'Diana_'
'Detroit_'
'Department_'
'Delhi_'
'Datenbank_'
'Darwinian_'
'Darauf_'
'Dan_'
'Damals_'
'Craig_'
'Congo_'
'Computerprogramm_'
'Community_'
'Comics_'
'Comedy_'
'Climate_'
'Chop_'
'Chinesisch_'
'Chile_'
'Children_'
'Chemikalien_'
'Charlie_'
'Channel_'
'Chancen_'
'Cents_'
'Central_'
'Carolina_'
'Carol_'
'Canyon_'
'CD_'
'CAPTCHA_'
'C3PO_'
'Bürgerkrieg_'
'Büchern_'
'Buy_'
'Bus_'
'Burger_'
'Budget_'
'Buddhist_'
'Buddha_'
'Brust_'
'Brief_'
'Brett_'
'Bonobos_'
'Blätter_'
'Blog_'
'Block_'
'Blau_'
'Blatt_'
'Biomaterialien_'
'Bio_'
'Billion_'
'Bible_'
'Bevölkerungen_'
'Best_'
'Besitzer_'
'Berührung_'
'Berühmtheit_'
'Beobachtung_'
'Being_'
'Beim_'
'Behauptung_'
'Befehle_'
'Bedrohung_'
'Bay_'
'Batterien_'
'Barrier_'
'Barbie_'
'BJ_'
'Autoren_'
'Autismus_'
'Auswahl_'
'Austin_'
'Ausschnitt_'
'Ausnahme_'
'Ausbreitung_'
'Aus_'
'Auftrag_'
'Aufruf_'
'Aufbau_'
'Atheisten_'
'Ask_'
'Armstrong_'
'Arena_'
'Archie_'
'Arbeitsplätze_'
'Arbeitsplatz_'
'Apfel_'
'Anwendung_'
'Anti_'
'Anteil_'
'Anstieg_'
'Anspruch_'
'Ansichten_'
'Animationen_'
'Animation_'
'Angriff_'
'Anführer_'
'Andere_'
'Anbau_'
'Analyse_'
'Alright_'
'Almost_'
'Allgemeinen_'
'Allerdings_'
'Alkohol_'
'Algorithmen_'
'Air_'
'Aid_'
'Agnes_'
'Adresse_'
'Abstimmung_'
'Abraham_'
'Abfall_'
'AK_'
'?" "_'
'94_'
'90er_'
'80ern_'
'77_'
'72_'
'700_'
'66_'
'44_'
'270_'
'249_'
'19th_'
'1997_'
'1991_'
'1984_'
'1980s_'
'1976_'
'1970s_'
'1970_'
'1968_'
'140_'
'125_'
'.' _'
'-'_'
') _'
''._'
'! -- _'
' … _'
' ._'
'übrigen_'
'überwachen_'
'übersetzen_'
'überrascht_'
'überraschende_'
'überquerte_'
'übernommen_'
'übernimmt_'
'überlassen_'
'übergehen_'
'übereinander_'
'örtliche_'
'ökologischen_'
'öffnete_'
'Übrigens_'
'Überzeugung_'
'Übersetzung_'
'Überlebenszeit_'
'Überlebende_'
'Überfluss_'
'Ökologie_'
'Ähnlich_'
'Ägypter_'
'Ägypten_'
'°_'
'zwölf_'
'zweiter_'
'zwang_'
'zusätzlich_'
'zustimmen_'
'zustande_'
'zusammenbringen_'
'zurückkommen_'
'zuletzt_'
'zukommen_'
'zufällige_'
'zudem_'
'zoom_'
'zentrale_'
'zeichnete_'
'zehntausende_'
'zack_'
'youth_'
'youngest_'
'wütend_'
'wüssten_'
'wüsste_'
'würdest_'
'wärmer_'
'wundervollen_'
'wunderbares_'
'writer_'
'worrying_'
'workplace_'
'wood_'
'wonderfully_'
'wohlhabenden_'
'wished_'
'wise_'
'wirtschaftliche_'
'wirksam_'
'wirklichen_'
'wirft_'
'wireless_'
'wing_'
'wiegen_'
'wiederum_'
'wiederherzustellen_'
'width_'
'widely_'
'whistle_'
'weswegen_'
'west_'
'wertvollen_'
'wertvoll_'
'wem_'
'weltweite_'
'wells_'
'weißen_'
'weitesten_'
'weitermachen_'
'weiterleben_'
'weisst_'
'weibliche_'
'weekend_'
'weckt_'
'weapon_'
'watermelon_'
'warnen_'
'warmth_'
'wandert_'
'wandering_'
'wandeln_'
'walks_'
'waking_'
'wake_'
'waited_'
'vow_'
'vorzubereiten_'
'vorziehen_'
'vorspielen_'
'vorkommt_'
'vorhanden_'
'vorgestellt_'
'vorgeschlagen_'
'voran_'
'voneinander_'
'vollziehen_'
'vividly_'
'vital_'
'visualization_'
'visiting_'
'visions_'
'visionary_'
'virtuellen_'
'virtue_'
'violent_'
'vielmals_'
'vibration_'
'vibrate_'
'verwende_'
'verteilen_'
'versteckten_'
'versions_'
'versichern_'
'versetzen_'
'versehen_'
'verschwenden_'
'verschmelzen_'
'verrät_'
'verringern_'
'verraten_'
'vermuten_'
'vermischt_'
'verließen_'
'verheiratet_'
'verhandeln_'
'verhalten_'
'verglichen_'
'vergleicht_'
'verfügte_'
'verdient_'
'verbreitete_'
'verbrauchen_'
'verbrachten_'
'verbinde_'
'verbal_'
'verabschieden_'
'vegetation_'
'vegetables_'
'varied_'
'variable_'
'vacation_'
'v_'
'utterly_'
'utter_'
'unzählige_'
'unvollständig_'
'untouched_'
'unthinkable_'
'untermauert_'
'unterliegen_'
'unteren_'
'unterdrückt_'
'unterdrücken_'
'unsustainable_'
'unsichtbarer_'
'unpredictable_'
'unmittelbar_'
'unlikely_'
'unlike_'
'unklar_'
'universities_'
'universes_'
'universell_'
'universally_'
'uniform_'
'unhealthy_'
'unfortunate_'
'underway_'
'underwater_'
'unconscious_'
'unbelievable_'
'unausweichlich_'
'umzubringen_'
'umher_'
'umgeht_'
'umdrehen_'
'ultra_'
'ugly_'
'tödliche_'
'täglichen_'
'typische_'
'tutor_'
'tuned_'
'tubes_'
'ts_'
'trugen_'
'trug_'
'tritt_'
'treibt_'
'trash_'
'transport_'
'transplants_'
'transmitted_'
'transit_'
'transformative_'
'transformational_'
'transcendent_'
'traits_'
'traditions_'
'traditionellen_'
'trading_'
'tourist_'
'toughest_'
'touched_'
'toten_'
'totale_'
'tomato_'
'tolles_'
'tight_'
'tidy_'
'thorium_'
'thin_'
'thesis_'
'thematisieren_'
'texting_'
'teurer_'
'teuren_'
'terrorism_'
'territory_'
'terrified_'
'terrain_'
'temperatures_'
'telephones_'
'technologists_'
'taxpayer_'
'tattoo_'
'targeted_'
'tanzten_'
'tanks_'
'tall_'
'talent_'
'süß_'
'südlich_'
'systematische_'
'synthetic_'
'synthesize_'
'swim_'
'sweeping_'
'sweat_'
'swam_'
'suspicious_'
'suspect_'
'surveillance_'
'surprisingly_'
'surgeries_'
'surgeon_'
'surge_'
'surely_'
'supported_'
'superpower_'
'supermarket_'
'suited_'
'suggestion_'
'sufferings_'
'suffer_'
'suchten_'
'suburbs_'
'subjective_'
'stößt_'
'stärksten_'
'stärken_'
'stunt_'
'studiere_'
'struggled_'
'strike_'
'stretching_'
'stressed_'
'streiten_'
'straightforward_'
'stoßen_'
'storyteller_'
'stores_'
'stored_'
'storage_'
'stones_'
'stiegen_'
'stepping_'
'stepped_'
'stehlen_'
'stechen_'
'steak_'
'stayed_'
'statistical_'
'starker_'
'stands_'
'stakeholders_'
'staircase_'
'stack_'
'squeeze_'
'squared_'
'springen_'
'spreading_'
'sports_'
'spoil_'
'spirit_'
'spin_'
'spielten_'
'spezifischen_'
'spezifische_'
'speeding_'
'specialists_'
'specialist_'
'speaker_'
'sozialer_'
'sorgt_'
'sons_'
'sometime_'
'someday_'
'solid_'
'soldier_'
'solches_'
'societies_'
'smooth_'
'smoked_'
'smarter_'
'smallest_'
'slides_'
'slice_'
'skins_'
'situations_'
'sinkt_'
'simulated_'
'simpel_'
'silence_'
'sichtbaren_'
'sicherzustellen_'
'sichern_'
'sicherer_'
'siblings_'
'shooting_'
'shook_'
'shocks_'
'shocked_'
'shock_'
'shit_'
'ships_'
'shiny_'
'shelves_'
'shells_'
'shark_'
'shake_'
'shadow_'
'sexy_'
'serving_'
'server_'
'served_'
'sequenced_'
'separation_'
'separated_'
'sensor_'
'sensation_'
'senden_'
'seltener_'
'seek_'
'secular_'
'secretly_'
'seasonal_'
'sealed_'
'se_'
'sculptures_'
'scuba_'
'scribble_'
'scraped_'
'schöner_'
'schwierigsten_'
'schwere_'
'schwach_'
'schreibt_'
'schrecklichen_'
'schooling_'
'scholars_'
'schneiden_'
'schnappte_'
'schlossen_'
'schlimm_'
'schließt_'
'schlicht_'
'schlechtes_'
'schlechten_'
'schizophrenia_'
'schickt_'
'schichten_'
'scheitern_'
'schade_'
'scenario_'
'scare_'
'scanning_'
'scales_'
'sauer_'
'sang_'
'sands_'
'salad_'
'sake_'
'safer_'
'sadness_'
'sacks_'
'rupees_'
'rum_'
'ruined_'
'ruft_'
'route_'
'rough_'
'roten_'
'rotating_'
'rose_'
'rosa_'
'rollen_'
'rituals_'
'rigid_'
'ridge_'
'rider_'
'rhythm_'
'revolving_'
'revolutions_'
'reveals_'
'returned_'
'retire_'
'rethink_'
'respects_'
'resort_'
'resolution_'
'resistance_'
'reserves_'
'reservation_'
'resembles_'
'require_'
'repräsentieren_'
'replicate_'
'rented_'
'rennt_'
'removed_'
'remains_'
'rely_'
'religiösen_'
'relay_'
'relatively_'
'relate_'
'reise_'
'reinigt_'
'reinforces_'
'reichsten_'
'rehabilitation_'
'regionalen_'
'regelrecht_'
'refugees_'
'refrigeration_'
'reference_'
'refer_'
'recorded_'
'reconstruct_'
'recommend_'
'recipes_'
'rechtzeitig_'
'rechte_'
'receptor_'
'receivers_'
'reasoning_'
'realm_'
'realistic_'
'reacting_'
'rational_'
'rapid_'
'raises_'
'rainforests_'
'rail_'
'radioactive_'
'radically_'
'rabbi_'
'quietly_'
'quer_'
'quarries_'
'pushed_'
'purse_'
'punch_'
'publication_'
'psychosoziale_'
'pshoo_'
'präzise_'
'prozentige_'
'providing_'
'proven_'
'proposal_'
'prophet_'
'proper_'
'projiziert_'
'progression_'
'programming_'
'produzierte_'
'processor_'
'probability_'
'privaten_'
'privacy_'
'prisoner_'
'priority_'
'priorities_'
'prior_'
'primordial_'
'primitive_'
'pricing_'
'prevention_'
'preventing_'
'pretend_'
'presidents_'
'preserving_'
'preserve_'
'presenting_'
'prepare_'
'premise_'
'pregnant_'
'pregnancy_'
'predicts_'
'predicted_'
'predictable_'
'predator_'
'prayer_'
'practices_'
'powers_'
'pound_'
'posed_'
'portal_'
'pornography_'
'populations_'
'popped_'
'poorest_'
'polio_'
'pole_'
'polar_'
'pointed_'
'pockets_'
'pocket_'
'planting_'
'plain_'
'placing_'
'placebo_'
'pitches_'
'pipelines_'
'pinpoint_'
'pinnacle_'
'pill_'
'pile_'
'pig_'
'pickle_'
'phänomenal_'
'physische_'
'physisch_'
'physiology_'
'physically_'
'photons_'
'photographers_'
'phenomenal_'
'phenomena_'
'pet_'
'persönlich_'
'persuaded_'
'peoples_'
'penguins_'
'pencils_'
'peel_'
'peculiar_'
'pasted_'
'passionate_'
'participants_'
'parrot_'
'paradox_'
'palästinensischen_'
'pairs_'
'paintings_'
'packt_'
'pack_'
'owners_'
'owe_'
'overhead_'
'oven_'
'output_'
'ours_'
'origins_'
'organizer_'
'organisch_'
'orders_'
'ordered_'
'optimistisch_'
'optimistic_'
'operational_'
'operation_'
'opens_'
'ooh_'
'ok_'
'official_'
'offers_'
'offener_'
'offenem_'
'offenbart_'
'occupation_'
'obese_'
'oberen_'
'nurses_'
'nowhere_'
'normalen_'
'nitric_'
'nighttime_'
'neuroscientist_'
'neuro_'
'neural_'
'neuem_'
'nerve_'
'negativen_'
'needle_'
'neat_'
'nearby_'
'natürliches_'
'nanotubes_'
'naked_'
'nahen_'
'nah_'
'nachweisen_'
'nachhaltigen_'
'nachhaltige_'
'nachdenke_'
'nachahmen_'
'müde_'
'mythology_'
'mystical_'
'mycelium_'
'mutual_'
'mustache_'
'musicians_'
'multiplied_'
'movements_'
'mouth_'
'motivation_'
'motivate_'
'mosquitos_'
'monsoon_'
'moderner_'
'mitzuteilen_'
'mitzumachen_'
'mittels_'
'misst_'
'minerals_'
'millimeter_'
'milligram_'
'microprocessor_'
'microbial_'
'micro_'
'methane_'
'metaphor_'
'mentor_'
'mentale_'
'memories_'
'meiste_'
'meinten_'
'meint_'
'meets_'
'mechanisms_'
'mechanics_'
'measuring_'
'measurements_'
'meanwhile_'
'meal_'
'meadow_'
'mayor_'
'mathematisches_'
'mathematician_'
'matching_'
'massiven_'
'markers_'
'marker_'
'marine_'
'maps_'
'manufacturers_'
'mantis_'
'manner_'
'managing_'
'manager_'
'mammals_'
'mainstream_'
'mainly_'
'mainframe_'
'mailbox_'
'magische_'
'lügen_'
'löst_'
'längeren_'
'lumber_'
'luckily_'
'lottery_'
'loswerden_'
'logische_'
'logical_'
'logic_'
'locomotor_'
'loads_'
'load_'
'livers_'
'lit_'
'listeners_'
'liquid_'
'lions_'
'limitations_'
'limbs_'
'lighting_'
'lifted_'
'lifespan_'
'liefert_'
'liefen_'
'liebten_'
'liebte_'
'liebend_'
'license_'
'libraries_'
'liberal_'
'leuchtet_'
'letting_'
'lets_'
'leidet_'
'leiden_'
'lehnen_'
'legitimate_'
'lege_'
'leer_'
'learns_'
'leaning_'
'lawyers_'
'lawn_'
'lauter_'
'laughing_'
'laughed_'
'lasse_'
'lass_'
'lasen_'
'langfristigen_'
'langfristig_'
'lanes_'
'landwirtschaftlichen_'
'landete_'
'landed_'
'lade_'
'lachen_'
'labs_'
'labor_'
'künstliche_'
'künstlerischen_'
'kämpft_'
'kämen_'
'kritischen_'
'kriege_'
'korrekt_'
'konsequent_'
'komplizierten_'
'komplexes_'
'komplexe_'
'komplette_'
'kommerziellen_'
'kommerzielle_'
'komm_'
'komisch_'
'kombiniert_'
'kollaborativen_'
'koennten_'
'knock_'
'klinischen_'
'klare_'
'kilometer_'
'kills_'
'kidding_'
'kg_'
'keinem_'
'kehrte_'
'kalt_'
'jünger_'
'jüdische_'
'jährlich_'
'jumps_'
'jugglers_'
'joyful_'
'journeyman_'
'jewelry_'
'jeweils_'
'jenem_'
'jegliche_'
'jar_'
'item_'
'israelischen_'
'irren_'
'ironisch_'
'irgendein_'
'iranischen_'
'invitation_'
'intuition_'
'intractable_'
'intolerable_'
'interviews_'
'interview_'
'intervene_'
'interpretieren_'
'internal_'
'interessierte_'
'interessantes_'
'interconnected_'
'interagiert_'
'intentions_'
'intensive_'
'intensiv_'
'intelligenter_'
'intellektuellen_'
'integrity_'
'integriert_'
'insult_'
'insulin_'
'instruments_'
'instrumental_'
'instrument_'
'institutional_'
'installation_'
'inspiring_'
'inspiration_'
'innovativen_'
'innovations_'
'inneren_'
'injury_'
'initial_'
'ingredient_'
'informal_'
'infinite_'
'infer_'
'infants_'
'infant_'
'induced_'
'indoors_'
'inches_'
'impulses_'
'improvisation_'
'improved_'
'implement_'
'implant_'
'impacts_'
'immense_'
'imaging_'
'imagined_'
'imagery_'
'illustrate_'
'illusions_'
'illusion_'
'ignored_'
'ignore_'
'identifizieren_'
'identified_'
'idealen_'
'iPhones_'
'höre_'
'höchsten_'
'hypothesis_'
'hunter_'
'hunderttausende_'
'humanities_'
'huh_'
'households_'
'horror_'
'hopeless_'
'hoop_'
'hoher_'
'hippie_'
'hinweisen_'
'hint_'
'hill_'
'hierfür_'
'hielt_'
'hidden_'
'hervorbringt_'
'herunter_'
'herstellte_'
'herrscht_'
'heroes_'
'herkommen_'
'herausnehmen_'
'herausgestellt_'
'heran_'
'hemisphere_'
'heißer_'
'heiß_'
'heimlich_'
'heilt_'
'hebt_'
'heaven_'
'headlines_'
'headache_'
'hay_'
'haul_'
'harte_'
'harming_'
'hangs_'
'hamburger_'
'halfen_'
'hacking_'
'habits_'
'günstigen_'
'guns_'
'guides_'
'guest_'
'guard_'
'gründete_'
'größtenteils_'
'größeres_'
'grundsätzlich_'
'großartiges_'
'grossartig_'
'gross_'
'grob_'
'grave_'
'grateful_'
'grasp_'
'grappling_'
'graphs_'
'grand_'
'gradually_'
'governance_'
'gorgeous_'
'glücklicher_'
'glorious_'
'glaubten_'
'glaubte_'
'glasses_'
'gigantischen_'
'geöffnet_'
'gezeichnet_'
'geworfen_'
'gewissen_'
'gewissem_'
'gewidmet_'
'gewartet_'
'gewann_'
'gewaltigen_'
'geteilt_'
'gesundheitliche_'
'gesunden_'
'gestohlen_'
'gestiegen_'
'gesendet_'
'geschossen_'
'geschlafen_'
'gescheitert_'
'gesamtes_'
'gerichtet_'
'gerettet_'
'geredet_'
'geradezu_'
'geraden_'
'geprägt_'
'geniuses_'
'genauen_'
'genaue_'
'gemeinsamen_'
'gemeinnützige_'
'gemachte_'
'gelb_'
'gehörten_'
'geheilt_'
'gegessen_'
'gegenseitige_'
'gefrorenen_'
'geformt_'
'gefolgt_'
'gefiel_'
'geese_'
'gedeihen_'
'garantiert_'
'gamma_'
'galt_'
'gallons_'
'gains_'
'fuzzy_'
'furniture_'
'funds_'
'functioning_'
'fulfill_'
'fuels_'
'ft_'
'früheren_'
'frustrierend_'
'frustration_'
'frustrating_'
'fruit_'
'frontiers_'
'frontier_'
'frisst_'
'friendly_'
'freuen_'
'frequently_'
'frequencies_'
'frankly_'
'fragile_'
'fraction_'
'founding_'
'fought_'
'fotografiert_'
'foster_'
'fossile_'
'fortunately_'
'fortschrittliche_'
'formerly_'
'formation_'
'forcing_'
'follows_'
'followed_'
'folds_'
'folded_'
'fold_'
'fluid_'
'floors_'
'flooding_'
'float_'
'flach_'
'fixed_'
'fits_'
'fission_'
'firm_'
'finds_'
'filters_'
'filling_'
'figuring_'
'fifth_'
'fiercely_'
'fibers_'
'fiber_'
'fever_'
'fetus_'
'festlegen_'
'festhalten_'
'festen_'
'fehlende_'
'feedback_'
'federal_'
'fed_'
'feature_'
'favelas_'
'fatalities_'
'fastest_'
'fassen_'
'farbigen_'
'fantastischen_'
'fantastische_'
'fancy_'
'fairness_'
'factories_'
'facility_'
'fMRI_'
'eyed_'
'extrahieren_'
'extract_'
'extinction_'
'extent_'
'expressions_'
'exposure_'
'exposing_'
'explorers_'
'exploited_'
'explodierte_'
'explanations_'
'experimentieren_'
'expectations_'
'exotic_'
'existierte_'
'existence_'
'excitement_'
'excessive_'
'examine_'
'exakt_'
'europäische_'
'eureka_'
'ethnic_'
'establish_'
'escape_'
'erzielen_'
'erwähnten_'
'erwischen_'
'erweiterte_'
'erstmals_'
'erstmal_'
'erstaunt_'
'erstaunliche_'
'erreichbar_'
'erregt_'
'ernsthafte_'
'erneuerbare_'
'ermutigt_'
'erlebten_'
'erlebte_'
'erlangen_'
'erkranken_'
'erkläre_'
'erhöhte_'
'erhielten_'
'erheben_'
'ergreifen_'
'erfolgreiche_'
'erfasst_'
'erfand_'
'erectus_'
'equipped_'
'equilibrium_'
'equator_'
'equations_'
'enzyme_'
'envelope_'
'enttäuscht_'
'entsprechen_'
'enthüllen_'
'enthusiasm_'
'entering_'
'entered_'
'entdeckten_'
'ensure_'
'engineered_'
'enger_'
'engagiert_'
'encyclopedia_'
'empowered_'
'empfindet_'
'emotionalen_'
'emissions_'
'emergence_'
'embryo_'
'embracing_'
'embodied_'
'embassy_'
'elusive_'
'elsewhere_'
'elite_'
'elephant_'
'elektronischen_'
'elektrischen_'
'elegant_'
'elderly_'
'elaborate_'
'einzuschränken_'
'einziges_'
'einverstanden_'
'einschließlich_'
'einnehmen_'
'eingesperrt_'
'eingeladen_'
'eingehen_'
'eingeführt_'
'einbaut_'
'eigentliche_'
'effizient_'
'efficacy_'
'educating_'
'edges_'
'ecosystems_'
'ecological_'
'eco_'
'dünne_'
'dysfunctional_'
'dynamische_'
'duty_'
'durften_'
'durchzuführen_'
'durchgehen_'
'durchführen_'
'durchaus_'
'dump_'
'dumme_'
'dumb_'
'duck_'
'drückte_'
'drops_'
'drivers_'
'drinnen_'
'drinks_'
'drink_'
'drilling_'
'dressed_'
'dreimal_'
'drawings_'
'draussen_'
'dramatische_'
'dozens_'
'downstream_'
'doses_'
'doors_'
'dolphin_'
'dokumentieren_'
'dodecahedron_'
'divinity_'
'divided_'
'distress_'
'distinct_'
'displaced_'
'diskutiert_'
'discovering_'
'discoveries_'
'disciplines_'
'disappears_'
'disappearing_'
'disappeared_'
'disabled_'
'dirty_'
'dirt_'
'directors_'
'directed_'
'dinosaur_'
'dilemmas_'
'dignity_'
'digitalisieren_'
'diesmal_'
'dieselben_'
'dictators_'
'diamonds_'
'diagnostiziert_'
'devout_'
'developments_'
'devastating_'
'deutschen_'
'deutet_'
'detection_'
'details_'
'destroys_'
'destroying_'
'destroyed_'
'destination_'
'desk_'
'designs_'
'derselbe_'
'depths_'
'depth_'
'deployed_'
'depending_'
'dentist_'
'denser_'
'dengue_'
'demonstriert_'
'demonstrieren_'
'delivery_'
'deficit_'
'decrease_'
'declining_'
'deception_'
'deathbed_'
'dealt_'
'dauernd_'
'databases_'
'darkness_'
'darkest_'
'dancers_'
'daily_'
'cylinder_'
'curves_'
'cumulative_'
'crow_'
'crossroads_'
'creator_'
'creatively_'
'crawling_'
'crashes_'
'cracks_'
'crack_'
'coupled_'
'councils_'
'corresponding_'
'correctly_'
'corn_'
'cores_'
'copies_'
'coordination_'
'coole_'
'cook_'
'convulsion_'
'conviction_'
'convert_'
'controversial_'
'contradiction_'
'contracts_'
'continuously_'
'continued_'
'continent_'
'contemplating_'
'contains_'
'constructions_'
'constructed_'
'construct_'
'constraints_'
'constrained_'
'constellation_'
'consistently_'
'consistent_'
'considering_'
'conservative_'
'consequence_'
'conscious_'
'connectivity_'
'confusing_'
'conducted_'
'conduct_'
'concert_'
'concepts_'
'conceived_'
'compound_'
'complain_'
'compassionate_'
'comparison_'
'compact_'
'commute_'
'communist_'
'communications_'
'communal_'
'committee_'
'comments_'
'command_'
'comics_'
'comfort_'
'comet_'
'comedy_'
'combine_'
'column_'
'colorful_'
'colonies_'
'collected_'
'collagen_'
'collaborator_'
'coli_'
'coin_'
'codes_'
'co_'
'clothing_'
'cloth_'
'clinics_'
'climb_'
'cliff_'
'clicks_'
'cleverer_'
'civil_'
'citizenship_'
'citizen_'
'circular_'
'church_'
'choosing_'
'chimps_'
'chimpanzee_'
'chiefs_'
'checked_'
'cheaply_'
'characteristics_'
'chapter_'
'chamber_'
'challenged_'
'cerebral_'
'celebrating_'
'ceiling_'
'cats_'
'catastrophe_'
'catalyst_'
'casually_'
'cash_'
'carrot_'
'caregivers_'
'carbs_'
'campus_'
'camel_'
'calculus_'
'cage_'
'bzw_'
'buys_'
'businessman_'
'burst_'
'bunker_'
'bum_'
'bug_'
'bubbles_'
'brush_'
'broader_'
'bringe_'
'brilliantly_'
'brick_'
'bricht_'
'brevity_'
'breeding_'
'breakfast_'
'branches_'
'branch_'
'bottles_'
'borrowing_'
'boots_'
'boost_'
'boil_'
'boats_'
'blown_'
'blocked_'
'blieben_'
'blickte_'
'blew_'
'blank_'
'blade_'
'biopsy_'
'biologische_'
'billige_'
'biases_'
'biased_'
'bezogen_'
'bezieht_'
'beziehen_'
'bezeichne_'
'bewegliche_'
'bewegend_'
'bewahrt_'
'bewahren_'
'betrügen_'
'bet_'
'besuchte_'
'besprochen_'
'besorgen_'
'besonderen_'
'besiegen_'
'besides_'
'beside_'
'beschützen_'
'beschleunigt_'
'beschleunigen_'
'berühren_'
'berücksichtigt_'
'beruhigen_'
'berserk_'
'berechnen_'
'bemerkenswert_'
'belongs_'
'belly_'
'beliefs_'
'bekämpfen_'
'bekannter_'
'beinhalten_'
'beigetragen_'
'behaving_'
'behaved_'
'begleitet_'
'beginne_'
'befreit_'
'befreien_'
'befanden_'
'befallen_'
'beetles_'
'beenden_'
'beeindruckend_'
'bedient_'
'bedeutendsten_'
'bedeutende_'
'bedenken_'
'bedecken_'
'beating_'
'beaten_'
'bearbeitet_'
'bearbeiten_'
'bath_'
'basketball_'
'basierte_'
'baseline_'
'bars_'
'banks_'
'balloons_'
'baking_'
'bahnbrechende_'
'badly_'
'backward_'
'backup_'
'außergewöhnlich_'
'automobiles_'
'authority_'
'ausschließlich_'
'ausmacht_'
'ausländische_'
'ausgesprochen_'
'ausgesetzt_'
'ausgesehen_'
'ausgelöscht_'
'ausgegeben_'
'ausbreitet_'
'aufzuräumen_'
'aufzupassen_'
'aufweist_'
'aufsetzen_'
'aufnehmen_'
'aufhört_'
'aufhalten_'
'aufgewachsen_'
'aufgetaucht_'
'attribute_'
'attempts_'
'attacks_'
'atmet_'
'atheists_'
'astronomy_'
'astronomical_'
'astronauts_'
'astonishingly_'
'assured_'
'assistant_'
'assets_'
'artwork_'
'argument_'
'approached_'
'apple_'
'appeal_'
'apathy_'
'apartments_'
'anzusehen_'
'anzuschauen_'
'anzugehen_'
'anzubieten_'
'anxious_'
'anxiety_'
'antwortet_'
'antun_'
'antreibt_'
'anthropologists_'
'anteilnehmende_'
'answered_'
'anstelle_'
'ansonsten_'
'annoying_'
'anlegen_'
'anhören_'
'angreifen_'
'angetan_'
'angepasst_'
'anfühlt_'
'anfängt_'
'anfassen_'
'anesthesia_'
'anerkennen_'
'anderswo_'
'anbieten_'
'anatomy_'
'analogous_'
'amenable_'
'altes_'
'allzu_'
'allgegenwärtig_'
'alien_'
'alibi_'
'alarming_'
'aktiven_'
'airfield_'
'ah_'
'agreement_'
'agreeing_'
'agent_'
'agenda_'
'agency_'
'afrikanischen_'
'afghanischen_'
'affordable_'
'affects_'
'aesthetics_'
'aesthetic_'
'advances_'
'administration_'
'adjacent_'
'additional_'
'addition_'
'adaptation_'
'acts_'
'acquire_'
'accidents_'
'accessible_'
'accepted_'
'accelerating_'
'academy_'
'abspielen_'
'absorb_'
'absichtlich_'
'abilities_'
'abheben_'
'abgestimmt_'
'abends_'
'^_'
'Zylinder_'
'Zwischen_'
'Zweig_'
'Zusätzlich_'
'Zurück_'
'Zone_'
'Zivilisationen_'
'Zigarre_'
'Zeigen_'
'Zeichnungen_'
'Zeichensprache_'
'Yves_'
'Young_'
'Y_'
'Würde_'
'Wände_'
'Wussten_'
'Wright_'
'Wozu_'
'Wortes_'
'WorldWide_'
'Wollen_'
'Wohnung_'
'Wohlbefinden_'
'Wohin_'
'Wodurch_'
'Witz_'
'Wissens_'
'Wird_'
'Wildnis_'
'Wettbewerb_'
'Wesentlichen_'
'Wertversprechen_'
'Werkzeugen_'
'Werkstatt_'
'Weißt_'
'Weißen_'
'Weiß_'
'Weisheit_'
'Weiffenbach_'
'Weibo_'
'Wegwerf_'
'Week_'
'Watt_'
'Wasserstoff_'
'Waschmaschinen_'
'Warten_'
'Warren_'
'Wann_'
'Wanderung_'
'Wandertaube_'
'Wagner_'
'Wachstumsrate_'
'Vögeln_'
'Vortrags_'
'Vorstädte_'
'Vorschlag_'
'Vorlesungen_'
'Vorhersagen_'
'Vorgehensweise_'
'Vorgang_'
'Voice_'
'Visionen_'
'Virgin_'
'Viren_'
'Vier_'
'Verwandlung_'
'Verträge_'
'Vertrag_'
'Verpackung_'
'Vernunft_'
'Vermögen_'
'Verkäufer_'
'Verkauf_'
'Verhaltens_'
'Verfassung_'
'Verfahren_'
'Verbraucher_'
'Verbinden_'
'Variationen_'
'Variablen_'
'Vannevar_'
'Usually_'
'Unterwelt_'
'Unternehmens_'
'Unterkünfte_'
'Unrecht_'
'Unglück_'
'Unfälle_'
'Umstände_'
'Umstellung_'
'Ukrainian_'
'USB_'
'Tänzer_'
'Twice_'
'Tut_'
'Try_'
'Trust_'
'Trick_'
'Trichter_'
'Treffen_'
'Transition_'
'Tragödie_'
'Tragik_'
'Traditionen_'
'Toyota_'
'Toten_'
'Tommy_'
'Tombo_'
'Tolle_'
'Tja_'
'Tim_'
'Tiger_'
'Tiefen_'
'Tiefe_'
'Third_'
'Things_'
'Therapien_'
'Therapie_'
'Theorien_'
'Thailand_'
'Texas_'
'Teufels_'
'Tesla_'
'Teppich_'
'Tendenz_'
'Tempest_'
'Temperaturen_'
'Tempel_'
'Tell_'
'Teig_'
'Teenagern_'
'Tee_'
'Ted_'
'Taten_'
'Tanzania_'
'Tanz_'
'Tank_'
'Tal_'
'Tahltan_'
'Tageslicht_'
'Südafrika_'
'Sänger_'
'Szenerie_'
'Systemen_'
'Syria_'
'Sympathie_'
'Symbole_'
'Svalbard_'
'Susan_'
'Sure_'
'Suppe_'
'Super_'
'Subsahara_'
'Sub_'
'Stücken_'
'Stückchen_'
'Stämme_'
'Studierende_'
'Strömungen_'
'Ströme_'
'Stränge_'
'Streben_'
'Strasse_'
'Stockwerke_'
'Stock_'
'Stift_'
'Stich_'
'Steven_'
'Steine_'
'Steak_'
'Statistik_'
'Start_'
'Stalin_'
'Spring_'
'Spinnen_'
'Spielzeug_'
'Spenden_'
'Spass_'
'Spain_'
'Spaghetti_'
'Sook_'
'Sommerliebe_'
'Somebody_'
'Sollte_'
'Soldaten_'
'Solche_'
'Snow_'
'Sleep_'
'Singapore_'
'Silicon_'
'Sieh_'
'Shephelah_'
'Service_'
'Sensoren_'
'Sendungen_'
'Seele_'
'Sebastian_'
'Sea_'
'Scratch_'
'Scott_'
'Schöpfer_'
'Schöne_'
'Schätzungen_'
'Schwestern_'
'Schwerkraft_'
'Schweine_'
'Schweigen_'
'Schwarze_'
'Schultern_'
'Schulsystem_'
'Schulbildung_'
'Schon_'
'Schocks_'
'Schnurrbart_'
'Schlaug_'
'Schlangen_'
'Schizophrenie_'
'Schere_'
'Scheitern_'
'Schauspieler_'
'Schale_'
'Saturn_'
'Satelliten_'
'Santa_'
'Samen_'
'Salz_'
'Sag_'
'Sadly_'
'Saddam_'
'Sacred_'
'Sack_'
'Rückkehr_'
'Räder_'
'Ryan_'
'Rwanda_'
'Russian_'
'Russell_'
'Ruhm_'
'Ruhe_'
'Rufen_'
'Roten_'
'Rot_'
'Rose_'
'Romane_'
'Roche_'
'Robinson_'
'Robicsek_'
'Rituale_'
'Risikofaktoren_'
'Rhythmus_'
'Rezepte_'
'Resultate_'
'Republicans_'
'Republican_'
'Renaissance_'
'Remix_'
'Regionen_'
'Reflektion_'
'Reduktion_'
'Reddit_'
'Ready_'
'Raumstation_'
'Raumschiff_'
'Raumdimensionen_'
'Raumbühne_'
'Rather_'
'Randi_'
'Rakete_'
'Rachel_'
'RS_'
'Quellen_'
'Qatar_'
'Puppen_'
'Punta_'
'Präsenz_'
'Prozentsatz_'
'Protozelle_'
'Profit_'
'Professoren_'
'Problems_'
'Probe_'
'Probably_'
'Privileg_'
'Prioritäten_'
'Priorität_'
'Prego_'
'Poster_'
'Post_'
'Positionen_'
'Population_'
'Poor_'
'Pollock_'
'Pole_'
'Plexiglas_'
'Play_'
'Plastik_'
'Plains_'
'Pitt_'
'Pilz_'
'Pillen_'
'Pik_'
'Picasso_'
'Ph_'
'Pflanze_'
'Pfeffer_'
'Perhaps_'
'Pepsi_'
'Peng_'
'Pearl_'
'Parlament_'
'Parkplatz_'
'Pants_'
'Pandemie_'
'Palästina_'
'Palace_'
'Pakistan_'
'Paare_'
'PR_'
'PIPA_'
'PC_'
'Others_'
'Ostküste_'
'Origami_'
'Orientierung_'
'Orgasmus_'
'Organismus_'
'Organisationen_'
'Orbit_'
'Orange_'
'Olympic_'
'Oil_'
'Often_'
'Obviously_'
'Nutzer_'
'Nummern_'
'Nr_'
'Normally_'
'Ninety_'
'Nimm_'
'Nigerias_'
'Nigerian_'
'Nice_'
'Nevada_'
'Nervenzellen_'
'Nervensystem_'
'Nennen_'
'Navy_'
'Naturkatastrophen_'
'Naturally_'
'Nase_'
'Nahrungskette_'
'Nahen_'
'Nadel_'
'Nachteil_'
'Nachkommen_'
'Nachforschungen_'
'NYU_'
'Müttern_'
'Müll_'
'Mücke_'
'Mögliche_'
'Mäusen_'
'März_'
'Mythologie_'
'Muskeln_'
'Muskelkraft_'
'Muriel_'
'Mt_'
'Movement_'
'Move_'
'Morgens_'
'Mord_'
'Moldova_'
'Mola_'
'Modellen_'
'Mix_'
'Mitternacht_'
'Mittelschicht_'
'Missionar_'
'Minto_'
'Minister_'
'Mindestlohn_'
'Mind_'
'Min_'
'Mikroskop_'
'Mikro_'
'Midwest_'
'Mick_'
'Messung_'
'Mermaid_'
'Merkmale_'
'Men_'
'Melbourne_'
'Meister_'
'Meinungen_'
'Medicaid_'
'McSweeney_'
'Maßnahmen_'
'Maya_'
'Marken_'
'Maria_'
'Margaret_'
'Marduk_'
'March_'
'Mao_'
'Mannes_'
'Mandela_'
'Mall_'
'Malawi_'
'Maitreya_'
'Mais_'
'Main_'
'Mails_'
'Mai_'
'Mahlzeit_'
'Magellan_'
'Magazin_'
'Mach_'
'Mac_'
'MTN_'
'Lücken_'
'Luke_'
'Love_'
'Lotto_'
'Living_'
'Linus_'
'Linse_'
'Links_'
'Leuchten_'
'Lesters_'
'Less_'
'Lektionen_'
'Leiter_'
'Leinwand_'
'Lehren_'
'Lehre_'
'Lego_'
'Lebensweise_'
'Lebensräume_'
'Langem_'
'Landschaften_'
'Lagos_'
'Laender_'
'LHC_'
'LED_'
'Künstlern_'
'Künste_'
'Küche_'
'Könnte_'
'Kursen_'
'Kreise_'
'Kreatur_'
'Krabbe_'
'Kortex_'
'Kopien_'
'Kopie_'
'Konzerte_'
'Konversation_'
'Konsumenten_'
'Konsum_'
'Konstruktion_'
'Kong_'
'Konflikte_'
'Kompromiss_'
'Komm_'
'Kolonie_'
'Kokain_'
'Knopf_'
'Klänge_'
'Klischees_'
'Klinik_'
'Kleider_'
'Kleiber_'
'Kisten_'
'Kino_'
'Kingdom_'
'Kindes_'
'Kindergarten_'
'Kids_'
'Kid_'
'Kickstarter_'
'Kibera_'
'Khan_'
'Kerry_'
'Kelly_'
'Keith_'
'Kategorie_'
'Katastrophen_'
'Karajan_'
'Kapitalisten_'
'Kapazitäten_'
'Kanal_'
'Kameraden_'
'Kabul_'
'Jurassic_'
'Jung_'
'July_'
'Juli_'
'Jugend_'
'Journalisten_'
'Johnny_'
'Jim_'
'Jewish_'
'Jedenfalls_'
'Jay_'
'January_'
'Jamie_'
'Jahrzehnten_'
'Jahrzehnt_'
'Jahrhunderte_'
'JPL_'
'Italy_'
'Islam_'
'Iraqi_'
'Investition_'
'Introvertierte_'
'Interviewer_'
'Internets_'
'Instrument_'
'Innere_'
'Initiative_'
'Inhalte_'
'Ingenieure_'
'Indonesia_'
'Indiens_'
'Indians_'
'Indeed_'
'Immunität_'
'Ignoranz_'
'Ice_'
'IDEO_'
'Hören_'
'Häusern_'
'Hyäne_'
'Hypothese_'
'Humor_'
'Humans_'
'Hulk_'
'Hudson_'
'Hotels_'
'Hopefully_'
'Hof_'
'Hm_'
'Hindu_'
'Hinblick_'
'Himalayas_'
'Highschool_'
'Hierarchie_'
'Hersteller_'
'Herrn_'
'Hautzellen_'
'Hauptquartier_'
'Haufen_'
'Harry_'
'Harmonie_'
'Hardware_'
'Handy_'
'Handel_'
'Hammer_'
'Haltung_'
'Halluzinationen_'
'Half_'
'Habe_'
'Güte_'
'Gründer_'
'Größenordnung_'
'Großen_'
'Große_'
'Grippe_'
'Greenpeace_'
'Green_'
'Gravitation_'
'Grateful_'
'Gras_'
'Grammatik_'
'Grab_'
'Gov_'
'Gossamer_'
'Goldberg_'
'Going_'
'Glenn_'
'Gipfel_'
'Gewebe_'
'Gesichtsausdrücke_'
'Gesellschaften_'
'Geschäftsmodell_'
'Geschlechtsverkehr_'
'Geschichtenerzähler_'
'Gesang_'
'Gerüst_'
'Geräusch_'
'Geruch_'
'Gericht_'
'Genüge_'
'Genauso_'
'Gelb_'
'Gefangenschaft_'
'Gefangenendilemma_'
'Gefangenen_'
'Gefangene_'
'Gedichte_'
'Gebilde_'
'Gaza_'
'Gando_'
'Galvao_'
'Galton_'
'Gabriel_'
'Fünftel_'
'Führungspersonen_'
'Führungskräfte_'
'Fötus_'
'Föten_'
'Fußball_'
'Funktionsweise_'
'Fulla_'
'Früher_'
'Friends_'
'Freundin_'
'Frequenz_'
'Freiheiten_'
'Free_'
'Fort_'
'Forschungsgruppe_'
'Folien_'
'Flüssigkeiten_'
'Flüsse_'
'Flucht_'
'Flow_'
'Flossen_'
'Fliege_'
'Fingern_'
'Finanzierung_'
'Films_'
'Filmemacher_'
'Fifth_'
'Feststellung_'
'Ferse_'
'Ferrofluid_'
'Feind_'
'FedEx_'
'Faso_'
'Farmer_'
'Family_'
'Faktoren_'
'Fabrik_'
'Expertise_'
'Experimenten_'
'Everest_'
'Evan_'
'Euro_'
'Euer_'
'Etwa_'
'Ethiopia_'
'Ethanol_'
'Erzählung_'
'Erste_'
'Erschaffung_'
'Erleben_'
'Erinnern_'
'Erfolge_'
'Erfindung_'
'Ereignisse_'
'Erdoberfläche_'
'Enzyklopädie_'
'Entwicklungsländer_'
'Entweder_'
'Engineering_'
'Energiequelle_'
'End_'
'Enceladus_'
'Empire_'
'Email_'
'Elektroden_'
'Elefanten_'
'Eleanor_'
'Einzelnen_'
'Einwohner_'
'Einstellung_'
'Einsichten_'
'Einfühlungsvermögen_'
'Einfach_'
'Eichhörnchen_'
'Ei_'
'Ehrlich_'
'Ehe_'
'Egypt_'
'Egal_'
'Edwin_'
'Ebenbild_'
'ED_'
'Dörfern_'
'Dächer_'
'Durchfall_'
'Dunkelheit_'
'Dung_'
'Duke_'
'Drittel_'
'Down_'
'Dokumentation_'
'Doc_'
'Diät_'
'Disziplin_'
'Diskussionen_'
'Dirigenten_'
'Dinner_'
'Diesen_'
'Diamanten_'
'Devices_'
'Deutschland_'
'Designs_'
'Designprozess_'
'Descartes_'
'Depressionen_'
'Denkmuster_'
'Denisova_'
'Democrats_'
'Democratic_'
'Dem_'
'Davor_'
'Daumen_'
'Data_'
'Dasselbe_'
'Darm_'
'Darin_'
'Dankeschön_'
'Dame_'
'Dallas_'
'Dai_'
'Daddy_'
'DMCA_'
'Culture_'
'Cruz_'
'Creative_'
'County_'
'Country_'
'Council_'
'Costa_'
'Computerspiele_'
'Computers_'
'Colombia_'
'Cole_'
'Club_'
'Close_'
'Clip_'
'Clinton_'
'Christus_'
'Christmas_'
'Christ_'
'Chr_'
'Chopin_'
'Chirurgen_'
'Chinas_'
'Chaos_'
'Champion_'
'Chambal_'
'Centre_'
'Celsius_'
'Catholic_'
'Carnegie_'
'Camp_'
'Call_'
'CO_'
'CIA_'
'CEO_'
'Busse_'
'Burton_'
'Burkina_'
'Brüder_'
'Briten_'
'Bring_'
'Brille_'
'Briefe_'
'Breite_'
'Brazilian_'
'Brand_'
'Boys_'
'Boxen_'
'Box_'
'Both_'
'Boss_'
'Bord_'
'Bonnet_'
'Bomben_'
'Blumen_'
'Biotechnologie_'
'Bildungswesen_'
'Bier_'
'Bienenstock_'
'Bewusstseins_'
'Between_'
'Betrag_'
'Betrachters_'
'Beton_'
'Bestrahlung_'
'Bestimmung_'
'Beschäftigung_'
'Beschreibung_'
'Bescheid_'
'Beruf_'
'Berichterstattung_'
'Bericht_'
'Berg_'
'Believe_'
'Belege_'
'Begleiter_'
'Bedürfnissen_'
'Bedürfnis_'
'Bedarf_'
'Beau_'
'Bear_'
'Be_'
'Baumkronen_'
'Basically_'
'Baseball_'
'Barbara_'
'Barack_'
'Ball_'
'Bald_'
'Bahn_'
'BMW_'
'BL_'
'Außenseite_'
'Austria_'
'Austausch_'
'Aussicht_'
'Ausrottung_'
'Ausgabe_'
'August_'
'Aufwand_'
'Aufnahmen_'
'Aufnahme_'
'Aufklärung_'
'Attribute_'
'Atmosphäre_'
'Asiens_'
'Arthur_'
'Around_'
'Armee_'
'Architekten_'
'Architekt_'
'Arbeitslosigkeit_'
'Arbeiter_'
'Arabic_'
'Anybody_'
'Any_'
'Anwälte_'
'Anweisungen_'
'Anwalt_'
'Antikörper_'
'Antibiotika_'
'Anthropologen_'
'Ansätze_'
'Anpassungsfähigkeit_'
'Annie_'
'Annahmen_'
'Angiogenese_'
'Angelegenheit_'
'Angebot_'
'Anders_'
'Amerikanische_'
'Amazonas_'
'Amanda_'
'Although_'
'Alternativen_'
'Alphabet_'
'Alpha_'
'Alley_'
'Allen_'
'Alice_'
'Alfred_'
'Alexander_'
'Albert_'
'Airbus_'
'Afghan_'
'Affen_'
'Adressen_'
'Acht_'
'Achilles_'
'Academy_'
'Absichten_'
'About_'
'Abfolge_'
'Abends_'
'Abendessen_'
'Ab_'
'AM_'
'?", _'
':"_'
'96_'
'93_'
'92_'
'900_'
'80er_'
'78_'
'76_'
'683_'
'65_'
'62_'
'47_'
'46_'
'43_'
'38_'
'33_'
'30er_'
'2030_'
'2007_'
'1999_'
'1998_'
'1993_'
'1989_'
'1982_'
'1980_'
'1974_'
'1966_'
'1960s_'
'1957_'
'1955_'
'1950s_'
'1949_'
'1932_'
'1924_'
'1913_'
'18th_'
'1877_'
'1800_'
'170_'
'160_'
'00_'
'.._'
'.'_'
'.'" _'
', – _'
', -- _'
', - _'
'', _'
'" ._'
'" - _'
'!" _'
'! – _'
' : _'
' --- _'
'– _'
'üblicherweise_'
'übliche_'
'üblich_'
'überzogen_'
'überwältigend_'
'überträgt_'
'übertrieben_'
'übersehen_'
'überschritten_'
'überschreitet_'
'überschneiden_'
'übers_'
'überraschenden_'
'überlegt_'
'überlebten_'
'überlappen_'
'überdenken_'
'überbrücken_'
'üben_'
'öfter_'
'öffnet_'
'öffentliches_'
'öffentlich_'
'äusserst_'
'ästhetischen_'
'ästhetische_'
'ältesten_'
'älteste_'
'älter_'
'ähneln_'
'Übungsaufgaben_'
'Übung_'
'Überreste_'
'Übergang_'
'Ökosysteme_'
'Öffnung_'
'Äthiopien_'
'Ärger_'
'» _'
'« _'
'züchteten_'
'züchten_'
'zweithäufigste_'
'zweites_'
'zweieinhalb_'
'zuwenden_'
'zuviel_'
'zuverlässig_'
'zusätzlichen_'
'zusätzliche_'
'zusehen_'
'zusammenzufassen_'
'zusammenkommen_'
'zusammengestellt_'
'zurückzuziehen_'
'zurückzukehren_'
'zurückzuholen_'
'zurückzieht_'
'zurückgreifen_'
'zurückgelassen_'
'zurzeit_'
'zurueck_'
'zurecht_'
'zunehmende_'
'zulegen_'
'zukommt_'
'zugute_'
'zugenommen_'
'zugeführt_'
'zugeben_'
'zufolge_'
'zuallererst_'
'zoo_'
'zitierte_'
'zitiert_'
'zigzag_'
'ziemlicher_'
'ziehe_'
'zerteilt_'
'zerstörte_'
'zerlegt_'
'zerfallen_'
'zerbrechen_'
'zeitgenössischen_'
'zehnten_'
'zehntausend_'
'zahlt_'
'zahlreicher_'
'yuck_'
'yield_'
'yeast_'
'yay_'
'würdet_'
'wörtlich_'
'wärt_'
'währenddessen_'
'wußten_'
'wußte_'
'wundervolle_'
'wunderschön_'
'wunderbarer_'
'wuerde_'
'wu_'
'writes_'
'writers_'
'wrapped_'
'wozu_'
'wortwörtlich_'
'worn_'
'wool_'
'woods_'
'woo_'
'wonders_'
'wonach_'
'wolltest_'
'wollt_'
'woke_'
'wohingegen_'
'woher_'
'wobbling_'
'wizards_'
'withstand_'
'withdrawals_'
'wissenschaftlicher_'
'wishing_'
'wiser_'
'wirtschaftlicher_'
'wirtschaftlichem_'
'wirfst_'
'winziges_'
'winziger_'
'winners_'
'winds_'
'willkürliche_'
'willkommen_'
'wilderness_'
'wilden_'
'wiki_'
'wiederholen_'
'widerstehen_'
'widersprüchlich_'
'wider_'
'widening_'
'wichtiges_'
'whistling_'
'whistled_'
'wheat_'
'westliche_'
'western_'
'wertvollste_'
'wendet_'
'weltweiten_'
'wellness_'
'wellheads_'
'welcome_'
'weißt_'
'weißes_'
'weitgehend_'
'weitem_'
'weite_'
'weitaus_'
'weiser_'
'weisen_'
'weirdo_'
'weinte_'
'weinend_'
'weinen_'
'weiche_'
'wehrte_'
'weh_'
'wegfliegen_'
'weekends_'
'wedding_'
'websites_'
'weary_'
'weakness_'
'waxy_'
'wavelength_'
'watery_'
'wasted_'
'washing_'
'washer_'
'wash_'
'waschen_'
'warteten_'
'warps_'
'warning_'
'wanderings_'
'wander_'
'wandelt_'
'wallet_'
'wahrsten_'
'wahrscheinlicher_'
'wahrnimmt_'
'wahrgenommen_'
'wahres_'
'wagen_'
'wage_'
'wachsende_'
'wach_'
'voting_'
'vorzulesen_'
'vorteilhaft_'
'vornherein_'
'vorhersagen_'
'vorgenommen_'
'vorgelesen_'
'vorausgesetzt_'
'voraus_'
'vorantreibt_'
'vorantreiben_'
'vollständige_'
'vollem_'
'voilà_'
'voids_'
'visuell_'
'visually_'
'visualize_'
'visitors_'
'visceral_'
'virtuous_'
'virtues_'
'virtuelle_'
'violin_'
'views_'
'viewed_'
'vierten_'
'vielversprechend_'
'vielfältig_'
'vieles_'
'vice_'
'vet_'
'veröffentlichte_'
'verärgert_'
'verzweifelt_'
'verzichten_'
'verzeichnet_'
'verwunderlich_'
'verwirrt_'
'verwaltet_'
'verursachten_'
'verursachte_'
'vertrieben_'
'vertreiben_'
'vertiefen_'
'verstärkt_'
'verstärken_'
'versteckte_'
'versteckt_'
'verspricht_'
'versprechen_'
'verspreche_'
'versetzte_'
'verschwundenen_'
'verschmutzt_'
'verschlechtert_'
'verschieden_'
'verschieben_'
'versatile_'
'versammelte_'
'versah_'
'versagen_'
'verrückten_'
'verpasst_'
'vernünftigen_'
'vernünftig_'
'vernarrt_'
'vermischen_'
'verläuft_'
'verlängern_'
'verlorenes_'
'verlierst_'
'verliehen_'
'verlieben_'
'verletzt_'
'verleiht_'
'verleihen_'
'verlaufen_'
'verlangsamen_'
'verkünden_'
'verkleinert_'
'verkleinern_'
'verglich_'
'vergleichbar_'
'vergewaltigt_'
'vergeben_'
'vergangene_'
'vergangen_'
'verfüttern_'
'verfasst_'
'vereinfachen_'
'vereinen_'
'verdoppeln_'
'verdiente_'
'verdienen_'
'verdammten_'
'verbundenen_'
'verbundene_'
'verbringe_'
'verbrennt_'
'verbreiteten_'
'verblüffende_'
'verbannt_'
'ventilation_'
'veiled_'
'vehicle_'
'vegetarians_'
'vector_'
'valleys_'
'valley_'
'validates_'
'validated_'
'vacuum_'
'uttered_'
'user_'
'ursprünglich_'
'urgency_'
'urge_'
'urethra_'
'urbanisieren_'
'upwards_'
'upside_'
'uprising_'
'uploaded_'
'upload_'
'uphill_'
'upgrade_'
'update_'
'unwahrscheinlich_'
'unterteilt_'
'untersuche_'
'unterstützende_'
'unterschiedlicher_'
'unternehmen_'
'unterhalten_'
'untergebracht_'
'unterbringen_'
'unterbinden_'
'unsichtbaren_'
'unsicher_'
'unsafe_'
'unrelated_'
'unnecessary_'
'unleavened_'
'unleashing_'
'unleash_'
'unjust_'
'universale_'
'unity_'
'united_'
'unite_'
'unimaginable_'
'unheimliche_'
'unheimlich_'
'unglaubliches_'
'ungeschützt_'
'ungeheuer_'
'unfold_'
'unerwartete_'
'undeutlich_'
'understands_'
'understandable_'
'underlying_'
'uncover_'
'uncool_'
'uncles_'
'uncle_'
'uncertain_'
'unbewusst_'
'unbeständig_'
'unbedeutend_'
'unabhängige_'
'un_'
'umzuwandeln_'
'ums_'
'umkreist_'
'umgebenden_'
'umarmen_'
'ultraviolet_'
'ultrasound_'
'ultimate_'
'ueberall_'
'tötete_'
'tötet_'
'tätigen_'
'täten_'
'typisch_'
'typing_'
'typically_'
'twittern_'
'twists_'
'tweet_'
'tutoring_'
'turtles_'
'turbulenten_'
'tunnels_'
'tunnel_'
'tuna_'
'träumte_'
'trusting_'
'trusted_'
'trunk_'
'troubled_'
'troop_'
'trockene_'
'trinke_'
'tries_'
'treu_'
'trete_'
'trends_'
'treffe_'
'treatments_'
'treaties_'
'travels_'
'traveled_'
'transportiert_'
'transportieren_'
'transported_'
'transplantieren_'
'transparency_'
'transmitting_'
'transmission_'
'translator_'
'translating_'
'transistors_'
'transforms_'
'transforming_'
'transfer_'
'transactions_'
'trajectory_'
'trafficking_'
'traditionally_'
'tracks_'
'tracking_'
'tracked_'
'trace_'
'toxins_'
'towns_'
'tower_'
'tougher_'
'tote_'
'topics_'
'tooth_'
'tone_'
'toller_'
'tolerate_'
'tolerance_'
'toilet_'
'titled_'
'tissues_'
'tirelessly_'
'tips_'
'tip_'
'tinier_'
'timeline_'
'tilt_'
'ties_'
'tiefgreifende_'
'tide_'
'tidal_'
'ticket_'
'thus_'
'thumb_'
'throws_'
'throwing_'
'thrilling_'
'threshold_'
'threatening_'
'threatened_'
'threaten_'
'thirds_'
'thirdly_'
'thermo_'
'therein_'
'textile_'
'teures_'
'teure_'
'testosterone_'
'terror_'
'terribly_'
'tension_'
'tendieren_'
'tenacious_'
'tempting_'
'temple_'
'telephony_'
'telegram_'
'teilzunehmen_'
'teilte_'
'teilst_'
'technologischer_'
'technologischen_'
'technologische_'
'technocratic_'
'technisches_'
'technician_'
'tearing_'
'teaches_'
'tea_'
'tauchen_'
'tatsächlichen_'
'tatsächliche_'
'tastes_'
'tapped_'
'tap_'
'tanken_'
'tangible_'
'tananger_'
'tales_'
'talents_'
'talentierter_'
'talented_'
'tailored_'
'tags_'
'tag_'
'tackling_'
'taboo_'
'tablet_'
'süchtig_'
'systemische_'
'systematischen_'
'systematically_'
'synthesized_'
'syncs_'
'synchrony_'
'synchronize_'
'synchronisieren_'
'synapses_'
'synagogue_'
'symptoms_'
'swinging_'
'swine_'
'swept_'
'swear_'
'sustained_'
'suspension_'
'surrounds_'
'surrounding_'
'surgical_'
'surgeons_'
'surfers_'
'surfen_'
'surfaces_'
'suppress_'
'supportive_'
'supermarkets_'
'superior_'
'supercomputer_'
'sunset_'
'summarized_'
'suitcase_'
'suggested_'
'sufficient_'
'suey_'
'suche_'
'suburbia_'
'subtitles_'
'subtil_'
'substrate_'
'substituting_'
'substantial_'
'subsection_'
'submitted_'
'subklinische_'
'stützen_'
'stört_'
'stören_'
'ständigen_'
'ständige_'
'strukturieren_'
'structural_'
'strokes_'
'stroke_'
'strictly_'
'strengths_'
'streben_'
'streamlined_'
'straw_'
'strands_'
'strains_'
'storytelling_'
'storm_'
'stomach_'
'stockpile_'
'stir_'
'stimulation_'
'stiller_'
'stewards_'
'stets_'
'sters_'
'sterile_'
'steril_'
'stereotypes_'
'stereotyped_'
'sterbende_'
'stent_'
'steigst_'
'steering_'
'steel_'
'stealing_'
'stays_'
'stattfinden_'
'stattfand_'
'statteten_'
'statistischen_'
'statistisch_'
'statistic_'
'stations_'
'starvation_'
'startete_'
'starken_'
'stare_'
'starben_'
'standhalten_'
'standards_'
'stake_'
'stairwell_'
'stairs_'
'staged_'
'stabil_'
'squid_'
'squares_'
'spürte_'
'spürt_'
'spy_'
'spraying_'
'spray_'
'sprang_'
'sprachlichen_'
'spoofer_'
'spontanen_'
'spontan_'
'sponsors_'
'sponsoring_'
'spoken_'
'spirituellen_'
'spirituality_'
'spiritual_'
'spins_'
'spinnen_'
'spilled_'
'spigot_'
'spielerische_'
'spiders_'
'spezifisch_'
'spelled_'
'spekuliert_'
'speichert_'
'speichern_'
'speeds_'
'spectacular_'
'specimens_'
'specialized_'
'spare_'
'spannenden_'
'spam_'
'sowas_'
'soviele_'
'sovereign_'
'sorge_'
'soprano_'
'songs_'
'sonder_'
'somit_'
'solo_'
'solltest_'
'solace_'
'soils_'
'sog_'
'soeben_'
'societal_'
'soccer_'
'snow_'
'snap_'
'snakes_'
'snack_'
'smashing_'
'smartest_'
'smallpox_'
'slowing_'
'slower_'
'slogan_'
'slippery_'
'slightest_'
'slicing_'
'slices_'
'slept_'
'slender_'
'slavery_'
'slaughtered_'
'slaughter_'
'slash_'
'slammed_'
'skull_'
'skeptisch_'
'skepticism_'
'skating_'
'skateboarding_'
'sized_'
'sixth_'
'sitzt_'
'sinnvollen_'
'sinnvolle_'
'sinking_'
'sin_'
'simultaneously_'
'simultaneous_'
'simplistic_'
'similarly_'
'silly_'
'silicon_'
'silent_'
'signing_'
'significantly_'
'signaling_'
'signage_'
'siebeneinhalb_'
'shuttle_'
'shrunk_'
'shrinking_'
'shrink_'
'shouting_'
'shots_'
'shortly_'
'shorthand_'
'shorter_'
'shops_'
'shoo_'
'shifting_'
'shifted_'
'shepherd_'
'sheer_'
'shattered_'
'shame_'
'shamanism_'
'shaman_'
'shallow_'
'shale_'
'sexually_'
'severe_'
'setup_'
'serviert_'
'servant_'
'serpent_'
'sermons_'
'serial_'
'serendipity_'
'sequenziert_'
'sentimental_'
'sentences_'
'sensory_'
'sensitivity_'
'sensible_'
'senkrecht_'
'senior_'
'sends_'
'sendet_'
'seltene_'
'selectively_'
'selected_'
'sekundäre_'
'segmentation_'
'secure_'
'seaweed_'
'seatbelt_'
'seafood_'
'scripture_'
'screaming_'
'screamed_'
'scratch_'
'scope_'
'scolded_'
'sciences_'
'schönsten_'
'schätzt_'
'schädigen_'
'schwindet_'
'schweres_'
'schwerer_'
'schwarze_'
'schwanger_'
'schwache_'
'schummeln_'
'schulen_'
'schrittweise_'
'schriftlichen_'
'schreibe_'
'schreckliches_'
'schrecklicher_'
'scholarship_'
'schockiert_'
'schockierend_'
'schnüren_'
'schnitt_'
'schmilzt_'
'schmerzhaft_'
'schmeißt_'
'schmeckt_'
'schliefen_'
'schlaue_'
'schlau_'
'schizophrenic_'
'schieben_'
'scharf_'
'schaffte_'
'scans_'
'scannt_'
'scandal_'
'scan_'
'scaffolding_'
'scaffold_'
'savings_'
'savannas_'
'sausage_'
'sauberer_'
'satisfied_'
'satellites_'
'satellite_'
'sanity_'
'sanctity_'
'saddles_'
'sacrifice_'
'rückwärts_'
'rüber_'
'russische_'
'rushing_'
'rush_'
'runaway_'
'rugged_'
'rufe_'
'rubber_'
'rowdie_'
'roses_'
'roommate_'
'roofs_'
'romantische_'
'romantic_'
'romance_'
'rolls_'
'rollercoaster_'
'roles_'
'rohe_'
'robust_'
'robotische_'
'robotics_'
'roadrunner_'
'riot_'
'rings_'
'rigorous_'
'rig_'
'riesiger_'
'riesig_'
'riecht_'
'riechen_'
'richtet_'
'richness_'
'rice_'
'rhythms_'
'rewards_'
'revolutionäre_'
'revolutionieren_'
'review_'
'revert_'
'reversal_'
'reverberation_'
'revealing_'
'rev_'
'reusable_'
'retuschieren_'
'retrospective_'
'retirement_'
'retention_'
'retailers_'
'restore_'
'restorative_'
'restoration_'
'restlichen_'
'restless_'
'respektieren_'
'respect_'
'resonate_'
'resonance_'
'resolved_'
'resolve_'
'resistant_'
'resist_'
'resilience_'
'reset_'
'reservations_'
'rescued_'
'requirement_'
'repräsentiert_'
'reproduction_'
'reproduce_'
'representing_'
'representative_'
'reporting_'
'reply_'
'replied_'
'replacement_'
'replaced_'
'repeatedly_'
'repeated_'
'reparieren_'
'renewables_'
'renewable_'
'render_'
'renaissance_'
'removing_'
'remix_'
'reminder_'
'remembered_'
'remaining_'
'remained_'
'religiös_'
'relieved_'
'relevance_'
'relativity_'
'relation_'
'relates_'
'rekonstruieren_'
'reject_'
'reiße_'
'reist_'
'reintegration_'
'reichte_'
'reicheren_'
'reiche_'
'rehearsal_'
'regulieren_'
'regulate_'
'regular_'
'regnet_'
'regions_'
'regional_'
'regenerative_'
'regenerate_'
'regeln_'
'regardless_'
'regard_'
'refugee_'
'reflex_'
'reflektiert_'
'referred_'
'referential_'
'reducing_'
'redistribution_'
'redesigned_'
'redefine_'
'recycling_'
'recycled_'
'recycle_'
'recursion_'
'rectangle_'
'reconcile_'
'recline_'
'recipient_'
'recipe_'
'rechtmäßigen_'
'rechtliche_'
'rechnen_'
'receptors_'
'reception_'
'receives_'
'recedes_'
'rebuilt_'
'rebuilding_'
'rebellious_'
'realization_'
'realities_'
'realisieren_'
'reagiert_'
'reader_'
'rausholen_'
'rationality_'
'rationalen_'
'ratio_'
'rasch_'
'raped_'
'ranking_'
'rally_'
'rainforest_'
'rage_'
'radikale_'
'radar_'
'racism_'
'races_'
'r_'
'quicker_'
'questionnaire_'
'queen_'
'quantities_'
'quantitative_'
'qualifizierte_'
'pussy_'
'purposes_'
'purges_'
'purely_'
'purchased_'
'purchase_'
'puppet_'
'pumpen_'
'pulsieren_'
'publisher_'
'pub_'
'psychopathic_'
'psychologists_'
'psychologist_'
'psychischer_'
'psychischen_'
'psychic_'
'prüfen_'
'präsentierte_'
'prototypes_'
'protocols_'
'proto_'
'protects_'
'prostate_'
'prospective_'
'prosocial_'
'propositions_'
'propose_'
'proportionately_'
'propeller_'
'propaganda_'
'pronounced_'
'prone_'
'promoting_'
'promotes_'
'promising_'
'promises_'
'projected_'
'progressing_'
'programmieren_'
'programmable_'
'profiles_'
'professionell_'
'professionals_'
'profession_'
'productive_'
'processing_'
'processed_'
'problemlos_'
'probiert_'
'probabilities_'
'privileged_'
'privately_'
'prioritize_'
'priorisieren_'
'prinzipiell_'
'principal_'
'primitives_'
'primate_'
'primarily_'
'priests_'
'preventable_'
'prevalence_'
'presumption_'
'presented_'
'prescriptions_'
'premature_'
'predominantly_'
'prediction_'
'predictability_'
'precision_'
'prayers_'
'praktischen_'
'pouring_'
'pour_'
'potentielle_'
'potent_'
'posture_'
'poster_'
'positiver_'
'positiven_'
'positions_'
'porös_'
'portraits_'
'porn_'
'pool_'
'pond_'
'pollutants_'
'polls_'
'pollinators_'
'pollination_'
'politischer_'
'polarization_'
'poker_'
'pointing_'
'poetic_'
'pods_'
'plywood_'
'pluripotent_'
'pleite_'
'pleasures_'
'plays_'
'plausible_'
'plausibel_'
'platziert_'
'platonischen_'
'plankton_'
'planetary_'
'pirated_'
'pirate_'
'pipe_'
'pink_'
'pilots_'
'pigeons_'
'pies_'
'piep_'
'picky_'
'picking_'
'picken_'
'physisches_'
'physikalischen_'
'physicist_'
'photon_'
'pharmaceuticals_'
'pflanzen_'
'pets_'
'petrochemical_'
'persönliches_'
'perspectives_'
'persons_'
'personnel_'
'personalities_'
'perpetuating_'
'permission_'
'performers_'
'performances_'
'perceptions_'
'perceive_'
'peng_'
'pelvis_'
'peinlich_'
'peered_'
'pecking_'
'peaks_'
'pays_'
'pathways_'
'paths_'
'patch_'
'pastry_'
'passten_'
'passte_'
'passport_'
'passiv_'
'passengers_'
'passende_'
'partnership_'
'partnered_'
'participated_'
'partially_'
'paralyzing_'
'paralysis_'
'parallel_'
'paradigms_'
'parachutes_'
'parachute_'
'parabolic_'
'panel_'
'pandemics_'
'pancreatic_'
'pancreas_'
'palm_'
'paleontologist_'
'paleoanthropologists_'
'painful_'
'pad_'
'packen_'
'packed_'
'packaging_'
'package_'
'pace_'
'p_'
'oysters_'
'oxide_'
'overwhelming_'
'overlook_'
'overload_'
'overlap_'
'overfishing_'
'outlet_'
'outer_'
'originated_'
'orgasm_'
'organisierten_'
'organischen_'
'organische_'
'organically_'
'orbital_'
'oral_'
'optische_'
'option_'
'optimum_'
'optimieren_'
'opponent_'
'opium_'
'opinions_'
'operator_'
'operates_'
'operated_'
'operate_'
'opaque_'
'op_'
'oops_'
'onion_'
'oink_'
'oftentimes_'
'offs_'
'offline_'
'offizielle_'
'offiziell_'
'officinalis_'
'offices_'
'officer_'
'offered_'
'offensive_'
'offenes_'
'offenbaren_'
'offenbar_'
'occurring_'
'occupy_'
'occasionally_'
'obtained_'
'obstacle_'
'obsolete_'
'obsessional_'
'obsession_'
'observing_'
'observer_'
'observed_'
'observations_'
'objective_'
'oberhalb_'
'nützliches_'
'nützlicher_'
'nördlich_'
'nähren_'
'nähern_'
'nutzten_'
'nutrition_'
'nurturing_'
'nursing_'
'numerous_'
'notwendigerweise_'
'notwendige_'
'noted_'
'normalem_'
'nonsense_'
'nonlinear_'
'nonetheless_'
'nirgendwo_'
'nightly_'
'niedriger_'
'niedrige_'
'nichtmal_'
'neutrinos_'
'neutral_'
'neuroscience_'
'neurale_'
'neuartigen_'
'nette_'
'nett_'
'nets_'
'ness_'
'nervös_'
'nerven_'
'nerdy_'
'neonatal_'
'neocortex_'
'neither_'
'neigt_'
'neighboring_'
'neigen_'
'needing_'
'neck_'
'nearest_'
'navigieren_'
'natürlicher_'
'native_'
'nationalen_'
'narrow_'
'napot_'
'napkin_'
'nanoparticles_'
'nano_'
'nanny_'
'nannten_'
'naiv_'
'nails_'
'naemlich_'
'nackte_'
'nachzuvollziehen_'
'nachhaltig_'
'möchtest_'
'mächtiger_'
'myths_'
'mystischen_'
'mutiger_'
'mutants_'
'muslimische_'
'musikalisches_'
'musikalischen_'
'musician_'
'mundane_'
'multiply_'
'multimedia_'
'multiform_'
'mud_'
'mucked_'
'mouths_'
'mountaintop_'
'mound_'
'motto_'
'motivieren_'
'motivational_'
'motivated_'
'motions_'
'mosses_'
'mortgage_'
'moralischen_'
'monumental_'
'monsters_'
'monks_'
'momentum_'
'momentanen_'
'molekulare_'
'mold_'
'modes_'
'modeling_'
'modeled_'
'mobilisieren_'
'mixture_'
'mittendrin_'
'mitteilsam_'
'mitteilen_'
'mitmachen_'
'mithilfe_'
'mitgemacht_'
'mite_'
'mitbringen_'
'mistaken_'
'mirrors_'
'miraculous_'
'minütigen_'
'ministry_'
'mineral_'
'mimics_'
'mildly_'
'mild_'
'migration_'
'mighty_'
'midair_'
'microphone_'
'mic_'
'metastases_'
'metaphorical_'
'metabolize_'
'metabolism_'
'mess_'
'mesh_'
'merkwürdige_'
'merkte_'
'merger_'
'mentally_'
'menschlich_'
'memorable_'
'meme_'
'membranes_'
'meldet_'
'mehrmals_'
'meetings_'
'meditiert_'
'median_'
'medal_'
'mechanization_'
'maximize_'
'maximalen_'
'mattress_'
'mathematischen_'
'mathematisch_'
'mathematicians_'
'materialize_'
'mate_'
'matches_'
'matched_'
'mastery_'
'massively_'
'masculinity_'
'marvelous_'
'marshmallow_'
'marks_'
'markieren_'
'marching_'
'mapping_'
'manuscript_'
'mankind_'
'manipuliert_'
'manifested_'
'manifestations_'
'manic_'
'managen_'
'mammalian_'
'mammal_'
'maintaining_'
'maintained_'
'mahi_'
'magnet_'
'magischen_'
'magical_'
'magazines_'
'mad_'
'machtvoll_'
'machinery_'
'machbar_'
'mach_'
'lösbar_'
'ländlichen_'
'lächerlich_'
'lächelt_'
'lure_'
'lunch_'
'lud_'
'luck_'
'loyalty_'
'lovely_'
'lousy_'
'loszuwerden_'
'longevity_'
'longest_'
'logos_'
'logo_'
'logarithmischen_'
'logarithmic_'
'log_'
'locus_'
'locomotion_'
'locked_'
'lobe_'
'lobby_'
'loans_'
'loaf_'
'literate_'
'literary_'
'listened_'
'lion_'
'linking_'
'lined_'
'linearen_'
'limitation_'
'limestone_'
'lifts_'
'lifetimes_'
'ließen_'
'liegenden_'
'liebsten_'
'liebevolle_'
'lie_'
'lid_'
'lichtgesteuerte_'
'liberals_'
'leuchten_'
'letzendlich_'
'lettuce_'
'lest_'
'lesser_'
'lenkt_'
'lenken_'
'lend_'
'leistet_'
'leichteste_'
'leichten_'
'lehrte_'
'lehrt_'
'legislation_'
'legged_'
'legends_'
'lediglich_'
'lebensähnliche_'
'lebenserhaltenden_'
'lebendes_'
'leaned_'
'leaks_'
'leaflet_'
'laying_'
'lawns_'
'lava_'
'lauschen_'
'launching_'
'laughs_'
'latte_'
'lately_'
'lasting_'
'lasted_'
'langweiligen_'
'landscapes_'
'landeten_'
'landesweite_'
'landen_'
'laendlichen_'
'laboratories_'
'kürzester_'
'kürzeren_'
'kümmerte_'
'körperlichen_'
'körperliche_'
'käme_'
'kälter_'
'kultureller_'
'kulturell_'
'kriegt_'
'kriegen_'
'kreierte_'
'kreiert_'
'kreatives_'
'kreativer_'
'kranken_'
'kosmischen_'
'kosmische_'
'korrigieren_'
'kopieren_'
'konzipiert_'
'konzentrierter_'
'konzentrierte_'
'konzentriere_'
'konventionell_'
'kontrolliert_'
'konstruierten_'
'konstruieren_'
'konservative_'
'konservativ_'
'konkrete_'
'konkret_'
'kompliziertes_'
'komplizierte_'
'komplexesten_'
'komplexen_'
'kommunistischen_'
'komisches_'
'komische_'
'kombinieren_'
'kollektiven_'
'kollektive_'
'kodiert_'
'knee_'
'klingen_'
'klickte_'
'klicken_'
'kleinsten_'
'kleineren_'
'kleinere_'
'klebten_'
'klatschen_'
'klassischer_'
'klassifiziert_'
'klarstellen_'
'klares_'
'klappte_'
'klappen_'
'kiss_'
'kings_'
'kindness_'
'kindly_'
'kindergarten_'
'killer_'
'kidneys_'
'kicked_'
'keys_'
'kennenzulernen_'
'kelp_'
'keines_'
'keinerlei_'
'kehren_'
'kauen_'
'kategorisieren_'
'kartieren_'
'kanadischen_'
'kalte_'
'kalibrieren_'
'jüngster_'
'jüngeren_'
'jüngere_'
'jähriger_'
'jährige_'
'justify_'
'jury_'
'junk_'
'junges_'
'jung_'
'juice_'
'juggler_'
'judgment_'
'judging_'
'journalists_'
'journalist_'
'joins_'
'joining_'
'jeweiligen_'
'jetzige_'
'jets_'
'jet_'
'jenen_'
'jellyfish_'
'jeglicher_'
'jedesmal_'
'jedermann_'
'jeans_'
'jazz_'
'japanisches_'
'japanische_'
'jail_'
'jagen_'
'jacket_'
'itinerant_'
'iterative_'
'isotopes_'
'isolated_'
'islands_'
'ironischerweise_'
'ironies_'
'irgendwelche_'
'irgendeiner_'
'irgendeinen_'
'involvement_'
'involve_'
'investigations_'
'investigation_'
'investigate_'
'inventors_'
'inventor_'
'invasive_'
'invading_'
'introverts_'
'introvertiert_'
'intrinsisch_'
'intricate_'
'intimate_'
'interval_'
'interpretiert_'
'interpretation_'
'interpret_'
'interfered_'
'interessanteres_'
'interconnectedness_'
'intelligentes_'
'integrieren_'
'integration_'
'integrate_'
'intangible_'
'intact_'
'institutionelle_'
'instinktiv_'
'instinctive_'
'instant_'
'insect_'
'inscriptions_'
'inorganic_'
'innovators_'
'innovativsten_'
'innovativ_'
'innocent_'
'innewohnende_'
'innerlich_'
'innate_'
'inmitten_'
'injustice_'
'injuries_'
'injections_'
'injection_'
'initiative_'
'inhabited_'
'ingenuity_'
'infuses_'
'informieren_'
'influenced_'
'inflated_'
'infizierten_'
'inferior_'
'infectious_'
'infections_'
'ineinander_'
'ineffizient_'
'industriousness_'
'industrious_'
'industrialization_'
'indoor_'
'individuellen_'
'indisches_'
'indifferent_'
'indicating_'
'indicates_'
'incubators_'
'incubator_'
'increment_'
'incorrect_'
'incomplete_'
'inclusive_'
'include_'
'incentives_'
'inadequate_'
'improvise_'
'improvement_'
'improbable_'
'imprisoned_'
'impressive_'
'implemented_'
'implants_'
'implanting_'
'impairment_'
'immoral_'
'immigration_'
'immigrants_'
'immigrant_'
'immersive_'
'immerhin_'
'imam_'
'imaginäre_'
'illustriert_'
'illumination_'
'illness_'
'ignorieren_'
'ideology_'
'identities_'
'identifiziert_'
'identification_'
'ideally_'
'iceberg_'
'iPads_'
'iPad_'
'hörende_'
'höhere_'
'höchstwahrscheinlich_'
'höchstens_'
'häufigste_'
'häufiger_'
'hättest_'
'hässlich_'
'hypothetical_'
'hyperbole_'
'hydrocarbons_'
'hydrant_'
'hurts_'
'hunting_'
'hunters_'
'hung_'
'hunderttausend_'
'hunched_'
'humpback_'
'humming_'
'hummed_'
'humidity_'
'humanitären_'
'humane_'
'hull_'
'hugely_'
'hostile_'
'host_'
'hormone_'
'hoping_'
'hopelessly_'
'hoped_'
'hooks_'
'honored_'
'homeless_'
'holiday_'
'hohes_'
'hoffte_'
'hoffnungslose_'
'hoffnungslos_'
'hoffentlich_'
'hochwertige_'
'hochrechnen_'
'hochgradig_'
'hobbies_'
'historische_'
'historisch_'
'historical_'
'hinzugefügt_'
'hints_'
'hinterlassen_'
'hinsehen_'
'hinschauen_'
'hinreichend_'
'hingewiesen_'
'hingehören_'
'hingeht_'
'hineinpacken_'
'hineingeboren_'
'hindern_'
'hinauszögern_'
'hinausgehen_'
'hike_'
'highlight_'
'hiess_'
'hierher_'
'hierarchy_'
'hielten_'
'hiding_'
'hi_'
'hey_'
'hervorgebracht_'
'herrlich_'
'hero_'
'herkommt_'
'herkam_'
'hergeholt_'
'hergebracht_'
'herd_'
'herausragendes_'
'herausgebildet_'
'hens_'
'helmet_'
'hello_'
'helicopter_'
'heiratete_'
'heimischen_'
'heiliges_'
'heilige_'
'heel_'
'hebe_'
'heavens_'
'heating_'
'hears_'
'healthier_'
'healing_'
'headphones_'
'headline_'
'heading_'
'hasten_'
'hassen_'
'hash_'
'harten_'
'harms_'
'harmful_'
'hardly_'
'hardened_'
'handvoll_'
'handling_'
'handicap_'
'halve_'
'hallucination_'
'hall_'
'halfway_'
'hairs_'
'habitable_'
'guilty_'
'guilt_'
'guiding_'
'guide_'
'guidance_'
'grünes_'
'gründeten_'
'größtmögliche_'
'grössten_'
'grundlegend_'
'großzügige_'
'großartigen_'
'grosser_'
'grossen_'
'grossartigen_'
'gripping_'
'grim_'
'griechischer_'
'grey_'
'greatly_'
'gravitational_'
'grauer_'
'gratuitous_'
'gratification_'
'grandparents_'
'grandma_'
'grams_'
'gram_'
'graduell_'
'gracefully_'
'graceful_'
'grace_'
'graben_'
'gossiping_'
'gosh_'
'goodness_'
'golf_'
'gobbling_'
'glücklicherweise_'
'glücklichen_'
'glänzt_'
'glucose_'
'glow_'
'glove_'
'globally_'
'globalized_'
'globaler_'
'glaze_'
'glatt_'
'gland_'
'glamorized_'
'glaciers_'
'giraffe_'
'gigantisches_'
'gifted_'
'gharial_'
'geübt_'
'gezwungen_'
'gezahlt_'
'gewöhnlichen_'
'gewöhnliche_'
'gewährte_'
'gewandt_'
'gewaltlosen_'
'gewaltige_'
'gewahr_'
'gewachsen_'
'getäuscht_'
'getrieben_'
'gesunde_'
'gestärkt_'
'gesture_'
'gesteuert_'
'gesteckt_'
'gestartet_'
'gespendeten_'
'gesessen_'
'gesellschaftlicher_'
'gesellschaftlichen_'
'gesegnet_'
'geschlossenen_'
'geschlagen_'
'geschaut_'
'geringsten_'
'geringen_'
'geplant_'
'gepackt_'
'geometrische_'
'geometric_'
'geologists_'
'geographic_'
'genossen_'
'geniale_'
'genetically_'
'generosity_'
'generic_'
'generators_'
'generating_'
'generated_'
'genauer_'
'gemocht_'
'gemerkt_'
'gemeinschaftlich_'
'gemeinsames_'
'gemeinnützigen_'
'gemein_'
'gelähmt_'
'gelungen_'
'gelockt_'
'gelenkt_'
'geleitet_'
'gelben_'
'gelbe_'
'gelaufen_'
'gelangweilt_'
'gelandet_'
'geladen_'
'gekostet_'
'gekennzeichnet_'
'gehörte_'
'gehöre_'
'gehorchen_'
'gehoben_'
'geglaubt_'
'gegenwärtigen_'
'gegeneinander_'
'gegebenen_'
'gefüttert_'
'gefördert_'
'gefährdet_'
'geflogen_'
'gefiltert_'
'gefeiert_'
'gefaltet_'
'geeks_'
'geek_'
'geeignet_'
'gee_'
'gedauert_'
'gebunden_'
'gebrochenen_'
'gebrochen_'
'gebildet_'
'gebastelt_'
'gathered_'
'gasoline_'
'garbage_'
'garantieren_'
'garage_'
'ganzer_'
'gangplank_'
'gaming_'
'gallery_'
'galleries_'
'gaining_'
'gained_'
'fütterte_'
'fürs_'
'fünfzig_'
'fünften_'
'fühlst_'
'fügten_'
'fügt_'
'fügen_'
'füge_'
'färben_'
'fällen_'
'futures_'
'fuselage_'
'furchterregend_'
'furchtbaren_'
'fur_'
'funktionsgestörter_'
'funktionierenden_'
'fungi_'
'funeral_'
'funders_'
'fundamentalen_'
'fummelte_'
'fullest_'
'frühes_'
'frühe_'
'fröhlichen_'
'frustrated_'
'frozen_'
'fridge_'
'freundlich_'
'freue_'
'fremder_'
'freigesetzt_'
'freaked_'
'fraudsters_'
'framing_'
'fraktalen_'
'fragmentiert_'
'fragility_'
'fragil_'
'fountains_'
'fountain_'
'founded_'
'foundations_'
'fotografieren_'
'forwards_'
'formten_'
'formal_'
'forged_'
'foregone_'
'forecasting_'
'forecast_'
'forderten_'
'forderte_'
'footprints_'
'footage_'
'fooling_'
'folk_'
'folgendermaßen_'
'fokussiert_'
'focusing_'
'foam_'
'flourish_'
'flour_'
'flossen_'
'floss_'
'floods_'
'flood_'
'floating_'
'flights_'
'fließen_'
'fliehen_'
'flesh_'
'fleißig_'
'flaw_'
'flashlight_'
'flaps_'
'flap_'
'flame_'
'flag_'
'fixing_'
'fishermen_'
'fired_'
'finsteren_'
'fins_'
'finite_'
'fingertips_'
'finanziert_'
'finanziellen_'
'finanzielle_'
'financially_'
'finance_'
'fin_'
'filtered_'
'filmten_'
'file_'
'filament_'
'fierce_'
'fiddle_'
'feuern_'
'fettleibig_'
'fett_'
'festzustellen_'
'feststellten_'
'festlegt_'
'fester_'
'fertility_'
'fernab_'
'fence_'
'feminine_'
'females_'
'feiern_'
'fehlt_'
'fee_'
'favors_'
'fats_'
'faszinierende_'
'fasst_'
'fascination_'
'farmers_'
'fantasy_'
'fange_'
'fame_'
'falten_'
'faint_'
'failures_'
'fails_'
'fahre_'
'fad_'
'facher_'
'fach_'
'facade_'
'extrovert_'
'external_'
'expressed_'
'expose_'
'exporting_'
'exportieren_'
'export_'
'exponentieller_'
'explosions_'
'exploit_'
'exploding_'
'explodieren_'
'explode_'
'experimenting_'
'experimenter_'
'experimental_'
'experienced_'
'exit_'
'existierenden_'
'existiere_'
'exhilarating_'
'exhibitions_'
'exhausted_'
'executive_'
'excites_'
'exchanging_'
'excess_'
'excerpt_'
'exceptions_'
'exception_'
'excellent_'
'examination_'
'exact_'
'ewig_'
'evolutionäre_'
'evoke_'
'eventuell_'
'evaluate_'
'ethnische_'
'ethnicity_'
'ethische_'
'ethisch_'
'ethics_'
'estrogen_'
'estimates_'
'estate_'
'establishing_'
'essentiell_'
'esoteric_'
'eröffnete_'
'erwärmt_'
'erwähne_'
'erweist_'
'erweisen_'
'erwarte_'
'erwachsene_'
'erträumt_'
'erstreckt_'
'erstochen_'
'erstaunlicherweise_'
'erschöpft_'
'erschwinglich_'
'erschließen_'
'erschien_'
'ernstzunehmendes_'
'ernsthaften_'
'ernsthaft_'
'ernstes_'
'ernsten_'
'ernste_'
'ermöglichte_'
'erläutern_'
'erledigt_'
'erlangt_'
'erklärten_'
'erholen_'
'ergreifend_'
'ergo_'
'erfundenen_'
'erfreut_'
'erforschte_'
'erfinden_'
'erdacht_'
'erbaut_'
'erased_'
'eradication_'
'eradicating_'
'equity_'
'equality_'
'environmentally_'
'entziffern_'
'entwirren_'
'entwickle_'
'entwarfen_'
'entsprechend_'
'entsetzlichen_'
'entscheidet_'
'entscheidende_'
'entlassen_'
'entkommen_'
'entitled_'
'entgegen_'
'entfernten_'
'entfernen_'
'entertaining_'
'enterprise_'
'ensued_'
'enormously_'
'enormes_'
'enliven_'
'enjoyed_'
'engraved_'
'enemies_'
'enduring_'
'endow_'
'endgültige_'
'endeavors_'
'ende_'
'encouraged_'
'enclosures_'
'empowerment_'
'employing_'
'employers_'
'employee_'
'emphasize_'
'empfängt_'
'empathic_'
'emotionally_'
'emotionaler_'
'emission_'
'emerged_'
'embarrassed_'
'embark_'
'em_'
'elisabethanischen_'
'eliminate_'
'elevation_'
'elemental_'
'elektrisches_'
'electronic_'
'electron_'
'electrochemical_'
'electrified_'
'elders_'
'elbow_'
'einzuschalten_'
'einzunehmen_'
'einzigartige_'
'einzig_'
'einwirken_'
'eintreten_'
'eintippen_'
'eintausend_'
'einstellen_'
'einsteigen_'
'einst_'
'einsparen_'
'einschlagen_'
'einmalige_'
'einleiten_'
'einlegen_'
'einladen_'
'einig_'
'einhundert_'
'eingebunden_'
'eingebaut_'
'einfachsten_'
'eindringen_'
'einbauen_'
'eigens_'
'ehe_'
'egoistisch_'
'eggs_'
'effizienteren_'
'effizienter_'
'effiziente_'
'educated_'
'editorial_'
'editiert_'
'edit_'
'edible_'
'ed_'
'economist_'
'echter_'
'eats_'
'eaten_'
'earthquake_'
'earning_'
'eBay_'
'duties_'
'durchzusetzen_'
'durchschnittliches_'
'durchlebt_'
'durchgängig_'
'duration_'
'dunkler_'
'dunkle_'
'dunkelsten_'
'dumps_'
'dumping_'
'drückt_'
'drums_'
'droughts_'
'drought_'
'drittens_'
'drittel_'
'dringt_'
'dringen_'
'drew_'
'dreieinhalb_'
'dreidimensionalen_'
'dreidimensional_'
'dreaming_'
'dreadful_'
'draws_'
'dranbleiben_'
'dramatisch_'
'draglines_'
'drag_'
'downstairs_'
'downloaded_'
'download_'
'downfall_'
'dove_'
'doubling_'
'doodling_'
'doodlen_'
'donors_'
'donate_'
'dominiert_'
'dominate_'
'dokumentierten_'
'doings_'
'documented_'
'documentary_'
'doable_'
'diving_'
'divers_'
'divergence_'
'dive_'
'ditch_'
'disturbing_'
'districts_'
'distorted_'
'distinctive_'
'dissent_'
'disorders_'
'disgusting_'
'disguised_'
'discussing_'
'discrimination_'
'discomfort_'
'disagree_'
'disabilities_'
'diplomat_'
'dip_'
'dinierte_'
'dined_'
'dilemma_'
'dignified_'
'digitalen_'
'digit_'
'digging_'
'digestive_'
'diffuse_'
'differentiate_'
'dictator_'
'dicke_'
'dial_'
'devotion_'
'deviated_'
'deutliche_'
'deuten_'
'deteriorating_'
'detectors_'
'detecting_'
'destined_'
'desserts_'
'desperately_'
'despair_'
'desks_'
'desired_'
'desirable_'
'designt_'
'deserve_'
'describing_'
'describes_'
'derzeitige_'
'dermatitis_'
'derive_'
'deprimiert_'
'depressiv_'
'deposit_'
'deployments_'
'departure_'
'dentistry_'
'denominations_'
'demokratische_'
'democracies_'
'demise_'
'dementia_'
'delivers_'
'delighted_'
'delicious_'
'dehnt_'
'defy_'
'deflation_'
'definierte_'
'defending_'
'defects_'
'defeat_'
'dedicated_'
'decreases_'
'decken_'
'deciding_'
'decides_'
'decent_'
'deaths_'
'dear_'
'deals_'
'daylight_'
'daunting_'
'dating_'
'dates_'
'dat_'
'darstellen_'
'dankte_'
'dankbar_'
'dangers_'
'damn_'
'dah_'
'daf_'
'cymatics_'
'cyclical_'
'cybercriminals_'
'cuts_'
'curriculum_'
'curator_'
'cup_'
'cultured_'
'culturally_'
'cubicle_'
'crystal_'
'cry_'
'crust_'
'cruise_'
'crowd_'
'crossing_'
'crossed_'
'critically_'
'cried_'
'cribs_'
'crew_'
'crayons_'
'crap_'
'crammed_'
'craft_'
'crackers_'
'crab_'
'cows_'
'cousin_'
'courtship_'
'courts_'
'courthouse_'
'court_'
'courage_'
'countless_'
'counting_'
'counterintuitive_'
'counted_'
'couch_'
'cosmos_'
'cosmology_'
'corrosion_'
'corresponds_'
'correction_'
'corps_'
'corporation_'
'corners_'
'copying_'
'copied_'
'cooler_'
'cooled_'
'cooked_'
'convergence_'
'contributor_'
'contributed_'
'contractor_'
'continuous_'
'continuity_'
'continuing_'
'continually_'
'continual_'
'continents_'
'contest_'
'contemplative_'
'contemplated_'
'contaminated_'
'containers_'
'contained_'
'contain_'
'contacted_'
'consuming_'
'consult_'
'constitutional_'
'constitutes_'
'constituted_'
'consolation_'
'consists_'
'consideration_'
'considerably_'
'consent_'
'consensus_'
'connectome_'
'congressman_'
'confronts_'
'conflicting_'
'conductor_'
'conductive_'
'conclusions_'
'concerts_'
'conception_'
'concentrations_'
'concentrated_'
'conceive_'
'compute_'
'computations_'
'computational_'
'comprised_'
'composition_'
'composer_'
'component_'
'competitors_'
'competing_'
'compelled_'
'comparing_'
'compares_'
'companionship_'
'communicating_'
'commitments_'
'commercials_'
'commanding_'
'comfortably_'
'comeback_'
'combustion_'
'combat_'
'colony_'
'collision_'
'collections_'
'collection_'
'collapsing_'
'collaborators_'
'coins_'
'cod_'
'coconut_'
'cocktail_'
'cockroaches_'
'cochlear_'
'cobra_'
'coat_'
'coalmines_'
'coach_'
'cm_'
'clusters_'
'clue_'
'club_'
'closing_'
'closest_'
'closes_'
'clitoris_'
'clinicians_'
'climbing_'
'climbed_'
'cliffs_'
'clients_'
'client_'
'clicked_'
'cleveren_'
'clearer_'
'cleared_'
'cleaning_'
'cleaner_'
'cleaned_'
'clash_'
'clam_'
'civilians_'
'cigarette_'
'chunks_'
'chromosome_'
'chop_'
'choir_'
'chlorophyll_'
'chinesische_'
'china_'
'chimp_'
'chewing_'
'chest_'
'cheese_'
'checks_'
'checklist_'
'chasing_'
'charts_'
'charmant_'
'charging_'
'charged_'
'characterized_'
'chaotisch_'
'chances_'
'champion_'
'chains_'
'certified_'
'certificates_'
'ceremony_'
'cerebellum_'
'centimeters_'
'centigrade_'
'centered_'
'cement_'
'cellphones_'
'cello_'
'celebrated_'
'cease_'
'cave_'
'cavalry_'
'category_'
'catching_'
'catastrophic_'
'catalog_'
'cashed_'
'cartoons_'
'carries_'
'careers_'
'captain_'
'capitalists_'
'capitalist_'
'capacities_'
'capabilities_'
'cans_'
'candidates_'
'canal_'
'camps_'
'calving_'
'calories_'
'calendars_'
'calculator_'
'cactus_'
'c_'
'bösen_'
'böse_'
'butt_'
'bush_'
'buses_'
'burns_'
'burn_'
'burlap_'
'buried_'
'buoy_'
'bunk_'
'bullets_'
'builds_'
'budgets_'
'buddhistischen_'
'bucks_'
'buckle_'
'bräuchte_'
'brute_'
'broke_'
'broadcast_'
'broad_'
'britischen_'
'britische_'
'brightest_'
'brennende_'
'brennen_'
'breed_'
'breakthrough_'
'breads_'
'braten_'
'brachen_'
'boxes_'
'boxed_'
'boundary_'
'bottle_'
'bother_'
'boten_'
'borrow_'
'boreal_'
'bonds_'
'bond_'
'bolt_'
'boca_'
'boatload_'
'blöd_'
'blunt_'
'blueprint_'
'bloße_'
'bloop_'
'bloggende_'
'blockieren_'
'blob_'
'blinds_'
'bliebe_'
'blessed_'
'bless_'
'blend_'
'blasen_'
'blackboard_'
'bißchen_'
'bisherigen_'
'birgt_'
'bipolar_'
'bioluminescence_'
'biologists_'
'biologist_'
'biologischer_'
'binden_'
'binary_'
'billionth_'
'billig_'
'billboards_'
'bikes_'
'bidet_'
'bezüglich_'
'bezaubert_'
'bezahlen_'
'bewährte_'
'bewährt_'
'bewusstes_'
'bewundern_'
'bewirkt_'
'bewerkstelligt_'
'bewegende_'
'beurteilen_'
'betterment_'
'betreten_'
'betreibt_'
'betreffen_'
'besuchten_'
'beständig_'
'bestmögliche_'
'bestimmtes_'
'bestes_'
'bestellt_'
'bestellen_'
'bestanden_'
'besprechen_'
'besetzt_'
'beseitigt_'
'beseitigen_'
'beschädigt_'
'beschweren_'
'beschuldigen_'
'beschränkten_'
'beschränken_'
'beschissene_'
'beschissen_'
'bescheidenen_'
'bescheid_'
'besagen_'
'berücksichtigen_'
'berichteten_'
'berichtet_'
'bereiten_'
'beobachtete_'
'bent_'
'bend_'
'bench_'
'bemüht_'
'bemerkenswerte_'
'beloved_'
'believable_'
'beliebtesten_'
'beliebten_'
'beliebig_'
'belegt_'
'bekämen_'
'bekommst_'
'beiträgt_'
'beitreten_'
'beitragen_'
'beiseite_'
'beibrachte_'
'behält_'
'behutsam_'
'beholder_'
'begun_'
'begrüßt_'
'begriffen_'
'begrenzen_'
'beginnings_'
'beginnend_'
'befürchten_'
'befördern_'
'befreundeter_'
'befestigt_'
'beeswax_'
'beeinträchtigt_'
'beeindruckt_'
'beeindruckende_'
'beeilt_'
'bedrohter_'
'bedingt_'
'bedeutsame_'
'bedeutendste_'
'bedeutendes_'
'bedeckt_'
'bedarf_'
'bedanken_'
'beaver_'
'beachten_'
'beach_'
'batteries_'
'bathroom_'
'bathing_'
'bass_'
'basket_'
'basics_'
'baseball_'
'basalt_'
'barrier_'
'barrel_'
'barely_'
'banker_'
'banjo_'
'banged_'
'bang_'
'bandwidth_'
'baloney_'
'balanced_'
'backgrounds_'
'axe_'
'außerordentlich_'
'außen_'
'autumn_'
'autonomy_'
'autonomous_'
'automated_'
'autokratische_'
'authoritarian_'
'authenticity_'
'authentic_'
'auszugeben_'
'auszubilden_'
'auszieht_'
'auswerten_'
'ausstatten_'
'aussen_'
'ausschließen_'
'ausreichen_'
'ausrechnen_'
'ausprobiert_'
'auslöst_'
'auskommen_'
'auskennen_'
'ausgibt_'
'ausgestorben_'
'ausgestattet_'
'ausgeschlossen_'
'ausgerottet_'
'ausgerechnet_'
'ausgelassen_'
'ausgehend_'
'ausgedrückt_'
'ausgedacht_'
'ausgaben_'
'ausfällt_'
'ausdrücken_'
'ausdenken_'
'aufzählen_'
'aufzusteigen_'
'aufzeichnen_'
'aufwenden_'
'aufwacht_'
'auftaucht_'
'auftauchen_'
'aufstehen_'
'aufschneiden_'
'aufrechte_'
'aufrecht_'
'aufpassen_'
'auflösen_'
'aufleuchten_'
'aufhält_'
'aufgezeigt_'
'aufgestanden_'
'aufgeräumt_'
'aufgelistet_'
'aufgeklärt_'
'aufgegeben_'
'aufgefordert_'
'aufgebracht_'
'auditiven_'
'audition_'
'auction_'
'au_'
'attractive_'
'attracted_'
'attitude_'
'attended_'
'attend_'
'attempted_'
'attacking_'
'attachment_'
'atom_'
'atemberaubend_'
'asteroid_'
'assure_'
'assumptions_'
'associate_'
'assisted_'
'assessing_'
'assembly_'
'assembling_'
'assembled_'
'aspiring_'
'aspirations_'
'aspen_'
'asleep_'
'ascent_'
'arrogant_'
'arrest_'
'arrangements_'
'arranged_'
'arrange_'
'arose_'
'armen_'
'armed_'
'arising_'
'arises_'
'arisen_'
'arise_'
'architektonische_'
'approaches_'
'appreciate_'
'applying_'
'applies_'
'applicable_'
'appliances_'
'apples_'
'appearing_'
'apparent_'
'anzuzeigen_'
'anzuwenden_'
'anzupassen_'
'anzufangen_'
'anzubauen_'
'anziehen_'
'antwortete_'
'antworten_'
'antreten_'
'antreiben_'
'antike_'
'anticipation_'
'antibody_'
'antibodies_'
'antiangiogenic_'
'antennas_'
'antennae_'
'ant_'
'ansässigen_'
'answering_'
'anstellen_'
'ansteigen_'
'ansehe_'
'anschließen_'
'ansah_'
'anrufen_'
'anpassen_'
'anonymous_'
'anniversary_'
'animists_'
'angular_'
'angrier_'
'angewandt_'
'angetrieben_'
'angesehensten_'
'anger_'
'angemessen_'
'angelegt_'
'angelangt_'
'angel_'
'angekommen_'
'angehäuft_'
'angehen_'
'angegangen_'
'angeblich_'
'anführten_'
'anfälliger_'
'anfällig_'
'anfertigen_'
'aneinander_'
'anecdote_'
'andersherum_'
'andauert_'
'ancestry_'
'ancestral_'
'ancestor_'
'analysiert_'
'analysieren_'
'analogy_'
'analog_'
'amortisieren_'
'amino_'
'ambitious_'
'ambition_'
'amazingly_'
'amateur_'
'alternatives_'
'alphabet_'
'allumfassend_'
'alligator_'
'allies_'
'allgemeiner_'
'allerletzte_'
'allererste_'
'alleinige_'
'align_'
'algebra_'
'alarm_'
'akzeptiert_'
'aktive_'
'airline_'
'airborne_'
'agnostic_'
'agilen_'
'ages_'
'aged_'
'ag_'
'afghanische_'
'affiliated_'
'affecting_'
'aerospace_'
'adulthood_'
'ads_'
'admired_'
'administrators_'
'addresses_'
'adding_'
'addiction_'
'adapt_'
'acutely_'
'activists_'
'actively_'
'activated_'
'acre_'
'acquisition_'
'acoustics_'
'acoustic_'
'acne_'
'acknowledged_'
'achievement_'
'accuse_'
'accumulating_'
'accounts_'
'accordion_'
'accomplished_'
'accompanied_'
'acceptance_'
'accelerated_'
'accelerate_'
'academically_'
'abuse_'
'absurd_'
'abstrahiert_'
'abstraction_'
'absoluten_'
'absinkt_'
'abschneiden_'
'abschließend_'
'abrupt_'
'ablegen_'
'abhalten_'
'abgeschlossen_'
'abgeschaltet_'
'abgeleitet_'
'abgelegenen_'
'abgegeben_'
'abgeflacht_'
'abgeben_'
'abandoned_'
'abandon_'
']. _'
'["_'
'Zügen_'
'Zyklus_'
'Zwinker_'
'Zwar_'
'Zustände_'
'Zusammenfassung_'
'Zusammen_'
'Zurücklehnen_'
'Zunge_'
'Zugwagon_'
'Zugkraft_'
'Zucht_'
'Zittern_'
'Zimbabwe_'
'Zielen_'
'Ziele_'
'Ziegen_'
'Zeugs_'
'Zentralafrika_'
'Zensur_'
'Zen_'
'Zem_'
'Zellkultur_'
'Zeitraffer_'
'Zeitblase_'
'Zeile_'
'Zeichnung_'
'Zehn_'
'Zehen_'
'Zauberspruch_'
'Zauber_'
'Zappos_'
'Zahnfee_'
'Zagat_'
'Zack_'
'Z_'
'Yoda_'
'Yerkes_'
'Yamuna_'
'Yale_'
'Yahoo_'
'Yad_'
'Wüstenszenen_'
'Würmer_'
'Würfen_'
'Würfe_'
'Wünschen_'
'Wörterbücher_'
'Wäsche_'
'Wäre_'
'Wälder_'
'Wyss_'
'Wurst_'
'Wurman_'
'Wurf_'
'Wunders_'
'Wunderbar_'
'Wunden_'
'Wunde_'
'Ws_'
'Writing_'
'Writers_'
'Wouldn_'
'Workshop_'
'Words_'
'Word_'
'Worcester_'
'Worauf_'
'Woods_'
'Woodruff_'
'Woo_'
'Wong_'
'Wolfe_'
'Wohnzimmer_'
'Wohnort_'
'Wohlergehen_'
'Wofford_'
'Wochenende_'
'Witze_'
'Wisconsin_'
'Wirtschaftler_'
'Wired_'
'Wirbel_'
'Winning_'
'Winky_'
'Winkeln_'
'Wilson_'
'Willst_'
'Willkommen_'
'William_'
'Will_'
'Wilkins_'
'Wilde_'
'Wild_'
'Wiki_'
'Wieviele_'
'Wiese_'
'Wiedersehen_'
'Wiederholung_'
'Wiederherstellung_'
'Wiederaufbau_'
'Wieder_'
'Widerstandskraft_'
'Widersprüchen_'
'Wide_'
'Wichtigkeit_'
'Wichtig_'
'WiFi_'
'Whirlwind_'
'Whether_'
'Whatever_'
'Wetter_'
'Wettbewerber_'
'Westerners_'
'Westens_'
'Werkbank_'
'Werbefilm_'
'Weniger_'
'Weltwirtschaftskrise_'
'Weltsicht_'
'Weltraum_'
'Weltproduktion_'
'Weltgesundheitsorganisation_'
'Weltfrieden_'
'Wellenlänge_'
'Wellen_'
'Welcher_'
'Weiter_'
'Weihnachten_'
'Weges_'
'Wechselwirkungen_'
'Webserver_'
'Watson_'
'Water_'
'Wasserpumpe_'
'Wasserhahn_'
'Warteliste_'
'Warte_'
'Wars_'
'Warner_'
'Waring_'
'Walen_'
'Wale_'
'Waldes_'
'Wait_'
'Wahlmöglichkeiten_'
'Wachstums_'
'Wachen_'
'WITNESS_'
'WISE_'
'WISER_'
'WHO_'
'Völkermord_'
'Vulkane_'
'Vulkan_'
'Vorträgen_'
'Vorträge_'
'Vorteilen_'
'Vorsitzende_'
'Vorschläge_'
'Vorhang_'
'Vorgeschichte_'
'Vorgehen_'
'Vorgaben_'
'Vorfall_'
'Vorerkrankung_'
'Vorbild_'
'Vom_'
'Volumen_'
'Volt_'
'Volantor_'
'Vokabular_'
'Vivian_'
'Vitamin_'
'Visier_'
'Virtuelle_'
'Virtual_'
'Virginia_'
'Violett_'
'Vinci_'
'Vielzahl_'
'Viel_'
'Vieh_'
'Videokamera_'
'Videobewegung_'
'Victoria_'
'Verzweiflung_'
'Verwundbarkeit_'
'Verwandter_'
'Verwandten_'
'Verwandte_'
'Verwalter_'
'Versuchs_'
'Versuchen_'
'Versprechen_'
'Versicherung_'
'Verschmutzung_'
'Verpflichtung_'
'Vermächtnis_'
'Vermont_'
'Verkäufe_'
'Verknüpfung_'
'Verhältnisse_'
'Verhaltensweisen_'
'Verhaltensformen_'
'Vergessen_'
'Verfügung_'
'Verfolgung_'
'Verfechter_'
'Verfahrens_'
'Vereinigung_'
'Vereinigte_'
'Vereinbarungen_'
'Verbrechen_'
'Verborgenen_'
'Verbesserungen_'
'Verben_'
'Venus_'
'Velde_'
'Vegetation_'
'Veblen_'
'Vashem_'
'Variation_'
'Varianten_'
'Variante_'
'Valentine_'
'Use_'
'Uruguay_'
'Urteil_'
'Ursprung_'
'Unterwäsche_'
'Untersuchungen_'
'Unterschlupf_'
'Unterrichts_'
'Unternehmung_'
'Unternehmer_'
'Unterfangen_'
'Unless_'
'Universen_'
'Ungerechtigkeit_'
'Ungerade_'
'Under_'
'Unabhängigkeit_'
'Umweltschutz_'
'Umweltbewegung_'
'Umwandlung_'
'Umstand_'
'Umkreis_'
'Umkehrung_'
'Umgangssprache_'
'Umfragen_'
'Ultraschall_'
'Uhrzeit_'
'Ufer_'
'UV_'
'Türen_'
'Täuschung_'
'Tyrannosaurier_'
'Tylenol_'
'Turkey_'
'Turk_'
'Tunisian_'
'Tunis_'
'Tunesien_'
'Tumortherapiefelder_'
'Tumors_'
'Tumoren_'
'Tumore_'
'Tuch_'
'Tso_'
'Tse_'
'Träger_'
'Truppenstationierung_'
'Truppe_'
'Trotzdem_'
'Trost_'
'Tropfen_'
'Tropen_'
'Trommel_'
'Triumph_'
'Trip_'
'Trinkwasser_'
'Trennung_'
'Trend_'
'Trauben_'
'Transportmitteln_'
'Transistoren_'
'Transistor_'
'Transformation_'
'Trade_'
'Tower_'
'Tour_'
'Toto_'
'Toronto_'
'Top_'
'Too_'
'Tonfall_'
'Tomaten_'
'Toll_'
'Titelseite_'
'Titanen_'
'Tissue_'
'Tische_'
'Tipper_'
'Tinte_'
'Timothy_'
'Tiefsee_'
'Tibetan_'
'Tibet_'
'Though_'
'Thompson_'
'Thinking_'
'Therefore_'
'Texturen_'
'Texte_'
'Terroristen_'
'Terrorismus_'
'Terror_'
'Termin_'
'Temporallappen_'
'Tempo_'
'Teleskope_'
'Teleskop_'
'Telefonen_'
'Tel_'
'Teilweise_'
'Teilnehmern_'
'Teilchenbeschleuniger_'
'Teigs_'
'Tehran_'
'Teersande_'
'Teenager_'
'Teen_'
'Technisch_'
'Techniker_'
'Tech_'
'Teaching_'
'Teach_'
'Taxistan_'
'Taxis_'
'Tausenden_'
'Tausch_'
'Tatum_'
'Tatsachen_'
'Tasse_'
'Tasmanian_'
'Tamiflu_'
'Takt_'
'Takes_'
'Taiwan_'
'Taiga_'
'Tagung_'
'Tagging_'
'Tageszeitung_'
'Tagebuch_'
'Tablet_'
'TS_'
'TM_'
'TK_'
'TEDx_'
'TEDster_'
'TED2006_'
'TB_'
'Süßes_'
'Süße_'
'Südbronx_'
'Säule_'
'Säcke_'
'Szene_'
'Szenarien_'
'Synthesizer_'
'Synchronität_'
'Synapsen_'
'Symptome_'
'Symptom_'
'Symmetrie_'
'Swedish_'
'Survey_'
'Surprisingly_'
'Surfer_'
'Superstar_'
'Sumitomo_'
'Sumer_'
'Sufi_'
'Suchmaschine_'
'Suchen_'
'Suchanfragen_'
'Störung_'
'Stärkung_'
'Stärken_'
'Styx_'
'Styropor_'
'Style_'
'Sturm_'
'Stunt_'
'Study_'
'Student_'
'Stuart_'
'Strände_'
'Stringtheorie_'
'Strichzeichnungen_'
'Streit_'
'Streifen_'
'Strecken_'
'Straßenrand_'
'Stratford_'
'Strategien_'
'Strang_'
'Strahlen_'
'Strafe_'
'Story_'
'Stone_'
'Stomachion_'
'Stockholm_'
'Stirling_'
'Stimmt_'
'Stillsitzen_'
'Stille_'
'Stickstoff_'
'Steuerzahler_'
'Steuerung_'
'Steuern_'
'Sterns_'
'Stern_'
'Sterblichkeit_'
'Sterberate_'
'Step_'
'Steinzeit_'
'Steigerung_'
'Stehen_'
'Steelcase_'
'Stau_'
'Standpunkt_'
'Standort_'
'Stadien_'
'Stab_'
'Staatsoberhaupt_'
'Sri_'
'Später_'
'Spyfish_'
'Spur_'
'Sprünge_'
'Sprich_'
'Sprecher_'
'Splashy_'
'Spitznamen_'
'Spitzen_'
'Spinne_'
'Spinat_'
'Spielzeuge_'
'Spielern_'
'Sphären_'
'Sperrholz_'
'Spektrums_'
'Spektrum_'
'Speicher_'
'Speer_'
'SpeedStrip_'
'Spannung_'
'Spanisch_'
'Spacecraft_'
'Soziologen_'
'Southwark_'
'Sort_'
'Soros_'
'Sorge_'
'Sophia_'
'Soon_'
'Sony_'
'Sonst_'
'Sonnensystem_'
'Sonnenblume_'
'Sonnenaufgang_'
'Sonnen_'
'Sonde_'
'Son_'
'Soll_'
'Soleil_'
'Solarstrom_'
'Solarsegel_'
'Solarkraft_'
'Soja_'
'Softwareentwicklung_'
'Society_'
'Snowball_'
'Smartphones_'
'Sleepy_'
'Skype_'
'Skycar_'
'Sioux_'
'Sinnvolles_'
'Sinnlichkeit_'
'Singapur_'
'Simulator_'
'Simpson_'
'Simplicity_'
'Sies_'
'Sieg_'
'Sidney_'
'Side_'
'Sicherheitslage_'
'Sicherheitsgurten_'
'Sich_'
'Sibirien_'
'Siberia_'
'Shortly_'
'Shoots_'
'Shoney_'
'Shell_'
'Shaw_'
'Sharing_'
'Shapiro_'
'Sexualleben_'
'Set_'
'Sensor_'
'Senioren_'
'Senf_'
'Senegal_'
'Sendung_'
'Sen_'
'Selbstvertrauen_'
'Selbstmord_'
'Selbstliebe_'
'Selbstbild_'
'Selam_'
'Seitdem_'
'Sehkraft_'
'Segel_'
'Seca_'
'Seamus_'
'Scientific_'
'Schüsseln_'
'Schülern_'
'Schülerin_'
'Schädel_'
'Schwingungen_'
'Schwimmen_'
'Schweiz_'
'Schweinen_'
'Schwebe_'
'Schwangerschaft_'
'Schulzeit_'
'Schulstunde_'
'Schuldirektorin_'
'Schuhen_'
'Schubladen_'
'Schritten_'
'Schriftsteller_'
'Schrecken_'
'Schrank_'
'Schock_'
'Schnüre_'
'Schnittstelle_'
'Schnee_'
'Schnecke_'
'Schlüsselrolle_'
'Schluß_'
'Schlimmste_'
'Schlimmer_'
'Schleuderer_'
'Schlagzeilen_'
'Schlag_'
'Schlafen_'
'Schlachtfeld_'
'Schlachten_'
'Schlacht_'
'Schirm_'
'Schinken_'
'Schildkröten_'
'Schild_'
'Schichten_'
'Scherz_'
'Scheibe_'
'Schaut_'
'Schaltkreise_'
'Schaltkreis_'
'Schall_'
'Schachtel_'
'Saunders_'
'Saul_'
'Saudi_'
'Saturns_'
'Satellit_'
'Sari_'
'Sammeln_'
'Saima_'
'Sahara_'
'Sagan_'
'Safety_'
'Sachs_'
'Saatgut_'
'SPECT_'
'SOC_'
'SMSen_'
'SLR_'
'SARS_'
'Röntgenaufnahme_'
'Rädern_'
'Rutan_'
'Rush_'
'Run_'
'Rufus_'
'Ruf_'
'Rucksack_'
'Royal_'
'Roy_'
'Rover_'
'Routine_'
'Rotwein_'
'Ross_'
'Rosling_'
'Roslin_'
'Rosine_'
'Rosenkavalier_'
'Roots_'
'Roosevelt_'
'Romantik_'
'Rollstuhl_'
'Rollen_'
'Rohdaten_'
'Roger_'
'Robin_'
'Risikokapitalgeber_'
'Ringe_'
'Rimini_'
'Richtlinien_'
'Rica_'
'Reuther_'
'Reuters_'
'Rettung_'
'Ressource_'
'Reserve_'
'Republikanern_'
'Republik_'
'Reptilien_'
'Rentierherde_'
'Rente_'
'Related_'
'Reisen_'
'Reifen_'
'Reichen_'
'Reich_'
'Reibung_'
'Rehabilitation_'
'Regelvorschlag_'
'Regardless_'
'Reformation_'
'Reduzierung_'
'Redner_'
'Redakteure_'
'Rechten_'
'Rechner_'
'Rechnen_'
'Recherche_'
'Rechenmaschinen_'
'Rebecca_'
'Realizing_'
'Reaktionen_'
'Reagan_'
'Read_'
'Raumes_'
'Raubkatzen_'
'Rat_'
'Rasselas_'
'Rasen_'
'Ranger_'
'Raketen_'
'Railway_'
'Rabin_'
'Rabbis_'
'RHex_'
'RF_'
'Quite_'
'Quere_'
'Quatsch_'
'Qualle_'
'Qualifikationen_'
'Qaida_'
'Q_'
'Päckchen_'
'Pyle_'
'Put_'
'Punktzahl_'
'Psychologen_'
'Psycho_'
'Prüfung_'
'Präzision_'
'Präsentationen_'
'Prämisse_'
'Prozessor_'
'Prozentpunkt_'
'Prozac_'
'Prototyp_'
'Protokoll_'
'Protocell_'
'Protestant_'
'Proteinen_'
'Propheten_'
'Propeller_'
'Projekts_'
'Projektil_'
'Projects_'
'Programmierer_'
'Produzent_'
'Produktivität_'
'Produktionsmethoden_'
'Pro_'
'Prius_'
'Primzahlen_'
'Prime_'
'Primaten_'
'Primat_'
'Pricing_'
'Pretty_'
'Preisen_'
'Predators_'
'Powerball_'
'Power_'
'Powell_'
'Potenzial_'
'Port_'
'Pore_'
'Popmusik_'
'Pop_'
'Polizist_'
'Polizei_'
'Politikwissenschaftler_'
'Polen_'
'Point_'
'Pocken_'
'Plattformen_'
'Platten_'
'Platte_'
'Plankton_'
'Pinguine_'
'Pine_'
'Pille_'
'Picknick_'
'Picassos_'
'Physiologie_'
'Phrasen_'
'Photosynthese_'
'Philharmonic_'
'Phantasie_'
'Pflichten_'
'Pfeife_'
'Pfanne_'
'Pfad_'
'Pest_'
'Persönlichkeit_'
'Personally_'
'Personal_'
'Perser_'
'Periode_'
'Performanz_'
'Perfect_'
'Pepperberg_'
'Penny_'
'Pennsylvania_'
'Penis_'
'Penicuik_'
'Peinlichkeit_'
'Peers_'
'Peer_'
'Pazifiks_'
'Paz_'
'Pavillons_'
'Patterson_'
'Patrick_'
'Pastor_'
'Pashmina_'
'Partnerschaften_'
'Partnerschaft_'
'Partnern_'
'Part_'
'Parkinson_'
'Parikrma_'
'Parents_'
'Paragliding_'
'Paradigma_'
'Paradies_'
'Papiere_'
'Papagei_'
'Paola_'
'Panik_'
'Palästinenser_'
'Palestine_'
'PVC_'
'PTSD_'
'PSA_'
'PRIZE_'
'PISA_'
'PG_'
'PCs_'
'Ozeans_'
'Ozeane_'
'Oz_'
'Owl_'
'Ow_'
'Out_'
'Other_'
'Osterinsel_'
'Osteoporose_'
'Ost_'
'Osama_'
'Original_'
'Orchestra_'
'Orcas_'
'Optionen_'
'Optimierung_'
'Operationssaal_'
'Onkel_'
'Oliven_'
'Olduvai_'
'Oilendgame_'
'Ohr_'
'Offshoring_'
'Offizielle_'
'Offenheit_'
'Offenbarung_'
'Objekten_'
'Obamas_'
'Obamacare_'
'OMG_'
'Nährstoffe_'
'Nyota_'
'Nuland_'
'Novak_'
'Notwendigkeit_'
'Norwegen_'
'Nordkorea_'
'Nordkanadas_'
'Nordeuropa_'
'Nordamerikas_'
'Nordafrika_'
'Nonne_'
'Nobelpreis_'
'Nino_'
'Nine_'
'Nieren_'
'Nicaragua_'
'Niantic_'
'Ngramme_'
'Never_'
'Neutrinos_'
'Neutralen_'
'Neun_'
'Neulich_'
'Neugier_'
'Neue_'
'Netzwerken_'
'Netra_'
'Netherlands_'
'Netflix_'
'Net_'
'Nester_'
'Nescafe_'
'Neigung_'
'Nehru_'
'Nehmt_'
'Neanderthals_'
'Neanderthaler_'
'Neanderthal_'
'Nations_'
'Nathan_'
'Nathalia_'
'Nashville_'
'Narkose_'
'Narbe_'
'Nanotechnologie_'
'Namens_'
'Nahrungsmitteln_'
'Nahrungsaufnahme_'
'Nahaufnahme_'
'Nadeln_'
'Nachts_'
'Nachdenken_'
'Nachbarin_'
'Münzen_'
'Müllhalde_'
'Mönch_'
'Möhren_'
'Möhre_'
'Mäuse_'
'Mädchens_'
'Myzel_'
'Mythen_'
'Mutationen_'
'Mustern_'
'Muslime_'
'Musk_'
'Muschelschale_'
'Multi_'
'Muir_'
'Mozart_'
'Mountain_'
'Motortyp_'
'Motorrad_'
'Motivatoren_'
'Mosaik_'
'Morton_'
'Morning_'
'Monologen_'
'Mongolia_'
'Monet_'
'Mondfische_'
'Mondes_'
'Monats_'
'Mommy_'
'Momentan_'
'Mom_'
'Molekülen_'
'Mohamed_'
'Moeglichkeiten_'
'Mode_'
'Mittlerweile_'
'Mitspieler_'
'Mitschüler_'
'Mitnehmen_'
'Mitglied_'
'Mitgefühls_'
'Mitfühlende_'
'Mister_'
'Missionen_'
'Mirren_'
'Mio_'
'Minnesota_'
'Minderheit_'
'Milt_'
'Millimeter_'
'Miller_'
'Mikroorganismen_'
'Mikrofon_'
'Mikrofinanzierung_'
'Mikey_'
'Mies_'
'Michal_'
'Mich_'
'Mexikaner_'
'Mexicans_'
'Metall_'
'Messungen_'
'Menschlichkeit_'
'Menschenverstand_'
'Menschenleben_'
'Melodie_'
'Meisten_'
'Meiste_'
'Meint_'
'Meiner_'
'Mega_'
'Meetings_'
'Meerwasser_'
'Meeresspiegel_'
'Meeres_'
'Meegeren_'
'Mediziner_'
'Meditation_'
'Medicine_'
'Medical_'
'Mechanik_'
'Mechanical_'
'McQueen_'
'McLuhan_'
'McLaren_'
'McGrew_'
'Maße_'
'Maß_'
'Mayor_'
'Max_'
'Masterabschluss_'
'Master_'
'Massen_'
'Maryland_'
'Martian_'
'Marshmallows_'
'Marshall_'
'Marmite_'
'Marktes_'
'Marihuana_'
'Manuskript_'
'Mans_'
'Mangels_'
'Mamma_'
'Malerei_'
'Malaysia_'
'Makel_'
'Mahjong_'
'Mahatma_'
'Magier_'
'Maden_'
'Madd_'
'Madame_'
'Madagascar_'
'MTV_'
'MRT_'
'MBA_'
'MANIAC_'
'Lüge_'
'Lähmung_'
'Läden_'
'Lysander_'
'Lycopin_'
'Luxus_'
'Lust_'
'Lurie_'
'Lullin_'
'Lucas_'
'Looking_'
'Long_'
'Londons_'
'Local_'
'Lobby_'
'Liter_'
'List_'
'Lippen_'
'Link_'
'Liebsten_'
'Lieblings_'
'Liebhaber_'
'Libby_'
'Lhasa_'
'Lexington_'
'Lexikografie_'
'Letztes_'
'Letztendlich_'
'Letzten_'
'Leser_'
'Leoparden_'
'Leonardo_'
'Leo_'
'Lenape_'
'Lem_'
'Leistungsfähigkeit_'
'Leidenschaften_'
'Leidens_'
'Leiden_'
'Lehrplan_'
'Lehrbücher_'
'Legos_'
'Left_'
'Leck_'
'Leber_'
'Lebenszyklus_'
'Lebenszeit_'
'Lebensunterhalt_'
'Lebensjahr_'
'Lebenserwartung_'
'Learning_'
'Le_'
'Law_'
'Lautsprechern_'
'Laune_'
'Latte_'
'Later_'
'Larry_'
'Laramie_'
'Lange_'
'Landwirte_'
'Landkarte_'
'Lampe_'
'Lamas_'
'Laguna_'
'Laborbericht_'
'Laboratory_'
'Laboratories_'
'LOL_'
'LM_'
'LEDs_'
'Kürze_'
'Körperteile_'
'Körpersprache_'
'Körner_'
'Königskobra_'
'Königreich_'
'Köche_'
'Kästchen_'
'Kämpfen_'
'Kämpfe_'
'Kämme_'
'Kälte_'
'Kuss_'
'Kurzweil_'
'Kurven_'
'Kurse_'
'Kurator_'
'Kunstform_'
'Kung_'
'Kummer_'
'Kulturrevolution_'
'Kulisse_'
'Kuipergürtel_'
'Kubodera_'
'Krümmung_'
'Kräfte_'
'Kruste_'
'Kritiker_'
'Kriegsgefangenenlager_'
'Kriege_'
'Krebszellen_'
'Krater_'
'Krankheitserreger_'
'Krankenschwestern_'
'Kraken_'
'Kotpille_'
'Kosmos_'
'Korrekturen_'
'Koreans_'
'Koralle_'
'Kopfhörern_'
'Kopernikus_'
'Konsument_'
'Konsequenz_'
'Konnektivität_'
'Konkurrenz_'
'Kongress_'
'Kongo_'
'Konflikts_'
'Komponente_'
'Kommunismus_'
'Kommentar_'
'Kommen_'
'Kolumbus_'
'Kolonien_'
'Kollagen_'
'Koko_'
'Kohlenwasserstoffe_'
'Kohlenwasserstoff_'
'Kohlenstoffemissionen_'
'Kognition_'
'Koffer_'
'Kodak_'
'Koch_'
'Knöpfen_'
'Knochengewebe_'
'Knie_'
'Knete_'
'Kliniken_'
'Klimawandels_'
'Kleine_'
'Kleinbauern_'
'Klee_'
'Klebstoff_'
'Klebeband_'
'Klauen_'
'Klassenzimmer_'
'Kiva_'
'Kitty_'
'Kiste_'
'Kiribati_'
'Kinderspiel_'
'Kindersitzen_'
'Kim_'
'Killer_'
'Kigali_'
'Khmer_'
'Keystone_'
'Ketten_'
'Kette_'
'Kerze_'
'Kenneth_'
'Kennedy_'
'Kemp_'
'Kelley_'
'Kekse_'
'Kein_'
'Kaum_'
'Katz_'
'Kategorien_'
'Kartikeya_'
'Karotte_'
'Karo_'
'Karnataka_'
'Karmapa_'
'Karen_'
'Kapseln_'
'Kappe_'
'Kapitän_'
'Kanadier_'
'Kampagnen_'
'Kampagne_'
'Kameramann_'
'Kamel_'
'Kalten_'
'Kalorien_'
'Kalkutta_'
'Kaliber_'
'Kalash_'
'Kalam_'
'Kaffeehaus_'
'Kachel_'
'Kabeln_'
'Kabelfernsehen_'
'Kaaba_'
'KS_'
'KGB_'
'Jüngere_'
'Jó_'
'Jäger_'
'Juteleinen_'
'Juno_'
'Junkfood_'
'Junior_'
'Junger_'
'Jugendliche_'
'Jugendalter_'
'Juden_'
'Journalist_'
'Jon_'
'Johnson_'
'Joey_'
'Joel_'
'Joaquin_'
'Jews_'
'Jet_'
'Jesuit_'
'Jesse_'
'Jerry_'
'Jene_'
'Jedoch_'
'Jazz_'
'Jarrett_'
'Jahrgang_'
'Jahreszeiten_'
'Jagd_'
'Jacob_'
'Jacke_'
'JW_'
'JN_'
'JK_'
'Ivory_'
'Italiener_'
'Italian_'
'Israelites_'
'Israeli_'
'Irish_'
'Irgendwo_'
'Irgendwie_'
'Irene_'
'Iraner_'
'Iraks_'
'Inzwischen_'
'Investoren_'
'Interview_'
'Internetseite_'
'Interface_'
'Interesting_'
'Interaktivität_'
'Interaktionen_'
'Intensität_'
'Intellekts_'
'Integrität_'
'Instrumentenübersicht_'
'Institutions_'
'Installationen_'
'Installation_'
'Instabilität_'
'Inseln_'
'Inneren_'
'Innenstadt_'
'Ingenieur_'
'Informations_'
'Infanterie_'
'Industry_'
'Industrieländer_'
'Indra_'
'Individuum_'
'Indigo_'
'Index_'
'Independent_'
'Indem_'
'Incredible_'
'Impuls_'
'Improv_'
'Impfstoffen_'
'Impact_'
'Imitation_'
'Imam_'
'Ikosaeder_'
'Ikonographie_'
'Igitt_'
'Ideologie_'
'Identitätspolitik_'
'Identitäten_'
'Identifizierung_'
'Ideal_'
'IT_'
'ITU_'
'IMSA_'
'IGF_'
'ICU_'
'Hütte_'
'Hülle_'
'Hühner_'
'Höhepunkt_'
'Häuptling_'
'Hämoglobin_'
'Hyun_'
'Hyderabad_'
'Hut_'
'Hussein_'
'Hunter_'
'Hundreds_'
'Hundes_'
'Hunde_'
'Humanity_'
'Human_'
'Huhn_'
'Huaorani_'
'House_'
'Hour_'
'Hotline_'
'Hosen_'
'Hose_'
'Hormon_'
'Horizont_'
'Honigbienen_'
'Honig_'
'Homosexualität_'
'Homepage_'
'Holz_'
'Holy_'
'Holocaust_'
'Hollywood_'
'Holiday_'
'Hold_'
'Hokusai_'
'Hoffmann_'
'Hocker_'
'Hochleistungs_'
'Hoch_'
'Hirns_'
'Hirn_'
'Himba_'
'Hillary_'
'Hilfsorganisationen_'
'Hilfsmittel_'
'Hilary_'
'Hickey_'
'Hertz_'
'Herangehensweisen_'
'Help_'
'Hell_'
'Helfer_'
'Helfen_'
'Hektar_'
'Heimatland_'
'Heimat_'
'Heilmittel_'
'Heiligkeit_'
'Hebrew_'
'Heaney_'
'Healthy_'
'Hawking_'
'Having_'
'Haustiere_'
'Haushalt_'
'Hauses_'
'Hauptgrund_'
'Hart_'
'Harold_'
'Harbor_'
'Handschuhe_'
'Handschrift_'
'Handgemenge_'
'Handelsweise_'
'Handarbeit_'
'Haie_'
'Haftung_'
'Hafen_'
'Hacker_'
'Habenden_'
'Haaren_'
'Haar_'
'H5N1_'
'Göttliche_'
'Gänsehaut_'
'Gyrus_'
'Gymnasium_'
'Guns_'
'Guinness_'
'Guier_'
'Guardian_'
'Guard_'
'Grüne_'
'Grundgedanke_'
'Grundannahme_'
'Großzügigkeit_'
'Großbritanniens_'
'Growth_'
'Groening_'
'Griechenland_'
'Griechen_'
'Gremiums_'
'Gremium_'
'Greg_'
'Greenville_'
'Greencard_'
'Greeks_'
'Graph_'
'Grant_'
'Grabredner_'
'Gottfried_'
'Gombe_'
'Golfküste_'
'Goldman_'
'Goldene_'
'Gogh_'
'Goering_'
'Gnaden_'
'Glockenkurve_'
'Globale_'
'Glied_'
'Gleichung_'
'Gleichstrom_'
'Glass_'
'Giuliani_'
'Gitter_'
'Gift_'
'Gib_'
'Giant_'
'Gewürze_'
'Gewänder_'
'Gewinnen_'
'Gewichtes_'
'Gewebes_'
'Getränke_'
'Gesundheitssysteme_'
'Gesundheitsproblemen_'
'Gesundheitsessen_'
'Gestern_'
'Gestaltung_'
'Gestalter_'
'Gesichtserkennung_'
'Gesichtsausdruck_'
'Geschöpfe_'
'Geschäftswelt_'
'Geschäftsmodelle_'
'Geschäftsführer_'
'Geschäfts_'
'Geschmacks_'
'Germans_'
'Geparden_'
'Georg_'
'Geopolitik_'
'Geometrie_'
'Genick_'
'Geneva_'
'Genetik_'
'Genen_'
'Gemeinkosten_'
'Gelehrten_'
'Gelegenheiten_'
'Gel_'
'Gehäuse_'
'Geht_'
'Gehsteig_'
'Gehry_'
'Gehirnscanner_'
'Geh_'
'Gegenständen_'
'Gegenstände_'
'Gefühlen_'
'Gefängnisse_'
'Gefährt_'
'Gefangener_'
'Geduld_'
'Geckos_'
'Gebärmutter_'
'Gebete_'
'Gateshead_'
'Gasmoleküle_'
'Garden_'
'Ganzen_'
'Gange_'
'Ganesha_'
'Games_'
'Game_'
'Gallonen_'
'Galileo_'
'Galerien_'
'Galerie_'
'Galapagos_'
'Gala_'
'Gachter_'
'GW_'
'GBM_'
'Führungsverhalten_'
'Fühlen_'
'Fête_'
'Fäden_'
'Fußballspiel_'
'Fuller_'
'Full_'
'Fuji_'
'Frühstück_'
'Frühling_'
'Früchten_'
'Fruchtfliegen_'
'Frigoris_'
'Friedens_'
'Freundes_'
'Freud_'
'Frequenzen_'
'Fremden_'
'Freizeit_'
'Freiwillige_'
'Freedom_'
'Fred_'
'Frans_'
'France_'
'Fraktale_'
'Fragebögen_'
'Fox_'
'Foucault_'
'Fotografie_'
'Forum_'
'Fortsetzung_'
'Fortpflanzung_'
'Forschungseinrichtungen_'
'Forschungs_'
'Forrester_'
'Formel_'
'Formation_'
'Forget_'
'Forderungen_'
'Forbes_'
'Food_'
'Fomitopsis_'
'Folter_'
'Foie_'
'Flüssen_'
'Flüge_'
'Flächen_'
'Fluktuationen_'
'Flugticket_'
'Flughäfen_'
'Fluctus_'
'Floristen_'
'Flaubert_'
'Flaschen_'
'Flaggen_'
'Flagge_'
'Fischer_'
'Fischen_'
'Fine_'
'Financial_'
'Fildes_'
'Fighting_'
'Fifty_'
'Fieber_'
'Fidschi_'
'Fett_'
'Festivals_'
'Festigkeit_'
'Fensterfarm_'
'Felsen_'
'Feierlichkeiten_'
'Fehr_'
'Fehlern_'
'Federal_'
'Favelas_'
'Faulkner_'
'Fattushis_'
'Fast_'
'Fassade_'
'Fashtoonks_'
'Fark_'
'Farb_'
'Fans_'
'Faltung_'
'Fakultät_'
'Fahrverhalten_'
'Fahrt_'
'Fachwissen_'
'Fachblatt_'
'Eye_'
'Extremismus_'
'Extremadura_'
'Exploration_'
'Experte_'
'Excuse_'
'Except_'
'Ex_'
'Evolutionslobby_'
'Everywhere_'
'Everyone_'
'Events_'
'Evelyn_'
'Europäischen_'
'Europäer_'
'Europeans_'
'Etikett_'
'Ethiopian_'
'Essgewohnheiten_'
'Essens_'
'Erweiterung_'
'Erwartung_'
'Erwachsener_'
'Erstes_'
'Errungenschaft_'
'Eroberung_'
'Ernährungssystem_'
'Ernte_'
'Ernstes_'
'Ernst_'
'Erleuchtung_'
'Erkenntnissen_'
'Erhebungen_'
'Erhalten_'
'Erforscher_'
'Erfolgsgeschichte_'
'Ereignissen_'
'Erdgas_'
'Erderwärmung_'
'Erdboden_'
'Erdbeben_'
'Erbe_'
'Epiphany_'
'Enzymen_'
'Enzyme_'
'Entwicklungsland_'
'Entwicklungshilfe_'
'Entwickler_'
'Entwaldung_'
'Entspannung_'
'Entscheidend_'
'Entrepreneurs_'
'Enthusiasmus_'
'Englischen_'
'Energieverbrauch_'
'Energiequellen_'
'Endgame_'
'Embassy_'
'Emails_'
'Elizabeth_'
'Eleven_'
'Elements_'
'Elefant_'
'Electric_'
'Eiweiß_'
'Eises_'
'Eisen_'
'Einzelteile_'
'Einzelbild_'
'Einwand_'
'Einträge_'
'Einsparungen_'
'Einschätzung_'
'Einschränkungen_'
'Einsamkeit_'
'Einrichtung_'
'Einkommens_'
'Einklang_'
'Einigkeit_'
'Einhorn_'
'Eingriffe_'
'Eingangstür_'
'Eingang_'
'Einflüsse_'
'Einerseits_'
'Eindringling_'
'Einblick_'
'Einbindung_'
'Eigentümerschaft_'
'Eigentümer_'
'Eigentums_'
'Eigenschaft_'
'Eier_'
'Ehren_'
'Ehepartner_'
'Egos_'
'Effekte_'
'Edwards_'
'Edison_'
'Economic_'
'Ecken_'
'Ebenso_'
'Easter_'
'Eagles_'
'EUR_'
'EOS_'
'EL_'
'Dürre_'
'Dünndarm_'
'Dynastie_'
'Dusty_'
'Durchbruch_'
'Duolingo_'
'Duh_'
'Duck_'
'Dubai_'
'Droge_'
'Drittens_'
'Dritte_'
'Drink_'
'Dringlichkeit_'
'Draussen_'
'Drang_'
'Doyle_'
'Dow_'
'Doppelte_'
'Dopamin_'
'DonorsChoose_'
'Dongguan_'
'Donald_'
'Domäne_'
'Dolmetscherin_'
'Dollars_'
'Dokument_'
'Dodgers_'
'Disziplinen_'
'Display_'
'Discovery_'
'Dirt_'
'Direktor_'
'Diop_'
'Dinosaurier_'
'Dink_'
'Diktatoren_'
'Dienstagmorgen_'
'Dienst_'
'Dichte_'
'Diagramme_'
'Diagramm_'
'Diagnostik_'
'Development_'
'Developing_'
'Detektors_'
'Detektoren_'
'Deskbar_'
'Designstudenten_'
'Depressio_'
'Denver_'
'Denton_'
'Dennoch_'
'Denmark_'
'Denkern_'
'Denk_'
'Denisovan_'
'Dengue_'
'Demut_'
'Demonstration_'
'Demokratien_'
'Demenz_'
'Delphine_'
'Delfinen_'
'Delfine_'
'Deletionen_'
'Dekade_'
'Decrescendo_'
'Deck_'
'Debüt_'
'Deaf_'
'De_'
'Davos_'
'Davon_'
'Dauer_'
'Datenzentren_'
'Datenbanken_'
'Darum_'
'Dartmouth_'
'Darlehen_'
'Daran_'
'Danilo_'
'Dam_'
'Daf_'
'DVD_'
'DB_'
'Cyberkriminelle_'
'Cyber_'
'Cutkosky_'
'Cuba_'
'Crohn_'
'Crisis_'
'Crash_'
'Crane_'
'Cousins_'
'Cousin_'
'Course_'
'Courage_'
'Cosmic_'
'Corvisart_'
'Cortisol_'
'Corp_'
'Core_'
'Copyright_'
'Copacabana_'
'Convention_'
'Contra_'
'Conservancy_'
'Conneticut_'
'Condor_'
'Concerto_'
'Computern_'
'Compare_'
'Company_'
'Comfort_'
'Coleridge_'
'Coleoptera_'
'Cola_'
'Cohen_'
'Coca_'
'Co_'
'Cloudburst_'
'Cloud_'
'Clean_'
'Clark_'
'Citys_'
'Cirque_'
'Cincinnati_'
'Cicero_'
'Churchill_'
'Chromosomen_'
'Christoph_'
'Christian_'
'Chor_'
'Cholera_'
'Chlorophyll_'
'Chlamydienepidemie_'
'Chip_'
'Chinesische_'
'Chimborazo_'
'Chief_'
'Chicken_'
'Cheval_'
'Chemokine_'
'Chekhov_'
'Cheikh_'
'Cheetos_'
'Check_'
'Chavez_'
'Chau_'
'Charakteristika_'
'Chandler_'
'Chadd_'
'Chad_'
'Census_'
'Cassini_'
'Cartoon_'
'Carlton_'
'Carlisle_'
'Capgras_'
'Cantor_'
'Campus_'
'Campanella_'
'Cameron_'
'Cambodia_'
'Caltech_'
'Californian_'
'Cala_'
'CalTech_'
'CISA3_'
'CERN_'
'CDs_'
'Bürgermeister_'
'Bündel_'
'Bösen_'
'Börse_'
'Béla_'
'Bäumen_'
'Bären_'
'Busch_'
'Burma_'
'Bulgarien_'
'Buick_'
'Buffett_'
'Buden_'
'Buckminster_'
'Buckelwale_'
'Bucht_'
'Brücken_'
'Brunel_'
'Browser_'
'Browne_'
'Brothers_'
'Brokkoli_'
'Brigades_'
'Brigaden_'
'Brennstoffzellen_'
'Brennstoffen_'
'Braun_'
'Brasilien_'
'Branche_'
'Brahms_'
'Brahimi_'
'Botoxia_'
'Bosnia_'
'Boris_'
'Borden_'
'Bootsladung_'
'Boolean_'
'Bonus_'
'Boltzmann_'
'Bojen_'
'Bogen_'
'Bodenschätze_'
'Bobby_'
'Blues_'
'Bluegrass_'
'Blogs_'
'Blitze_'
'Blinden_'
'Blickwinkel_'
'Blender_'
'Blanc_'
'Blackawton_'
'Black_'
'Bits_'
'Birds_'
'Biotreibstoff_'
'Biosphere_'
'Biologen_'
'Biofabrikation_'
'Billie_'
'Bildschirmen_'
'Bildes_'
'Bihar_'
'Bigelow_'
'Bienenwachs_'
'Bi_'
'Bezos_'
'Bewertung_'
'Bewerbung_'
'Bewegen_'
'Beweg_'
'Bevölkerungswachstum_'
'Bevor_'
'Beverly_'
'Beutel_'
'Beute_'
'Betreuung_'
'Betrachtungsweise_'
'Bestes_'
'Besten_'
'Besser_'
'Besorgnis_'
'Beseitigung_'
'Beschleunigung_'
'Besatzung_'
'Berufe_'
'Bertoia_'
'Berry_'
'Bernstein_'
'Berlioz_'
'Berichten_'
'Bergbau_'
'Bereiche_'
'Berechnung_'
'Beratung_'
'Beobachtungen_'
'Beobachter_'
'Benutzer_'
'Bennington_'
'Benki_'
'Bemühungen_'
'Bemerkung_'
'Belsazar_'
'Belle_'
'Belief_'
'Belastung_'
'Bekämpfung_'
'Beitrag_'
'Beispielen_'
'Beijing_'
'Behältern_'
'Behälter_'
'Behold_'
'Behinderungen_'
'Begründer_'
'Begriffe_'
'Begrenzungen_'
'Begeisterung_'
'Begehren_'
'Begegnung_'
'Beethovens_'
'Beerdigung_'
'Bee_'
'Beachten_'
'Bauteile_'
'Bauer_'
'Baue_'
'Bauchspeicheldrüsenkrebs_'
'Bauchspeicheldrüse_'
'Battelle_'
'Batman_'
'Basil_'
'Bart_'
'Barriere_'
'Barricini_'
'Barefoot_'
'Banker_'
'Banken_'
'Bandura_'
'Bandbreite_'
'Ballen_'
'Ballast_'
'Balkone_'
'Balken_'
'Bakterium_'
'Bahnhof_'
'Bahnen_'
'Baghdad_'
'Bagdad_'
'Bad_'
'Backoffice_'
'Babylonian_'
'Babylon_'
'Babel_'
'BR_'
'BP_'
'BMN_'
'BBC_'
'Azerbaijan_'
'Awesome_'
'Award_'
'Aviv_'
'Average_'
'Avenue_'
'Autor_'
'Autobatterie_'
'Auszeichnung_'
'Ausweg_'
'Auswahlmöglichkeiten_'
'Australians_'
'Austen_'
'Ausstoss_'
'Ausstellung_'
'Ausgangspunkt_'
'Ausflug_'
'Ausdehnung_'
'Auschwitz_'
'Ausbruch_'
'Ausbeutung_'
'Aufzeichnungen_'
'Auftritte_'
'Auftreten_'
'Aufspüren_'
'Aufschwung_'
'Aufgrund_'
'Aufführung_'
'Auffassung_'
'Atoms_'
'Atomic_'
'Atomen_'
'Atome_'
'Atmung_'
'Atmen_'
'Atkins_'
'Atheist_'
'Atemkreislauf_'
'Astronom_'
'Aston_'
'Asteroiden_'
'Asteroid_'
'Astaire_'
'Aspekten_'
'Asian_'
'Ashaninka_'
'Arzneimittel_'
'Arthritis_'
'Artefakte_'
'Arsenal_'
'Arrest_'
'Aron_'
'Army_'
'Arms_'
'Armeen_'
'Arkansas_'
'Arizona_'
'Areale_'
'Area_'
'Archiv_'
'Architecture_'
'Arche_'
'Arbeitsmarkt_'
'Arbeitskraft_'
'Arbeitsgruppe_'
'Aralsee_'
'Applikationen_'
'Applaus_'
'Apparat_'
'Apollonian_'
'Apocalypse_'
'Apartment_'
'Anzug_'
'Anziehungskraft_'
'Anziehung_'
'Anyone_'
'Anwesenheit_'
'Anweisung_'
'Antrag_'
'Antennen_'
'Antenne_'
'Antarktis_'
'Antarctic_'
'Anta_'
'Anstrengungen_'
'Ansonsten_'
'Ansatzes_'
'Anrufbeantworter_'
'Anreiz_'
'Anpassungen_'
'Anpassen_'
'Anordnung_'
'Annabelle_'
'Ann_'
'Anleitung_'
'Anlagen_'
'Anlage_'
'Anhängern_'
'Anhand_'
'Angry_'
'Angriffs_'
'Angestellte_'
'Angesicht_'
'Angenommen_'
'Anführern_'
'Anerkennung_'
'Andy_'
'Andrea_'
'Andererseits_'
'Anbieter_'
'Anarchie_'
'Analysis_'
'Analysen_'
'Analogie_'
'Anagramme_'
'Amt_'
'Amsterdam_'
'Amputationen_'
'Ampel_'
'Amerikanischen_'
'Amerikanern_'
'Ameisen_'
'Ambassador_'
'Altersgruppe_'
'Alters_'
'Already_'
'Along_'
'Almosen_'
'Alltag_'
'AlloSphere_'
'Allgemeingut_'
'Allgemein_'
'Allem_'
'Allein_'
'Alibiort_'
'Algen_'
'Alexandria_'
'Album_'
'Albatross_'
'Alan_'
'Akzent_'
'Akustik_'
'Aktivisten_'
'Aktionen_'
'Akteur_'
'Akte_'
'Airlines_'
'AirPix_'
'Ahmed_'
'Agenten_'
'Agenda_'
'Afrikanischen_'
'Afghanen_'
'Adventures_'
'Advanced_'
'Adaption_'
'Abu_'
'Abstand_'
'Abschnitt_'
'Abschied_'
'Abscheu_'
'Ablehnung_'
'Abkommen_'
'Abhängigkeit_'
'Abfälle_'
'Abdul_'
'Abbildung_'
'ATA_'
'ASHA_'
'AR_'
'AOL_'
'AH_'
'AG_'
'ACE_'
'AB_'
'A380_'
'?«_'
'?" -- _'
'? – _'
'? "_'
':" _'
'97_'
'90ern_'
'88_'
'86_'
'83_'
'826_'
'750_'
'74_'
'73_'
'71_'
'70er_'
'7000_'
'68_'
'64_'
'618_'
'60s_'
'59_'
'56_'
'53_'
'52_'
'503_'
'49_'
'489_'
'466_'
'42_'
'39_'
'365_'
'34_'
'325_'
'2½_'
'280_'
'25th_'
'2106_'
'2016_'
'1995_'
'1994_'
'1986_'
'1983_'
'1979_'
'1977_'
'1975_'
'1970ern_'
'1965_'
'1964_'
'1961_'
'1956_'
'1954_'
'1948_'
'1947_'
'1946_'
'1944_'
'1941_'
'1930s_'
'1929_'
'1927_'
'1888_'
'1879_'
'1787_'
'15th_'
'1369_'
'120_'
'111_'
'103_'
'1000_'
'041_'
'000mal_'
'.«_'
'... – _'
'... - _'
'.) _'
',' _'
'," "_'
', — — _'
', ... _'
'%._'
'%-_'
'"] _'
'",_'
'", "_'
'" , _'
'!] [_'
'!", _'
' ›_'
' — — _'
' »_'
' ..."_'
' ..." _'
' ,_'
' + _'
' %._'
'‹, _'
'‹ _'
'…_'
'…] [_'
'… "_'
'‟._'
'— — _'
'— _'
'— "_'
'ürs_'
'übte_'
'üblichen_'
'überzugehen_'
'überzubringen_'
'überziehen_'
'überzeugende_'
'überzeugend_'
'überwältigende_'
'überwältigen_'
'überwunden_'
'überwogen_'
'überwiegend_'
'überwacht_'
'übertönen_'
'übertreiben_'
'übertreffen_'
'übertragene_'
'überstülpen_'
'überstrapaziertes_'
'übersteigt_'
'übersteigen_'
'überstehen_'
'überstanden_'
'überspringen_'
'übersetzte_'
'übersehene_'
'überschreiten_'
'überschlagen_'
'überschattete_'
'überrollt_'
'überreichten_'
'überreichte_'
'überredet_'
'überreden_'
'überreagiert_'
'überraschten_'
'überraschenderweise_'
'überraschen_'
'überragenden_'
'überquellende_'
'überprüfte_'
'überprüft_'
'überprüfen_'
'überprüfbar_'
'überollen_'
'übernächsten_'
'übernehmt_'
'übernatürlichen_'
'übernatürliche_'
'übernachteten_'
'übermitteln_'
'überlistet_'
'überlegte_'
'überlege_'
'überlebensfähigen_'
'überlebe_'
'überlaufen_'
'überlasse_'
'überlappt_'
'überlagert_'
'überkam_'
'überholt_'
'übergreifenden_'
'überglücklich_'
'übergegangen_'
'übergaben_'
'überführt_'
'überfressen_'
'überflüssige_'
'überflutet_'
'überfluten_'
'überfahren_'
'überexpandiert_'
'übereinstimmen_'
'übereinstimme_'
'überdurchschnittlich_'
'überdimensionalen_'
'überbewerten_'
'überaus_'
'überaschend_'
'überarbeiteten_'
'überarbeiten_'
'überallhin_'
'übel_'
'östlichen_'
'östlich_'
'örtlicher_'
'örtlichen_'
'öligen_'
'ökonomische_'
'ökonomisch_'
'ökologisches_'
'ökologischem_'
'öffne_'
'öffentlicher_'
'és_'
'ça_'
'äußerste_'
'äußern_'
'äußerlich_'
'ästethische_'
'ärztlicher_'
'ärgert_'
'ärgern_'
'ärgerliche_'
'äquivalent_'
'ängstlich_'
'ändernden_'
'ändernde_'
'ähnlicher_'
'ähm_'
'äh_'
'ä_'
'â_'
'Übungen_'
'Überzeugungskraft_'
'Überzeugungen_'
'Überträger_'
'Übertragungen_'
'Übertragung_'
'Übersetzer_'
'Überschrift_'
'Überraschungskampagne_'
'Überraschendste_'
'Überraschendes_'
'Überqueren_'
'Überlieferung_'
'Überlegungen_'
'Überlegung_'
'Überlebenstechniken_'
'Überlebensquote_'
'Überlebenskampf_'
'Überlebenschance_'
'Überlebender_'
'Überlappung_'
'Übergänge_'
'Übergriffe_'
'Übergangsorte_'
'Übereinstimmung_'
'Überdosis_'
'Überbrückung_'
'Überblick_'
'Überall_'
'Übeln_'
'Übelkeit_'
'Österreich_'
'Örtliche_'
'Ölverknappung_'
'Öltropfen_'
'Ölsande_'
'Öls_'
'Ölreserven_'
'Ölpreise_'
'Ölkrise_'
'Ölkriegen_'
'Ölkatastrophe_'
'Ölfleck_'
'Ökosystems_'
'Ökonomie_'
'Ökologe_'
'Öffentlichkeitsarbeit_'
'Ça_'
'Äxte_'
'Äußerungen_'
'Ätna_'
'Äthiopisch_'
'Ästhetik_'
'Äste_'
'Ärmels_'
'Ärmel_'
'Ärgerliche_'
'Äquators_'
'Äquator_'
'Ältesten_'
'Älteres_'
'Äffchen_'
'ÄOK_'
'½_'
'»_'
'«._'
'«, _'
' – _'
'_'
' _'
'zügig_'
'züchtete_'
'zählend_'
'zyklisch_'
'zygomaticus_'
'zygomatic_'
'zwölfseitige_'
'zwischenstaatliche_'
'zwischenmenschlicher_'
'zwinkern_'
'zwingt_'
'zweiwöchigen_'
'zweitälteste_'
'zweitgrößte_'
'zweistündige_'
'zweiseitigem_'
'zweijähriger_'
'zweigt_'
'zweifelsohne_'
'zweifeln_'
'zweien_'
'zweidimensionalen_'
'zwangsläufig_'
'zuzusehen_'
'zuzuschieben_'
'zuzunehmen_'
'zuzulegen_'
'zuzubereiten_'
'zuwerfen_'
'zuweilen_'
'zuvorzukommen_'
'zuversichtlich_'
'zuverlässiges_'
'zutreffen_'
'zutrafen_'
'zutiefst_'
'zuständig_'
'zustimmten_'
'zustimmte_'
'zustimmt_'
'zusehends_'
'zusehe_'
'zuschütten_'
'zuschreiben_'
'zuschicken_'
'zuschaute_'
'zuschaut_'
'zusammenzuschrauben_'
'zusammenzulegen_'
'zusammenzuleben_'
'zusammenzukriegen_'
'zusammenzuarbeiten_'
'zusammenwachsen_'
'zusammentragen_'
'zusammensetzen_'
'zusammensaßen_'
'zusammenpressen_'
'zusammenleben_'
'zusammenketten_'
'zusammenhängende_'
'zusammenhalten_'
'zusammengetragen_'
'zusammengeschlagen_'
'zusammengepresst_'
'zusammengeklebt_'
'zusammengehalten_'
'zusammengefügt_'
'zusammengefasstes_'
'zusammengefasst_'
'zusammengebrochen_'
'zusammengeballte_'
'zusammenfügt_'
'zusammenfügen_'
'zusammenfinden_'
'zusammenfassend_'
'zusammenfassen_'
'zusammenfallen_'
'zusammenbringt_'
'zusammenbrechen_'
'zusammenbauen_'
'zusammenaddieren_'
'zusah_'
'zurückübersetzt_'
'zurückzutreten_'
'zurückzulehnen_'
'zurückzukommen_'
'zurückzuhalten_'
'zurückzugewinnen_'
'zurückzuführen_'
'zurückzublicken_'
'zurückzog_'
'zurückziehen_'
'zurückwachsen_'
'zurückverlangen_'
'zurücktreten_'
'zurücksetzen_'
'zurückschrecken_'
'zurückschmeißen_'
'zurückrufen_'
'zurückreflektiert_'
'zurückließen_'
'zurückließ_'
'zurücklehnen_'
'zurücklegt_'
'zurücklegen_'
'zurücklaufen_'
'zurücklassen_'
'zurückkehrt_'
'zurückhaltenderen_'
'zurückgerufen_'
'zurückgekommen_'
'zurückgekehrt_'
'zurückgefallenen_'
'zurückgefahren_'
'zurückfordern_'
'zurückfanden_'
'zurückfahren_'
'zurückerobert_'
'zurückdrehen_'
'zurückdenkt_'
'zurückdenkend_'
'zurückbringen_'
'zurückblicken_'
'zurückbleiben_'
'zuruft_'
'zurechtmachen_'
'zurechtgewiesen_'
'zunutze_'
'zunahm_'
'zumal_'
'zuließen_'
'zulassen_'
'zukunftsloser_'
'zukunftsbegeistert_'
'zukam_'
'zuhöre_'
'zugrundeliegenden_'
'zugreifen_'
'zugleich_'
'zugibt_'
'zugesprochen_'
'zugesetzt_'
'zugelassen_'
'zugehört_'
'zugeflüstert_'
'zuflüstern_'
'zufallsgeneriert_'
'zueinander_'
'zudrehte_'
'zubereitest_'
'zuarbeiten_'
'zoos_'
'zoomen_'
'zombies_'
'zollen_'
'zogen_'
'zivilisierten_'
'zivilisatorische_'
'zitternden_'
'zitiere_'
'zirka_'
'zinc_'
'zig_'
'zielstrebigen_'
'zielführende_'
'zielen_'
'zettelten_'
'zertifiziertes_'
'zerstoeren_'
'zersetzt_'
'zersetzenden_'
'zersetzen_'
'zerschmettere_'
'zerschlugen_'
'zerschlagen_'
'zerriss_'
'zerplatzte_'
'zerlegen_'
'zerfällt_'
'zerfleischt_'
'zeremoniellen_'
'zerbrochenes_'
'zerbrechlichsten_'
'zerbrechlichen_'
'zerbrechlich_'
'zerbrach_'
'zentralisierten_'
'zensiert_'
'zensieren_'
'zelluläre_'
'zeitloses_'
'zeitliche_'
'zeitlich_'
'zeitgenössischer_'
'zeichneten_'
'zeichne_'
'zeichentrickartigen_'
'zehntausenden_'
'zehnmal_'
'zebra_'
'zealotry_'
'zdravstvujtye_'
'zahlreiche_'
'zahlreich_'
'zahlenmäßig_'
'zahle_'
'yup_'
'yours_'
'youngsters_'
'yogurt_'
'yields_'
'yielded_'
'yelling_'
'yelled_'
'yell_'
'yeasts_'
'yawn_'
'x²_'
'wütenden_'
'würzt_'
'würgen_'
'wünschten_'
'wünscht_'
'wünschen_'
'wühlen_'
'wöchentlichen_'
'wärs_'
'wärmere_'
'wärest_'
'wär_'
'wählten_'
'wählte_'
'wählerisch_'
'wunschönen_'
'wundervollste_'
'wunderschönes_'
'wunderlichen_'
'wuchernden_'
'wuchern_'
'wrought_'
'wrongness_'
'wrongheaded_'
'wrongful_'
'wrinkles_'
'wresting_'
'wrenching_'
'wreaking_'
'wraps_'
'wrap_'
'woven_'
'wounds_'
'wounded_'
'worthlessness_'
'worthless_'
'worthiness_'
'worship_'
'worries_'
'workshop_'
'workplaces_'
'workmen_'
'workload_'
'workaholics_'
'workafrolics_'
'workable_'
'worin_'
'wooden_'
'wont_'
'wondrous_'
'womöglich_'
'womb_'
'womankind_'
'wolfsähnlichen_'
'wolf_'
'wohnte_'
'wohnt_'
'wohnlicher_'
'wohnen_'
'wohlfühlen_'
'wog_'
'wochenlang_'
'wizard_'
'wives_'
'witnesses_'
'witness_'
'withholding_'
'withheld_'
'withdrew_'
'withdrawal_'
'withdraw_'
'wissenschaftlichem_'
'wissenschaftlich_'
'wisps_'
'wishbone_'
'wisdoms_'
'wischt_'
'wirtschaftliches_'
'wirtschaftlich_'
'wirkungslos_'
'wirksamer_'
'wirkliches_'
'wirklichem_'
'wirkenden_'
'wires_'
'wirelessly_'
'wirbelt_'
'wiping_'
'wipe_'
'wintertime_'
'winterliche_'
'wintering_'
'winnowed_'
'winning_'
'wingsuits_'
'winging_'
'wines_'
'windy_'
'windsurfing_'
'windscreen_'
'windowpanes_'
'windowpane_'
'windowless_'
'windmill_'
'winding_'
'windig_'
'winden_'
'wince_'
'willpower_'
'willows_'
'willkürliches_'
'willen_'
'wildwachsenden_'
'wildly_'
'wildlife_'
'wildlands_'
'wiederzuentdecken_'
'wiederzubeleben_'
'wiederverwendet_'
'wiederverwendbare_'
'wiederrum_'
'wiederholten_'
'wiederhole_'
'wiederhohlt_'
'wiederhergestellt_'
'wiedergeboren_'
'wiedererrichtet_'
'wiedererkennbares_'
'wiedererkannte_'
'wiederbegrünen_'
'wiederaufbereitet_'
'widmeten_'
'widme_'
'widest_'
'widespread_'
'widerstandsfähiger_'
'widerstandsfähig_'
'widersprechen_'
'widersetzt_'
'widerlichen_'
'widerlich_'
'widerfährt_'
'widened_'
'whomever_'
'wholly_'
'wholeness_'
'whoever_'
'whoa_'
'whizzing_'
'whittled_'
'whites_'
'whiteboard_'
'whistles_'
'whisper_'
'whiskers_'
'whirlwinds_'
'whirlwind_'
'whipped_'
'whichever_'
'wherein_'
'wheelchairs_'
'whammy_'
'wettet_'
'wetlands_'
'westlich_'
'westafrikanischen_'
'wesentliche_'
'wertlos_'
'wertgesteuerte_'
'wertgeschätzt_'
'werdenden_'
'werdende_'
'werbefrei_'
'wenigsten_'
'wendiger_'
'wendig_'
'weltwirtschaftlichen_'
'weltverändernde_'
'weltrenomierte_'
'weltlichen_'
'welcoming_'
'welcomed_'
'welch_'
'weitverbreitete_'
'weitsichtig_'
'weitgehenden_'
'weitet_'
'weitestgehend_'
'weiterzuziehen_'
'weiterzukommen_'
'weiterzufahren_'
'weiterzuentwickeln_'
'weiterzubilden_'
'weiterwuchsen_'
'weiterverkaufen_'
'weiterspielte_'
'weitermachten_'
'weitermachte_'
'weitergibt_'
'weitergeht_'
'weitergehst_'
'weitergehende_'
'weitergehen_'
'weitergegeben_'
'weiterführende_'
'weiterfliesse_'
'weiterfliegen_'
'weiterentwickelt_'
'weitentfernten_'
'weist_'
'weirdness_'
'weint_'
'weights_'
'weighted_'
'weighs_'
'weigh_'
'weigerten_'
'weich_'
'weiblicher_'
'wegzuwerfen_'
'wegzuregulieren_'
'wegzugehen_'
'wegzieht_'
'wegwerfen_'
'wegweisender_'
'wegschieben_'
'wegscheucht_'
'wegriss_'
'wegnehmen_'
'wegkommen_'
'weggesperrt_'
'weggenommen_'
'weggehst_'
'weggehen_'
'wegbewegten_'
'wegbewege_'
'wegabstrahiert_'
'weekly_'
'weedy_'
'weed_'
'wedges_'
'wechselt_'
'wechselndem_'
'webpage_'
'weaving_'
'weave_'
'weatherman_'
'wealthier_'
'weakest_'
'weakened_'
'wavelengths_'
'waterslide_'
'waterproof_'
'waterfront_'
'waterborne_'
'watches_'
'wasting_'
'wastewater_'
'wastes_'
'wasteful_'
'wasserundurchlässig_'
'wasps_'
'washes_'
'warriors_'
'warrior_'
'warp_'
'warned_'
'warmer_'
'warme_'
'warlord_'
'warfare_'
'warf_'
'warehouse_'
'wandten_'
'wanderte_'
'wandered_'
'wandere_'
'wandelten_'
'wandelte_'
'waltzes_'
'walten_'
'walkable_'
'wakes_'
'waits_'
'waistlines_'
'waist_'
'wahrzunehmen_'
'wahrte_'
'wahrscheinlichste_'
'wahrlich_'
'wahrer_'
'wahnsinnig_'
'wahnhafter_'
'wahllos_'
'wahlberechtigte_'
'wagt_'
'wagons_'
'wager_'
'waft_'
'waeren_'
'waere_'
'wade_'
'wadded_'
'wackelt_'
'wachte_'
'wachsenden_'
'wachrüttelt_'
'wache_'
'waagrecht_'
'völligen_'
'väterlicherseits_'
'vulnerabilities_'
'voyeuristically_'
'vowels_'
'voters_'
'vorübergehend_'
'vorüberfliegen_'
'vorüber_'
'vorzuziehen_'
'vorzuspiegeln_'
'vorzusagen_'
'vorzulegen_'
'vorzogen_'
'vorteilhaften_'
'vorstellte_'
'vorstelle_'
'vorsichtshalber_'
'vorschreibt_'
'vorschlagen_'
'vorrangigem_'
'vorran_'
'vornehmlich_'
'vornehmen_'
'vorläufig_'
'vorlesen_'
'vorlegen_'
'vorlas_'
'vorkam_'
'vorigen_'
'vorherwissend_'
'vorhersehen_'
'vorhersahen_'
'vorhersagt_'
'vorherrschend_'
'vorherige_'
'vorhergesagten_'
'vorhergesagt_'
'vorhatte_'
'vorhandener_'
'vorhandene_'
'vorhabe_'
'vorgibt_'
'vorgetäuschte_'
'vorgetragen_'
'vorgestellet_'
'vorgesetzt_'
'vorgeht_'
'vorgeführt_'
'vorgefertigte_'
'vorgefassten_'
'vorgeben_'
'vorgaukelt_'
'vorgaukeln_'
'vorführen_'
'vorfindet_'
'vorfand_'
'vorfabrizierten_'
'vorerst_'
'vorenthalten_'
'voreingenommen_'
'vordringen_'
'vorderster_'
'vorderste_'
'vorbereiteten_'
'vorbereitete_'
'vorbereiten_'
'vorbeiziehen_'
'vorbeikommen_'
'vorbehalten_'
'voraussetzt_'
'voraussagen_'
'vorausplanen_'
'vorausgesehen_'
'vorausdenkt_'
'voranzubringen_'
'vorantrieben_'
'voranschreiten_'
'vorankommt_'
'vorangetrieben_'
'voranbringt_'
'voracious_'
'vomit_'
'volunteer_'
'voluntary_'
'volumetrischen_'
'volumes_'
'voluble_'
'volts_'
'vollzog_'
'vollzieht_'
'vollkomen_'
'vollgestopft_'
'vollführten_'
'vollführe_'
'volles_'
'vollendete_'
'vollenden_'
'vollen_'
'vollelektronisch_'
'vollbringt_'
'vollbringen_'
'vollautomatisch_'
'vole_'
'volcanic_'
'volatile_'
'volant_'
'voila_'
'voellig_'
'vocational_'
'vocal_'
'vocabulary_'
'vivor_'
'vivify_'
'vitro_'
'vitamin_'
'vitality_'
'visuelles_'
'visualizing_'
'visualizations_'
'visualisiert_'
'visitor_'
'virtuell_'
'virtuality_'
'violating_'
'violated_'
'violate_'
'vineyards_'
'vineyard_'
'vine_'
'villas_'
'villager_'
'vilified_'
'viktorianische_'
'viewpoint_'
'viewership_'
'viewers_'
'viewer_'
'vietnamesischen_'
'vierzig_'
'vierter_'
'viertens_'
'viermal_'
'vierjährige_'
'viereinhalb_'
'vielseitige_'
'vielschichtiger_'
'vielschichtigen_'
'vielfältige_'
'vielfache_'
'vielem_'
'victory_'
'victim_'
'vicariously_'
'vibrations_'
'vibrational_'
'vibrating_'
'vibrant_'
'vial_'
'viaducts_'
'viaduct_'
'viable_'
'vetraut_'
'vetoes_'
'veteran_'
'verängstigt_'
'veränderten_'
'veränderlich_'
'veränderbar_'
'veränden_'
'verzögerte_'
'verzwickten_'
'verzweifelte_'
'verzerrt_'
'verzerren_'
'verzeichneten_'
'verwüstete_'
'verwundbar_'
'verwirrte_'
'verwirrenden_'
'verwirrend_'
'verwirren_'
'verwiesen_'
'verwickelt_'
'verwendbar_'
'verwelkt_'
'verweilen_'
'verweigern_'
'verwandt_'
'verwandelten_'
'verwalten_'
'vervielfältigen_'
'vervielfachen_'
'verurteiltes_'
'verurteilt_'
'verunreinigt_'
'verunglückt_'
'vertuscht_'
'verträgt_'
'vertrieb_'
'vertreten_'
'vertrauten_'
'vertrauen_'
'vertraue_'
'vertikalen_'
'vertically_'
'verteufelte_'
'verteidigte_'
'verteidigt_'
'vertauscht_'
'versündigte_'
'versuchst_'
'verstünden_'
'verstümmeln_'
'verstößt_'
'verstärkte_'
'verständnislos_'
'verständliche_'
'verständigen_'
'verstopftem_'
'verstopft_'
'verstießen_'
'verstehst_'
'verstarb_'
'verspürte_'
'verspüren_'
'versorgt_'
'versnobte_'
'versklavt_'
'versioning_'
'versinken_'
'versierter_'
'versicherten_'
'versicherte_'
'vershickten_'
'verseucht_'
'versetzten_'
'versetzt_'
'versetze_'
'versenken_'
'versenden_'
'verselbstständigt_'
'verse_'
'verschüttet_'
'verschätzt_'
'verschärfen_'
'verschwendete_'
'verschwanden_'
'verschuldet_'
'verschrottet_'
'verschrotten_'
'verschrieben_'
'verschreiben_'
'verschollene_'
'verschoben_'
'verschmutzen_'
'verschmolzen_'
'verschmilzt_'
'verschlucken_'
'verschlossen_'
'verschloss_'
'verschlingen_'
'verschleppt_'
'verschleierten_'
'verschleierte_'
'verschießen_'
'verschiedensten_'
'verschenken_'
'verschaffen_'
'versammelt_'
'versammeln_'
'versa_'
'verrückte_'
'verrotteter_'
'verrichtete_'
'verrichten_'
'verpflichte_'
'verpasste_'
'verpassen_'
'verpackte_'
'verpackt_'
'verordnet_'
'vernünftige_'
'vernetzte_'
'vernetzen_'
'vernebeltem_'
'vernachlässigten_'
'vernachlässigte_'
'vernachlässigt_'
'vermählten_'
'vermutete_'
'vermittelt_'
'vermischten_'
'vermindertem_'
'vermieten_'
'vermieden_'
'vermeintlichen_'
'vermeidet_'
'vermeidbaren_'
'vermarktet_'
'vermarkten_'
'verlorengehen_'
'verlorene_'
'verlockende_'
'verlinke_'
'verliere_'
'verliefe_'
'verliebte_'
'verliebt_'
'verletztes_'
'verletztenden_'
'verletzte_'
'verletzlichsten_'
'verlangte_'
'verlagern_'
'verkörpere_'
'verkrampfst_'
'verkomplizieren_'
'verkochten_'
'verknüpft_'
'verknüpfen_'
'verkleidet_'
'verklagen_'
'verkehrte_'
'verkauften_'
'verkabelt_'
'verjagt_'
'veritables_'
'verifizieren_'
'verhüllen_'
'verhängen_'
'verhunzen_'
'verhielten_'
'verherrlichte_'
'verheirateter_'
'verheilt_'
'verheerenden_'
'verhandelt_'
'verhaftet_'
'vergrößertes_'
'vergrößerten_'
'vergrößern_'
'vergrösserbarer_'
'vergriffene_'
'vergriffen_'
'vergnügten_'
'vergnügen_'
'vergleichbares_'
'verging_'
'vergiftete_'
'vergiftet_'
'vergewaltigten_'
'vergewaltigen_'
'vergewaltige_'
'vergeht_'
'verge_'
'vergaßen_'
'verfüttert_'
'verfügten_'
'verfügbaren_'
'verfügbare_'
'verfälscht_'
'verflüssigt_'
'verflucht_'
'verflochten_'
'verflixt_'
'verfeinern_'
'verfaulen_'
'verfassen_'
'vererbbar_'
'verengen_'
'vereiteln_'
'vereinigende_'
'vereinfachtes_'
'vereinfachender_'
'vereinfachenden_'
'vereinfachend_'
'vereinbar_'
'verdünnter_'
'verdunkelt_'
'verdrängt_'
'verdreifacht_'
'verdrahtet_'
'verdorbener_'
'verdinglichen_'
'verdienten_'
'verderben_'
'verdenken_'
'verdeckte_'
'verdauen_'
'verdanken_'
'verbuchen_'
'verbs_'
'verbringt_'
'verbrennende_'
'verbrennen_'
'verbreitetes_'
'verbreiteste_'
'verbrauchten_'
'verbrauchte_'
'verbrannte_'
'verboten_'
'verborgenen_'
'verborgen_'
'verblüfft_'
'verblasste_'
'verbittert_'
'verbindlichen_'
'verbindliche_'
'verbieten_'
'verbesserten_'
'verbesserte_'
'verbergen_'
'verbanden_'
'verarbeitet_'
'verarbeitenden_'
'verantwortungsvollen_'
'verantwortungsbewußt_'
'verantworten_'
'veranstalteten_'
'veranstalten_'
'veranschlagen_'
'veranschaulichen_'
'veranlasste_'
'veranlasst_'
'veralteten_'
'verabschiedeten_'
'verabschiedet_'
'verabscheut_'
'verabreicht_'
'ventilating_'
'ventilated_'
'vengeance_'
'veneer_'
'vendors_'
'vending_'
'velocities_'
'veld_'
'veil_'
'veg_'
'veering_'
'vectors_'
'vault_'
'vasts_'
'vastness_'
'vaster_'
'vase_'
'vascular_'
'variously_'
'variieren_'
'varies_'
'variant_'
'variance_'
'variability_'
'vantage_'
'vanished_'
'vandalisiert_'
'valve_'
'valued_'
'validation_'
'valid_'
'valedictorian_'
'vague_'
'vaginas_'
'vage_'
'vadai_'
'vacuuming_'
'vaccination_'
'vaccinate_'
'uups_'
'utopischen_'
'utopisch_'
'utopian_'
'utilized_'
'utilization_'
'utilities_'
'utilitarianism_'
'usage_'
'usable_'
'ursprünglichem_'
'urologist_'
'urkomisch_'
'urbanized_'
'urbanerem_'
'urbanem_'
'urbane_'
'uranium_'
'uralten_'
'uralte_'
'ur_'
'upwelling_'
'upward_'
'uptake_'
'upstream_'
'upstate_'
'uproar_'
'upright_'
'upmarket_'
'uploader_'
'updates_'
'unübersehbare_'
'unzuverlässige_'
'unzuverlässig_'
'unzusammenhängenden_'
'unzusammenhängend_'
'unzufrieden_'
'unwohl_'
'unwittingly_'
'unwiderstehlich_'
'unwichtig_'
'unwahr_'
'unvorhersehbares_'
'unvorhersehbar_'
'unvorbereitet_'
'unvollständige_'
'unverändert_'
'unverständlich_'
'unverschämte_'
'unvernetzten_'
'unvermeidbar_'
'unverlässlich_'
'unverheiratete_'
'unveil_'
'unumstrittene_'
'unumgänglich_'
'untätig_'
'untroubled_'
'untrainiertes_'
'unthinking_'
'untether_'
'unterziehen_'
'unterzeichnet_'
'untersuchten_'
'untersuchte_'
'unterstützten_'
'unterstützte_'
'unterstellen_'
'unterschätzen_'
'unterschrieben_'
'unterschrieb_'
'unterschreibt_'
'unterschreiben_'
'unterschiedlichem_'
'unterrichtet_'
'unternommen_'
'unternehmerisches_'
'unternehmensfreudig_'
'unternahmen_'
'untermauern_'
'unterm_'
'unterlegen_'
'unterirdischen_'
'unterirdische_'
'unterhaltsamen_'
'unterhalb_'
'untergraben_'
'untergeordnet_'
'untergeht_'
'untergehakt_'
'untereinander_'
'untere_'
'unterdrücktes_'
'unterbrochen_'
'untendran_'
'unsuspecting_'
'unsuccessful_'
'unsubstantiated_'
'unsterblich_'
'unsozial_'
'unsolvable_'
'unsolicited_'
'unsicheres_'
'unsicherer_'
'unshakeable_'
'unsentimentale_'
'unscientific_'
'unschönsten_'
'unschön_'
'unschuldige_'
'unschuldig_'
'unschoolers_'
'unsauf_'
'unruly_'
'unregistered_'
'unregelmäßigen_'
'unregelmäßige_'
'unrecht_'
'unrealistisch_'
'unrealistic_'
'unraveled_'
'unpronounceable_'
'unprompted_'
'unpleasant_'
'unpicking_'
'unpatriotic_'
'unpassenden_'
'unpassend_'
'unpacks_'
'unorthodoxen_'
'unordentlichen_'
'unnütz_'
'unnecessarily_'
'unnamed_'
'unmöglichen_'
'unmoving_'
'unmoralisches_'
'unmoeglich_'
'unmittelbare_'
'unmistakable_'
'unmenschliche_'
'unmediated_'
'unlösbares_'
'unlucky_'
'unlock_'
'unloaded_'
'unlicensed_'
'unleashes_'
'unlearn_'
'unkoordiniert_'
'unkontrolliert_'
'unkompliziert_'
'unknowable_'
'unkempt_'
'universelles_'
'universellen_'
'universals_'
'universallen_'
'universalize_'
'universalen_'
'uniquely_'
'union_'
'unintuitive_'
'uninterrupted_'
'uninspiring_'
'unimportant_'
'unify_'
'unified_'
'uni_'
'unhappiness_'
'ungünstigeren_'
'ungünstige_'
'ungulate_'
'unglücklichste_'
'unglücklicherweise_'
'unglücklicher_'
'unglückliche_'
'ungleiche_'
'unglaublichsten_'
'unglaublicher_'
'ungewöhnlicher_'
'ungewollten_'
'ungetrübte_'
'ungesehener_'
'ungeschriebenes_'
'ungeschickt_'
'ungeneauesten_'
'ungenannten_'
'ungemilderte_'
'ungelegen_'
'ungeheures_'
'ungeheuren_'
'ungeheure_'
'ungeheuerliche_'
'ungefiltert_'
'ungedingt_'
'ungebremstem_'
'ungeachtet_'
'ungarischen_'
'unfreundliche_'
'unforeseen_'
'unfolding_'
'unfolded_'
'unfinished_'
'unfiltered_'
'unfettered_'
'unfairly_'
'unfairer_'
'unfairen_'
'unerwünschte_'
'unersetzlich_'
'unerschütterlichem_'
'unerschöpflicher_'
'unerschrockenen_'
'unerringly_'
'unerledigte_'
'unerkennbares_'
'unerhörte_'
'unerfüllten_'
'unerforscht_'
'unequal_'
'unentgeltlich_'
'unendliches_'
'unendliche_'
'unelectable_'
'uneingeschränkt_'
'uneindeutig_'
'unebenem_'
'uneasy_'
'undresses_'
'undoing_'
'undividing_'
'undeutliche_'
'underworld_'
'underwent_'
'underwear_'
'underused_'
'understated_'
'understandings_'
'undermining_'
'underly_'
'underlies_'
'underlie_'
'undergrads_'
'undergrad_'
'underestimated_'
'underestimate_'
'underclass_'
'uncurl_'
'unctuous_'
'uncreative_'
'uncovered_'
'uncontacted_'
'unconstrained_'
'unconditional_'
'uncompetitive_'
'uncommon_'
'unchanging_'
'uncannily_'
'unbändigen_'
'unburden_'
'unbroken_'
'unblinking_'
'unbiased_'
'unbezahlbar_'
'unbewohnten_'
'unbeweglich_'
'unbestrittene_'
'unberührte_'
'unberechenbar_'
'unbenutzte_'
'unbemerkt_'
'unbemerkbar_'
'unbelievably_'
'unbeliebter_'
'unbekannter_'
'unbekannten_'
'unbeirrten_'
'unbeholfenen_'
'unbehandelt_'
'unbehaglich_'
'unbehaarten_'
'unbegrenzt_'
'unbedeutende_'
'unbeabsichtigtes_'
'unbeabsichtigte_'
'unbarmherzig_'
'unavailable_'
'unauthorized_'
'unauthorisiert_'
'unausweichlichen_'
'unauffällig_'
'unaufdringliche_'
'unarmed_'
'unangenehmes_'
'unangebrachte_'
'unaccompanied_'
'unabridged_'
'unabhängiges_'
'unabhängiger_'
'unabhängigen_'
'umzusteigen_'
'umzukehren_'
'umzingelten_'
'umziehen_'
'umwickelte_'
'umwerfenden_'
'umwerfen_'
'umweltgeprägtes_'
'umweltfreundlichste_'
'umwandelt_'
'umständlich_'
'umstellte_'
'umstellen_'
'umsteigen_'
'umsonst_'
'umsiedeln_'
'umsetzbar_'
'umsehen_'
'umschmeißen_'
'umschauen_'
'umringt_'
'umliegenden_'
'umleitet_'
'umkreisten_'
'umkreisen_'
'umkehrt_'
'umkehren_'
'umhin_'
'umherzulaufen_'
'umherzugehen_'
'umgibt_'
'umgezogen_'
'umgestalten_'
'umgesetzt_'
[...]
