'<pad>'
'<START>'
'<EOS>'
', _'
'._'
'the_'
'de_'
'of_'
''_'
'and_'
'la_'
'to_'
'et_'
'_'
'a_'
'l_'
'des_'
'’_'
'les_'
'in_'
'à_'
's_'
'd_'
'le_'
'-_'
'en_'
'du_'
'is_'
'that_'
'for_'
'que_'
'on_'
'un_'
'une_'
' (_'
'est_'
'pour_'
'dans_'
'The_'
'qui_'
'with_'
'be_'
'sur_'
'au_'
') _'
'as_'
'par_'
'by_'
'are_'
'/_'
'e_'
'. _'
'it_'
'or_'
'this_'
'plus_'
'not_'
'ce_'
'have_'
'pas_'
'aux_'
'il_'
'ne_'
'qu_'
'an_'
'from_'
'n_'
'I_'
'will_'
'at_'
'which_'
'sont_'
'has_'
'ou_'
'Le_'
'ont_'
'1_'
' _'
'y_'
'se_'
'was_'
'es_'
'nous_'
'its_'
'avec_'
'we_'
'2_'
'Les_'
'La_'
'their_'
'ing_'
': _'
'être_'
'all_'
'; _'
' - _'
' – _'
'pays_'
'été_'
'Commission_'
'you_'
'r_'
'L_'
'A_'
'can_'
't_'
'also_'
'In_'
'more_'
'ed_'
'would_'
'been_'
'vous_'
'but_'
'cette_'
'3_'
'ces_'
',_'
'son_'
'Il_'
'Europe_'
'other_'
'leur_'
')._'
'European_'
'nt_'
'should_'
'Canada_'
'5_'
'), _'
'er_'
'4_'
'comme_'
'autres_'
'(_'
'fait_'
'one_'
'non_'
'C_'
'they_'
'information_'
'It_'
'ses_'
'were_'
'Union_'
'countries_'
'c_'
'mais_'
'international_'
'This_'
'• _'
'services_'
'?_'
'é_'
'our_'
'En_'
'elle_'
'new_'
'entre_'
'Nations_'
'même_'
'' _'
'tout_'
'must_'
'peut_'
'only_'
'than_'
'si_'
'States_'
'who_'
'such_'
';_'
'sa_'
'these_'
'faire_'
' "_'
'no_'
'time_'
'6_'
'there_'
'S_'
'je_'
'Mr_'
'your_'
'We_'
'out_'
'if_'
'aussi_'
'United_'
'développement_'
'any_'
':_'
'do_'
'7_'
'about_'
'leurs_'
' : _'
'had_'
'États_'
'bien_'
'politique_'
'Council_'
'ils_'
'so_'
'M_'
'important_'
'into_'
'également_'
'question_'
'may_'
'up_'
'ment_'
'tous_'
'public_'
'work_'
' “_'
'rapport_'
'report_'
'President_'
'people_'
'part_'
'Conseil_'
'0_'
'Nous_'
'national_'
'his_'
'us_'
'between_'
'droits_'
'deux_'
'és_'
'some_'
'well_'
'use_'
'point_'
'when_'
'm_'
'need_'
'ainsi_'
'ons_'
'under_'
'10_'
'% _'
'very_'
'support_'
'situation_'
'like_'
'world_'
'sans_'
'o_'
'8_'
'ant_'
'européenne_'
'development_'
'place_'
'membres_'
'those_'
'made_'
'Je_'
'9_'
'programme_'
'economic_'
'rights_'
'them_'
'year_'
'contre_'
'doit_'
'most_'
'" _'
'D_'
'Committee_'
'years_'
'social_'
'two_'
'très_'
'policy_'
'many_'
'ée_'
'sécurité_'
'what_'
'protection_'
'dont_'
'first_'
'travail_'
'i_'
'2000_'
'me_'
'ly_'
'country_'
'over_'
'possible_'
'But_'
'service_'
'2002_'
'Dans_'
'soit_'
'political_'
'long_'
'2003_'
'2001_'
'cas_'
'he_'
'où_'
'including_'
'now_'
'était_'
'system_'
'take_'
'E_'
'human_'
'General_'
'ation_'
'make_'
'ent_'
'votre_'
'sous_'
'notre_'
'action_'
'against_'
'monde_'
'US_'
'could_'
'through_'
'session_'
'government_'
'al_'
'droit_'
'ng_'
'z_'
'questions_'
'where_'
'Convention_'
'2004_'
'autre_'
'because_'
'being_'
'application_'
'financial_'
'article_'
'programmes_'
'économique_'
'Président_'
'ées_'
'Member_'
'000_'
')_'
'toutes_'
'way_'
'santé_'
'peuvent_'
' _'
'personnes_'
're_'
'15_'
'nos_'
'EU_'
'my_'
'On_'
'efforts_'
'avoir_'
'Pour_'
'partie_'
'able_'
'moins_'
'encore_'
'politiques_'
'ans_'
'parties_'
'2005_'
'right_'
'mesures_'
'As_'
'après_'
'China_'
'système_'
'institutions_'
'If_'
'conditions_'
'gouvernement_'
'cadre_'
'cours_'
'health_'
'compte_'
'within_'
'Parliament_'
'20_'
'both_'
'even_'
'doivent_'
'nombre_'
'global_'
'same_'
'population_'
'order_'
'sera_'
'plan_'
'temps_'
'Ce_'
'Unis_'
'ion_'
'Mais_'
'toute_'
'after_'
'30_'
'” _'
'afin_'
'For_'
'matière_'
'avons_'
'used_'
'Si_'
'12_'
'g_'
'elles_'
'cet_'
'ait_'
'number_'
'jour_'
'how_'
'P_'
'2006_'
'enfants_'
'process_'
'hotel_'
' $_'
'Monsieur_'
'production_'
'11_'
'market_'
'fois_'
'niveau_'
'b_'
'mise_'
'x_'
'much_'
'marché_'
'International_'
'années_'
'projet_'
'homme_'
'issues_'
'budget_'
'Comité_'
' , _'
'respect_'
'avant_'
'change_'
'vue_'
'h_'
'women_'
'site_'
'lui_'
'provide_'
'position_'
'donc_'
'security_'
'There_'
'Hotel_'
'B_'
'without_'
'just_'
'cela_'
'Unies_'
'De_'
'2007_'
'concernant_'
'good_'
'Parlement_'
'vie_'
'ressources_'
'internationale_'
'hôtel_'
'before_'
'te_'
'général_'
'level_'
'Un_'
'own_'
'exemple_'
'activités_'
'notamment_'
'future_'
'does_'
'high_'
'- _'
'!_'
' « _'
'resolution_'
'j_'
'hui_'
'during_'
'ci_'
' ._'
'À_'
'recherche_'
'produits_'
'measures_'
'État_'
'per_'
'manière_'
'each_'
'while_'
'see_'
'résolution_'
'continue_'
'large_'
'grande_'
'base_'
'available_'
'age_'
'based_'
'R_'
'lieu_'
'shall_'
'issue_'
'children_'
'car_'
'law_'
'ai_'
'demande_'
'avait_'
'importance_'
'femmes_'
'européen_'
'three_'
'processus_'
'end_'
'set_'
'gestion_'
'ers_'
'activities_'
'members_'
'areas_'
'k_'
'certains_'
'Chine_'
'still_'
'peu_'
'access_'
'No_'
've_'
'tant_'
'fin_'
'depuis_'
'Une_'
'Cette_'
'secteur_'
'ra_'
'1999_'
'area_'
'relations_'
'25_'
'rs_'
'données_'
'J_'
'case_'
'fact_'
'view_'
'p_'
'ensure_'
'croissance_'
'certain_'
'date_'
'160_'
'taux_'
'Canadian_'
'ts_'
'term_'
'f_'
'ceux_'
'groupe_'
'resources_'
'last_'
'nouveau_'
'générale_'
'13_'
'lors_'
'coopération_'
'community_'
'année_'
'State_'
'00_'
'pourrait_'
'déjà_'
'am_'
'14_'
'millions_'
'faut_'
'particular_'
'example_'
'To_'
'then_'
'total_'
'less_'
'further_'
'toujours_'
'growth_'
'aide_'
'vote_'
'trade_'
'ensemble_'
'decision_'
'’ _'
'aujourd_'
'dire_'
'data_'
'accord_'
'today_'
'since_'
'means_'
'ions_'
'chaque_'
'24_'
'. _'
'tion_'
'prendre_'
'meeting_'
'seulement_'
'mesure_'
'17_'
'selon_'
'said_'
'prix_'
'face_'
'assistance_'
'attention_'
'type_'
'problèmes_'
'problème_'
'period_'
'Government_'
'2008_'
'role_'
'America_'
'power_'
'main_'
' ?_'
'terme_'
'provided_'
'policies_'
'implementation_'
'devrait_'
'T_'
'research_'
'alors_'
'Group_'
'France_'
'Assemblée_'
'www_'
'vers_'
'points_'
'million_'
'help_'
'rôle_'
'ies_'
'organisations_'
'entreprises_'
'accès_'
'18_'
'économie_'
'dollars_'
'too_'
'paix_'
'informations_'
'ez_'
'document_'
'administration_'
'Ces_'
'therefore_'
'free_'
'Office_'
'local_'
'course_'
'New_'
'needs_'
'façon_'
'participation_'
'nature_'
'utilisation_'
'particulier_'
'force_'
'moment_'
'effet_'
'cooperation_'
'UE_'
'given_'
'current_'
'cannot_'
'life_'
'following_'
'centre_'
'taken_'
'major_'
'That_'
'Internet_'
'trois_'
'management_'
'state_'
'ni_'
'mettre_'
'day_'
'savoir_'
'objectifs_'
'interest_'
'result_'
'mondiale_'
'laquelle_'
'affaires_'
'sector_'
'nouvelle_'
'different_'
'région_'
'They_'
'50_'
'second_'
'page_'
' % _'
'grand_'
'domaine_'
'raison_'
'effective_'
'Secretary_'
'Assembly_'
'plusieurs_'
'find_'
'premier_'
'business_'
'21_'
'pouvoir_'
'great_'
'euro_'
'environnement_'
'forces_'
'education_'
'concerne_'
' » _'
'résultats_'
'room_'
'related_'
'legal_'
'full_'
'ble_'
'World_'
'directive_'
'transport_'
'période_'
'com_'
'citoyens_'
'basis_'
'F_'
'Au_'
'whether_'
'necessary_'
'already_'
'décision_'
'common_'
'Programme_'
'serait_'
'regional_'
'personnel_'
'cause_'
'ns_'
'nouvelles_'
'documents_'
'account_'
'Iran_'
'economy_'
'dit_'
'devons_'
'qualité_'
'control_'
'working_'
'société_'
'première_'
'next_'
'Commissioner_'
'mois_'
'back_'
'However_'
'violence_'
'peace_'
'ement_'
'capital_'
'Par_'
'voir_'
'risk_'
'regard_'
'président_'
'developing_'
'16_'
'every_'
'Vous_'
'Des_'
'At_'
' | _'
'étaient_'
'know_'
'few_'
'better_'
'become_'
'&_'
'ur_'
'proposal_'
'beaucoup_'
'Health_'
'military_'
'N_'
'justice_'
'best_'
'among_'
'sein_'
'want_'
'These_'
'u_'
'problem_'
'impact_'
'ge_'
'eux_'
'another_'
'ordre_'
'actions_'
'note_'
'jusqu_'
'her_'
'group_'
'ici_'
'G_'
'Article_'
'products_'
'loi_'
'initiative_'
' _'
' :_'
'ques_'
'nuclear_'
'increase_'
'œuvre_'
'small_'
'rate_'
'contrôle_'
'assurer_'
'Development_'
'soient_'
'required_'
'region_'
'quality_'
'problems_'
'include_'
'far_'
'clear_'
'., _'
'say_'
'however_'
'debate_'
'1998_'
'terms_'
'suite_'
'particularly_'
'believe_'
'visant_'
'special_'
'besoin_'
'..._'
'section_'
'did_'
'agreement_'
'2009_'
'war_'
'mon_'
'ie_'
'adopted_'
'O_'
'22_'
'égard_'
'energy_'
'crisis_'
'solution_'
'progress_'
'cent_'
'Organisation_'
'culture_'
'quelques_'
'private_'
'nom_'
'down_'
'recent_'
'proposition_'
'guerre_'
'You_'
'groups_'
'compris_'
'What_'
'rules_'
'present_'
'personne_'
'go_'
'general_'
'Service_'
'Elle_'
'why_'
'water_'
'specific_'
'nouveaux_'
'might_'
'chambres_'
'DE_'
'All_'
'100_'
' [_'
'initiatives_'
'Africa_'
'zone_'
'staff_'
'soutien_'
'nécessaire_'
'form_'
'sommes_'
'paragraphe_'
'ments_'
'intérêt_'
'ville_'
'past_'
'nombreux_'
'give_'
'emploi_'
'Iraq_'
'Centre_'
'présent_'
'pendant_'
'making_'
'état_'
'held_'
'groupes_'
'formation_'
'draft_'
'celui_'
'And_'
'training_'
'line_'
'décembre_'
'come_'
'capacity_'
'seront_'
'foreign_'
'project_'
'eu_'
'real_'
'mis_'
'cases_'
'value_'
'ux_'
'here_'
'costs_'
'version_'
'th_'
'ry_'
'projets_'
'key_'
'ca_'
'get_'
'parce_'
'food_'
'around_'
'air_'
'With_'
'Minister_'
'Act_'
' : _'
'program_'
'outre_'
'him_'
'fonds_'
'communication_'
'American_'
'évaluation_'
'sujet_'
'création_'
'technologies_'
'souvent_'
'aient_'
'Etats_'
'tes_'
'relevant_'
'ministre_'
'National_'
'19_'
'tax_'
'put_'
'opinion_'
'hope_'
'crise_'
'celle_'
'approach_'
'dialogue_'
'citizens_'
'Republic_'
'using_'
'subject_'
'direction_'
'address_'
'23_'
'December_'
'31_'
'proposed_'
'ic_'
'French_'
'vos_'
'publique_'
'cost_'
'developed_'
'When_'
'Rights_'
'He_'
'valeur_'
'third_'
'systems_'
'risque_'
'promotion_'
'organizations_'
'contribution_'
'called_'
'results_'
'police_'
'party_'
'obligations_'
'avis_'
'authorities_'
'40_'
'étant_'
'rooms_'
'ous_'
'bon_'
'systèmes_'
'review_'
'renseignements_'
'rates_'
'needed_'
'due_'
'dispositions_'
'Afrique_'
' '_'
'économiques_'
'voudrais_'
'sociale_'
'mieux_'
'marchés_'
'experts_'
'commission_'
'agenda_'
'Ontario_'
'Community_'
'27_'
'titre_'
'suis_'
'reste_'
'open_'
'Amérique_'
'éducation_'
'several_'
'requirements_'
'mission_'
'family_'
'examen_'
'established_'
'Security_'
'Bureau_'
'projects_'
'others_'
'matter_'
'least_'
'environment_'
'city_'
'care_'
'agit_'
'Secrétaire_'
'Human_'
' '
'reports_'
'provides_'
'often_'
'greater_'
'six_'
'member_'
'discrimination_'
'June_'
' & _'
'trop_'
'objectif_'
'devraient_'
'Germany_'
'"_'
'moyen_'
'forme_'
'chez_'
'appropriate_'
'again_'
'60_'
'présente_'
'levels_'
'building_'
'above_'
'minutes_'
'lorsque_'
'Ils_'
'taking_'
'paragraph_'
'off_'
'lutte_'
'coordination_'
'communauté_'
'ailleurs_'
'Japan_'
'établissement_'
'various_'
'pris_'
'individual_'
'environmental_'
'débat_'
'dernier_'
'changes_'
'Mme_'
'28_'
'short_'
'rather_'
'fully_'
'field_'
'done_'
'upon_'
'society_'
'organisation_'
'nécessaires_'
'font_'
'commerce_'
'améliorer_'
'Cela_'
'stratégie_'
'leaders_'
'especially_'
'central_'
'règlement_'
'income_'
'existe_'
'avaient_'
'II_'
'1997_'
'think_'
'land_'
'investment_'
'intérêts_'
'ayant_'
'] _'
'\u_'
'Conference_'
'29_'
'énergie_'
'unique_'
'plupart_'
'moyens_'
'itself_'
'instruments_'
'create_'
'aucun_'
'September_'
'Et_'
'Board_'
'together_'
'relatives_'
'rapporteur_'
'progrès_'
'markets_'
'led_'
'framework_'
'dépenses_'
'debt_'
'aspects_'
'U_'
'Services_'
'là_'
'list_'
'industry_'
'five_'
'concerned_'
'26_'
'travaux_'
'technology_'
'states_'
'st_'
'donné_'
'besoins_'
'Groupe_'
' « _'
'sites_'
'responsibility_'
'organismes_'
'occasion_'
'man_'
'experience_'
'addition_'
'Bush_'
' ; _'
'va_'
'nationale_'
'legislation_'
'ient_'
'clients_'
'Web_'
'renforcer_'
'performance_'
'maintenant_'
'ma_'
'internationales_'
'fiscal_'
'avez_'
'aider_'
'old_'
'Y_'
'yet_'
'urs_'
'person_'
'permet_'
'low_'
'eur_'
'simple_'
'importante_'
'having_'
'financement_'
'durable_'
'cultural_'
'views_'
'utiliser_'
'offre_'
'ligne_'
'eau_'
'démocratie_'
'davantage_'
'République_'
'tel_'
'technical_'
'pourraient_'
'pourquoi_'
'once_'
'obtenir_'
'included_'
'governments_'
'fonction_'
'exercice_'
'décisions_'
'aucune_'
'Israel_'
'plutôt_'
'offers_'
'objet_'
'nombreuses_'
'found_'
'civil_'
'capacité_'
'bonne_'
'East_'
'relative_'
'provisions_'
'avenir_'
'um_'
'opportunity_'
'months_'
'http_'
') (_'
' — _'
'tions_'
'ire_'
'certaines_'
'Russia_'
'March_'
'techniques_'
'strategy_'
'price_'
'jours_'
'increased_'
'final_'
'etc_'
'://_'
'ère_'
'safety_'
'risques_'
'positive_'
'permettre_'
'deuxième_'
' > _'
'structure_'
'status_'
'plans_'
'natural_'
'direct_'
'amount_'
'additional_'
'1996_'
'1990_'
'&#_'
'jeunes_'
'immigration_'
'early_'
'standards_'
'ls_'
'decisions_'
'bar_'
'May_'
'.”_'
'types_'
'régime_'
'poverty_'
'intérieur_'
'considered_'
'ations_'
'House_'
'Court_'
' / _'
'�_'
'towards_'
'test_'
'solutions_'
'propose_'
'existing_'
'behalf_'
'October_'
'Ã_'
'termes_'
'strong_'
'significant_'
'responsible_'
'really_'
'dernière_'
'always_'
'accordance_'
'V_'
'ves_'
'participants_'
'office_'
'différents_'
'conflict_'
'child_'
'aid_'
'ure_'
'sens_'
'règles_'
'quand_'
'procédure_'
'pouvez_'
'partir_'
'nce_'
'away_'
'South_'
' «_'
'ways_'
'source_'
'responsabilité_'
'reform_'
'personal_'
'money_'
'interests_'
'vertu_'
'tels_'
'received_'
'normes_'
'montant_'
'mondial_'
'look_'
'liste_'
'approche_'
'anti_'
'adoption_'
'across_'
'Comme_'
'Bank_'
'sources_'
'share_'
'financière_'
'discussion_'
'dernières_'
'commercial_'
'billion_'
'1995_'
'"._'
'serious_'
'programs_'
'mes_'
'home_'
'gouvernements_'
'forward_'
'efficace_'
'donner_'
'companies_'
'celles_'
'benefits_'
'achieve_'
'Russie_'
'proposals_'
'pay_'
'nationales_'
'effort_'
'déclaration_'
'collaboration_'
'amendments_'
'allow_'
'So_'
'One_'
'ONU_'
'workers_'
'trouve_'
'terrorisme_'
'ted_'
'longer_'
'juin_'
'engagement_'
'domaines_'
'develop_'
'days_'
'conformément_'
'commitment_'
'First_'
' !_'
'until_'
'semble_'
'rule_'
'rapports_'
'little_'
'likely_'
'involved_'
'famille_'
'el_'
'court_'
'close_'
'Treaty_'
'An_'
'whole_'
'something_'
'pauvreté_'
'nbsp_'
'mer_'
'fs_'
'four_'
'domestic_'
'autorités_'
'prise_'
'principles_'
'persons_'
'offer_'
'liberté_'
'lead_'
'knowledge_'
'employment_'
'choix_'
'changement_'
'Obama_'
'Department_'
'Constitution_'
'2010_'
'wish_'
'régions_'
'request_'
'propre_'
'ires_'
'dirigeants_'
'difficult_'
'table_'
'single_'
'restaurant_'
'rapidement_'
'particulièrement_'
'nationaux_'
'juillet_'
'hommes_'
'hand_'
'goods_'
'entreprise_'
'either_'
'Allemagne_'
'55_'
'propositions_'
'principe_'
'européens_'
'contributions_'
'call_'
'aurait_'
'annual_'
'former_'
'banks_'
'[_'
'Special_'
'Nord_'
'ty_'
'traitement_'
'potential_'
'permis_'
'improve_'
'funding_'
'discussions_'
'construction_'
'comment_'
'balance_'
'éléments_'
'terrorism_'
'play_'
'name_'
'met_'
'concerns_'
'chose_'
'autant_'
'actuelle_'
'Tribunal_'
'November_'
'Information_'
' - _'
'though_'
'sustainable_'
'réduire_'
'pense_'
'men_'
'industrie_'
'ier_'
'Public_'
'thus_'
'quatre_'
'providing_'
'property_'
'practice_'
'moi_'
'location_'
'influence_'
'exchange_'
'effect_'
'distribution_'
'bring_'
'agreements_'
'UN_'
'Our_'
'India_'
'By_'
'times_'
'start_'
'septembre_'
'quant_'
'près_'
'nécessité_'
'novembre_'
'mai_'
'faveur_'
'eurs_'
'democracy_'
'charge_'
'banques_'
'armes_'
'July_'
'étude_'
'rendre_'
'remain_'
'recommendations_'
'possibilité_'
'octobre_'
'heures_'
'commun_'
'cinq_'
'W_'
'Economic_'
'April_'
'treatment_'
'texte_'
'suivi_'
'stay_'
'response_'
'poor_'
'os_'
'opposition_'
'oil_'
'mêmes_'
'modern_'
'located_'
'increasing_'
'funds_'
'environ_'
'auprès_'
'Social_'
'Parties_'
'Loi_'
'she_'
'self_'
'reduce_'
'co_'
'centrale_'
'Division_'
'British_'
'Afghanistan_'
'_'
'zones_'
'ors_'
'opérations_'
'nes_'
'makes_'
'législation_'
'lorsqu_'
'expected_'
'era_'
'agencies_'
'voie_'
'standard_'
'ront_'
'parmi_'
'instrument_'
'infrastructure_'
'going_'
'fundamental_'
'disposition_'
'consultations_'
'Party_'
'Moreover_'
'young_'
'tenu_'
'study_'
'réunion_'
'regarding_'
'promouvoir_'
'prises_'
'ness_'
'grâce_'
'concerning_'
'climate_'
'changements_'
'below_'
'Chinese_'
'études_'
'_'
'transition_'
'similar_'
'pratiques_'
'keep_'
'jamais_'
'intention_'
'inflation_'
'image_'
'deal_'
'articles_'
'Research_'
'Fund_'
'/ _'
'sorte_'
'remains_'
'pratique_'
'nations_'
'living_'
'hours_'
'grandes_'
'fournir_'
'focus_'
'efficacité_'
'début_'
'consider_'
'augmentation_'
'applications_'
'agriculture_'
'activité_'
'active_'
'Indeed_'
'H_'
'Asia_'
'v_'
'success_'
'side_'
'rural_'
'origine_'
'limited_'
'lequel_'
'language_'
'janvier_'
'intégration_'
'devant_'
'constitue_'
'concern_'
'ate_'
'80_'
'.  _'
'themselves_'
'réduction_'
'objectives_'
'membre_'
'known_'
'crime_'
'consultation_'
'agreed_'
'actuellement_'
'Organization_'
'90_'
'vigueur_'
'technique_'
'regulation_'
'procedures_'
'post_'
'mars_'
'item_'
'half_'
'financières_'
'demand_'
'art_'
'ants_'
'Some_'
'African_'
'prices_'
'official_'
'minimum_'
'milliards_'
'history_'
'hard_'
'exploitation_'
'dette_'
'democratic_'
'company_'
'challenges_'
'X_'
'Sud_'
'January_'
'After_'
'sure_'
'submitted_'
'return_'
'produit_'
'privé_'
'passé_'
'never_'
'importants_'
'consensus_'
'clearly_'
'centres_'
'Affairs_'
'té_'
'répondre_'
'range_'
'promote_'
'negotiations_'
'meet_'
'ity_'
'intervention_'
'financiers_'
'enough_'
'communities_'
'ar_'
'absence_'
'words_'
'weapons_'
'seule_'
'niveaux_'
'innovation_'
'frais_'
'fins_'
'economies_'
'Plan_'
'Conférence_'
'vision_'
'simply_'
'representatives_'
'principal_'
'light_'
'lack_'
'growing_'
'créer_'
'56_'
'45_'
'", _'
'valeurs_'
'telles_'
'surtout_'
'soins_'
'rien_'
'représentants_'
'relation_'
'populations_'
'parents_'
'fort_'
'double_'
'coûts_'
'context_'
'assessment_'
'ance_'
'almost_'
'West_'
'Asie_'
'trouver_'
'traité_'
'telle_'
'step_'
'sociétés_'
'res_'
'regions_'
'principes_'
'petit_'
'permanent_'
'left_'
'facilities_'
'enfant_'
'Report_'
'text_'
'seul_'
'seen_'
'require_'
'operations_'
'near_'
'meilleure_'
'mandat_'
'ité_'
'crimes_'
'ch_'
'bank_'
'aura_'
'alternative_'
'Ukraine_'
'Mrs_'
'H'
'établir_'
'représentant_'
'prevent_'
'internal_'
'evidence_'
'essential_'
'défense_'
'apply_'
'Pakistan_'
'Members_'
'Fonds_'
'Director_'
'Bien_'
'); _'
'train_'
'toutefois_'
'suivant_'
'parts_'
'ings_'
'démocratique_'
'directly_'
'commune_'
'civile_'
'agree_'
'adopté_'
'accords_'
'Turkey_'
'Program_'
'Israël_'
'Agency_'
'01_'
'©_'
'travailleurs_'
'top_'
'sense_'
'réponse_'
'reason_'
'exigences_'
'excellent_'
'contexte_'
'chambre_'
'century_'
'along_'
'Paris_'
'Association_'
' ..._'
'web_'
'strategic_'
'recently_'
'quelque_'
'purpose_'
'procedure_'
'outside_'
'ia_'
'histoire_'
'garantir_'
'faible_'
'ever_'
'election_'
'effects_'
'différentes_'
'currently_'
'contact_'
'While_'
'North_'
'élections_'
'thank_'
'surveillance_'
'pu_'
'options_'
'oeuvre_'
'model_'
'militaire_'
'idée_'
'basic_'
'Tout_'
'Section_'
'Code_'
'  _'
'values_'
'statement_'
'soutenir_'
'situations_'
'representative_'
'product_'
'prepared_'
'modèle_'
'internationaux_'
'freedom_'
'effets_'
'communautaire_'
'argent_'
'ago_'
'administrative_'
'Western_'
'Mission_'
'Kosovo_'
'throughout_'
'secteurs_'
'revenu_'
'expressed_'
'competition_'
'bodies_'
'atteindre_'
'How_'
'Gouvernement_'
'English_'
'élaboration_'
'took_'
'space_'
'requires_'
'obligation_'
'nts_'
'joint_'
'corruption_'
'condition_'
'bureau_'
'appui_'
'welcome_'
'spécial_'
'siècle_'
'run_'
'reported_'
'priority_'
'preuve_'
'option_'
'matters_'
'majorité_'
'investissement_'
'gentlemen_'
'design_'
'clairement_'
'avril_'
'applicable_'
'HIV_'
'wide_'
'supported_'
'school_'
'réseau_'
'lois_'
'juridique_'
'ir_'
'financier_'
'emplois_'
'directement_'
'code_'
'Banque_'
'stability_'
'sanctions_'
'récemment_'
'recommandations_'
'receive_'
'quite_'
'publiques_'
'prévention_'
'previous_'
'pouvons_'
'org_'
'na_'
'higher_'
'haut_'
'grands_'
'ex_'
'event_'
'euros_'
'communications_'
'chance_'
'Non_'
'Japon_'
'Inde_'
'Cour_'
'things_'
'réforme_'
'rise_'
'rapide_'
'négociations_'
'includes_'
'gender_'
'equipment_'
'dès_'
'analysis_'
'ability_'
'York_'
'Saint_'
'M'
'Central_'
'57_'
'“_'
'élevé_'
'ton_'
'séance_'
'quelle_'
'principaux_'
'phase_'
'majority_'
'live_'
'follow_'
'establishment_'
'elections_'
'ds_'
'doing_'
'demander_'
'conséquences_'
'conclusions_'
'aire_'
'=_'
'): _'
'week_'
'victimes_'
'turn_'
'propres_'
'opportunities_'
'leadership_'
'kind_'
'déclaré_'
'disponibles_'
'destruction_'
'created_'
'consideration_'
'concurrence_'
'complete_'
'approved_'
'act_'
'technologie_'
'stabilité_'
'spending_'
'publics_'
'planning_'
'partenaires_'
'paid_'
'maximum_'
'material_'
'existence_'
'establish_'
'credit_'
'Institute_'
'Action_'
'02_'
'whose_'
'sociaux_'
'seems_'
'protéger_'
'protect_'
'propriété_'
'organization_'
'nation_'
'investissements_'
'expérience_'
'content_'
'conclusion_'
'concept_'
'addressed_'
'Palestinian_'
'Other_'
'ter_'
'ten_'
'reasons_'
'province_'
'principle_'
'peuple_'
'meetings_'
'km_'
'juste_'
'implement_'
'coming_'
'capacités_'
'biens_'
'analyse_'
'américain_'
'amélioration_'
'ally_'
'according_'
'University_'
'Cependant_'
'Agreement_'
'w_'
'vu_'
'tenir_'
'provision_'
'importe_'
'federal_'
'essentiel_'
'difficile_'
'designed_'
'demandes_'
'contained_'
'budgétaire_'
'bles_'
'avantages_'
'anglais_'
'américaine_'
'activity_'
'Working_'
'TV_'
'Italy_'
'Irak_'
'ES_'
'Commissaire_'
'200_'
'1994_'
' % _'
'via_'
'true_'
'traditional_'
'show_'
'réformes_'
'parti_'
'message_'
'lot_'
'loin_'
'individuals_'
'feel_'
'consommateurs_'
'appel_'
'Policy_'
'◦ _'
'ting_'
'supply_'
'structures_'
'stable_'
'risks_'
'propos_'
'procédures_'
'noted_'
'month_'
'media_'
'mean_'
'libre_'
'later_'
'industrial_'
'gens_'
'doute_'
'côté_'
'crucial_'
'conflit_'
'carried_'
'abord_'
'High_'
'éviter_'
'» _'
'succès_'
'référence_'
'présidence_'
'net_'
'increasingly_'
'external_'
'encourage_'
'death_'
'coût_'
'committed_'
'although_'
'adhésion_'
'Women_'
'Korea_'
'German_'
'February_'
'Depuis_'
'500_'
'35_'
',” _'
'« _'
'volonté_'
'visit_'
'union_'
'successful_'
'practices_'
'manque_'
'leading_'
'ive_'
'enseignement_'
'délégation_'
'build_'
'AIDS_'
'+_'
'violations_'
'uniquement_'
'sociales_'
'sent_'
'objective_'
'move_'
'mode_'
'll_'
'liés_'
'ful_'
'entrée_'
'dispose_'
'delegation_'
'crédit_'
'connection_'
'committee_'
'associated_'
'assets_'
'agricultural_'
'X'
'Ministère_'
'L'
'Cet_'
'Avec_'
'ue_'
'résultat_'
'revenus_'
'rest_'
'requested_'
'regulations_'
'regime_'
'presented_'
'mal_'
'ladies_'
'ique_'
'integration_'
'institution_'
'importantes_'
'heart_'
'factors_'
'events_'
'estime_'
'drug_'
'confiance_'
'causes_'
'Of_'
'Finally_'
'1er_'
'understanding_'
'try_'
'transports_'
'station_'
'rich_'
'reference_'
'passer_'
'partners_'
'mandate_'
'labour_'
'jeu_'
'images_'
'guide_'
'ges_'
'employés_'
'divers_'
'distance_'
'cy_'
'continued_'
'conséquent_'
'breakfast_'
'assurance_'
'apporter_'
'Arab_'
'émissions_'
'échange_'
'tandis_'
'raisons_'
'présenté_'
'proposé_'
'pauvres_'
'ministère_'
'm'
'humanitarian_'
'gouvernementales_'
'game_'
'dollar_'
'difficultés_'
'decided_'
'conférence_'
'conflits_'
'collègues_'
'benefit_'
'aware_'
'Premier_'
'Notre_'
'K_'
'style_'
'strengthen_'
'rait_'
'original_'
'nucléaire_'
'ling_'
'jobs_'
'ine_'
'exécution_'
'consommation_'
'bas_'
'ask_'
'agents_'
'actuel_'
'Toutefois_'
'Since_'
'Management_'
'32_'
' ‘_'
'échelle_'
'uses_'
'troisième_'
'taxes_'
'science_'
'restrictions_'
'pêche_'
'publication_'
'perspective_'
'monitoring_'
'milieu_'
'job_'
'impossible_'
'hold_'
'français_'
'finance_'
'fight_'
'board_'
'appliquer_'
'août_'
'ale_'
'ad_'
'Rapporteur_'
'R'
'Law_'
'EUR_'
'Business_'
'70_'
'58_'
'takes_'
'réalité_'
'renforcement_'
'reduction_'
'reach_'
'officials_'
'guidelines_'
'gc_'
'février_'
'eaux_'
'cycle_'
'ated_'
'annexe_'
'achieved_'
'ables_'
'Room_'
'Or_'
'75_'
'1992_'
' $ _'
'understand_'
'tiers_'
'steps_'
'responsables_'
'représente_'
'record_'
'quel_'
'présence_'
'permettant_'
'participer_'
'internet_'
'disponible_'
'comes_'
'circumstances_'
'V'
'Middle_'
'Israeli_'
'Après_'
' », _'
'économies_'
'x'
'votes_'
'vis_'
'users_'
'torture_'
'studies_'
'réalisation_'
'provincial_'
'perhaps_'
'monétaire_'
'meilleur_'
'lower_'
'gas_'
'evaluation_'
'espace_'
'contribute_'
'body_'
'affected_'
'Such_'
'Note_'
'Justice_'
'GDP_'
'ze_'
'works_'
'team_'
'reporting_'
'puisse_'
'locaux_'
'idea_'
'forms_'
'européennes_'
'esprit_'
'décidé_'
'dix_'
'critères_'
'chinois_'
'cependant_'
'authority_'
'asked_'
'arrangements_'
'amendement_'
'allowed_'
'accept_'
'Madame_'
'August_'
'33_'
'user_'
'sud_'
'reçu_'
'referred_'
'recours_'
'purposes_'
'processes_'
'pied_'
'indeed_'
'documentation_'
'creation_'
'comprehensive_'
'candidats_'
'border_'
'actually_'
'War_'
'USA_'
'Tous_'
'Many_'
'John_'
'III_'
'Financial_'
'CN_'
'36_'
'03_'
' . _'
'ème_'
'veut_'
'stated_'
'resolutions_'
'présenter_'
'produced_'
'offrir_'
'ner_'
'issued_'
'independent_'
'guarantee_'
'femme_'
'expression_'
'export_'
'enable_'
'développer_'
'dessus_'
'demandé_'
'class_'
'choses_'
'américains_'
'added_'
'Turquie_'
'Trade_'
'Inc_'
'Forum_'
' » _'
'sûr_'
'stage_'
'simplement_'
'régional_'
'payment_'
'nothing_'
'mind_'
'ma'
'lesquels_'
'laws_'
'huge_'
'extent_'
'equal_'
'convention_'
'consequences_'
'carte_'
'THE_'
'Spain_'
'Selon_'
'Russian_'
'From_'
'During_'
'34_'
'terrain_'
'semaine_'
'réunions_'
'route_'
'reached_'
'porte_'
'network_'
'let_'
'juridiques_'
'highly_'
'examiner_'
'donne_'
'comprendre_'
'claims_'
'canadienne_'
'canadien_'
'big_'
'beyond_'
'applied_'
'S'
'Rapport_'
'Québec_'
'Enfin_'
'ères_'
'utilisateurs_'
'salle_'
'presque_'
'poste_'
'patients_'
'militaires_'
'indiqué_'
'improved_'
'enjoy_'
'diverses_'
'der_'
'da_'
'contenu_'
'conference_'
'compétences_'
'chef_'
'challenge_'
'average_'
'agir_'
'Windows_'
'Protocol_'
'Orient_'
'Now_'
'Although_'
'Air_'
'Ainsi_'
'youth_'
'vrai_'
'travel_'
'transfer_'
'threat_'
'situé_'
'ries_'
'relating_'
'pression_'
'possibility_'
'operation_'
'monetary_'
'mentioned_'
'largest_'
'initial_'
'ground_'
'farmers_'
'easy_'
'déterminer_'
'directives_'
'derniers_'
'critical_'
'contract_'
'continuer_'
'compliance_'
'biais_'
'amendements_'
'Add_'
'59_'
'49_'
'travers_'
'tard_'
't'
'série_'
'students_'
'size_'
'signifie_'
'shown_'
'ship_'
'primary_'
'pressure_'
'pages_'
'overall_'
'nte_'
'moyenne_'
'mechanisms_'
'jouer_'
'introduction_'
'house_'
'file_'
'favour_'
'everything_'
'employees_'
'efficaces_'
'don_'
'devenir_'
'connaissances_'
'comfortable_'
'beginning_'
'N'
'Force_'
'51_'
'* _'
'évolution_'
'urgence_'
'ures_'
'thing_'
'suit_'
'stop_'
'schools_'
'sation_'
'relatif_'
'priorities_'
'ouverture_'
'online_'
'offices_'
'modifications_'
'liées_'
'langue_'
'ke_'
'heure_'
'fut_'
'désormais_'
'combat_'
'aimed_'
'St_'
'Regional_'
'Est_'
'Congo_'
') '
'égalité_'
'âge_'
'vraiment_'
'usage_'
'supplémentaires_'
'substances_'
'strategies_'
'statut_'
'soon_'
'scale_'
'reforms_'
'red_'
'reality_'
'outcome_'
'méthodes_'
'methods_'
'longtemps_'
'licence_'
'frontières_'
'forte_'
'exception_'
'entitled_'
'entire_'
'emissions_'
'créé_'
'creating_'
'contains_'
'comprend_'
'compensation_'
'choose_'
'charges_'
'chacun_'
'carry_'
'acceptable_'
'OF_'
'Foreign_'
'Déclaration_'
' »._'
'véritable_'
'venir_'
'statistiques_'
'statements_'
'setting_'
'seraient_'
'puis_'
'press_'
'package_'
'nord_'
'missions_'
'liens_'
'legislative_'
'iques_'
'identified_'
'families_'
'faciliter_'
'extremely_'
'entendu_'
'ensuite_'
'convient_'
'commerciaux_'
'became_'
'awareness_'
'actes_'
'VIH_'
'Secretariat_'
'Même_'
'utilisé_'
'territoire_'
'suivre_'
'satisfaction_'
'road_'
'resource_'
'positions_'
'portant_'
'parvenir_'
'médias_'
'maintien_'
'maintenir_'
'locales_'
'ii_'
'identify_'
'goals_'
'fall_'
'défis_'
'durée_'
'continues_'
'comptes_'
'came_'
'appear_'
'U'
'Q'
'Prime_'
'C'
'54_'
'39_'
'–_'
'équipe_'
'voted_'
'vital_'
'tour_'
'shows_'
'remercier_'
'probablement_'
'nucléaires_'
'menace_'
'materials_'
'lignes_'
'late_'
'insurance_'
'faisant_'
'enlargement_'
'elements_'
'dû_'
'ding_'
'defined_'
'criminal_'
'consumption_'
'constitution_'
'complex_'
'communautés_'
'comité_'
'Summit_'
'Presidency_'
'My_'
'More_'
'Canadiens_'
'@_'
'sound_'
'régionaux_'
'relationship_'
'prévu_'
'priorité_'
'places_'
'physical_'
'peuples_'
'notes_'
'nor_'
'massive_'
'maintain_'
'lives_'
'implemented_'
'humains_'
'goal_'
'failed_'
'départ_'
'disease_'
'continent_'
'consumers_'
'confidence_'
'completed_'
'calls_'
'brought_'
'assez_'
'armée_'
'ancien_'
'Most_'
'Directive_'
'Certains_'
'Administration_'
'1991_'
'1'
'06_'
'étrangère_'
'voix_'
'stratégique_'
'species_'
'series_'
'résoudre_'
'ratification_'
'presse_'
'mécanismes_'
'manner_'
'leave_'
'fonctions_'
'figure_'
'features_'
'enquête_'
'details_'
'despite_'
'currency_'
'constituent_'
'computer_'
'commissaire_'
'claim_'
'WP_'
'Plus_'
'Ottawa_'
'Governments_'
'Global_'
'Food_'
'City_'
' -- _'
'– _'
'établissements_'
'écrit_'
'v'
'ues_'
'skills_'
'scope_'
'scientific_'
'réglementation_'
'régionales_'
'recognition_'
'profit_'
'priorités_'
'prevention_'
'prend_'
'politics_'
'planification_'
'peine_'
'passe_'
'mail_'
'institutional_'
'improving_'
'governmental_'
'financing_'
'efficient_'
'effectively_'
'earlier_'
'conduct_'
'choice_'
'book_'
'auteur_'
'attitude_'
'arms_'
'answer_'
'acts_'
'Portugal_'
'Latin_'
'LA_'
'Ireland_'
'His_'
'Even_'
'Environment_'
'Dr_'
'Date_'
'99_'
'300_'
'1993_'
'05_'
'. - _'
' :_'
'zation_'
'undertaken_'
'ta_'
'ser_'
'scientifiques_'
'satellite_'
'réserve_'
'relativement_'
'read_'
'pétrole_'
'puissance_'
'petites_'
'medical_'
'maladies_'
'loss_'
'ian_'
'hausse_'
'genre_'
'format_'
'emerging_'
'durant_'
'cover_'
'clean_'
'clair_'
'chargé_'
'certainly_'
'beautiful_'
'ard_'
'ante_'
'amendment_'
'aires_'
'add_'
'accepted_'
'Table_'
'Royaume_'
'Project_'
'P'
'G'
'Elles_'
'ET_'
'Cuba_'
'43_'
'étrangères_'
'étrangers_'
'É'
'ying_'
'unemployment_'
'transparence_'
'tendance_'
'strengthening_'
'soumis_'
'serve_'
'sectors_'
'responsable_'
'regular_'
'radio_'
'pollution_'
'payer_'
'mort_'
'links_'
'leader_'
'languages_'
'invite_'
'intended_'
'installations_'
'généralement_'
'governance_'
'fond_'
'failure_'
'espère_'
'damage_'
'classe_'
'ck_'
'chômage_'
'began_'
'bad_'
'adopter_'
'Santé_'
'Kingdom_'
'Initiative_'
'Grande_'
'E'
'Agence_'
'42_'
'1980_'
'évaluer_'
'établi_'
'élément_'
'virus_'
'travailler_'
'town_'
'suivants_'
'relatifs_'
'produce_'
'plein_'
'petits_'
'peoples_'
'payments_'
'ouverte_'
'news_'
'limit_'
'industries_'
'index_'
'identification_'
'humaines_'
'globale_'
'gaz_'
'gain_'
'formes_'
'f'
'expert_'
'directeur_'
'differences_'
'cœur_'
'contient_'
'collective_'
'campagne_'
'adequate_'
'accepter_'
'Uni_'
'Under_'
'PIB_'
'Ministry_'
'Gaza_'
'Federal_'
'Egypt_'
'Aboriginal_'
'37_'
'04_'
' " _'
'”._'
'”, _'
'époque_'
'whom_'
'vont_'
'victims_'
'useful_'
'tools_'
'ties_'
'software_'
'réaliser_'
'reviews_'
'quickly_'
'powers_'
'méthode_'
'movement_'
'marchandises_'
'maladie_'
'lly_'
'lesquelles_'
'humaine_'
'film_'
'facteurs_'
'entier_'
'ensuring_'
'criteria_'
'crises_'
'conséquence_'
'caractère_'
'animal_'
'Today_'
'Point_'
'I'
'Espagne_'
'vente_'
'ss_'
'recognized_'
'prochaine_'
'médicaments_'
'moral_'
'largement_'
'interventions_'
'interne_'
'historical_'
'giving_'
'ging_'
'friendly_'
'expansion_'
'entry_'
'ens_'
'déclarations_'
'dimension_'
'determine_'
'decline_'
'contrat_'
'consumer_'
'aim_'
'accessible_'
'Sous_'
'Safety_'
'Please_'
'ON_'
'Madam_'
'Etat_'
'EN_'
'Charter_'
'Chairman_'
'Brazil_'
'AC_'
'variety_'
'totale_'
'stock_'
'seem_'
'puissent_'
'principalement_'
'pose_'
'parler_'
'paper_'
'obstacles_'
'night_'
'n'
'integrated_'
'immediately_'
'fonctionnement_'
'fonctionnaires_'
'facilitate_'
'extension_'
'exercise_'
'envers_'
'encourager_'
'ence_'
'duty_'
'devait_'
'competitive_'
'caused_'
'capable_'
'bus_'
'allows_'
'advance_'
'adopt_'
'Rooms_'
'Protection_'
'Moyen_'
'Mexico_'
'Directeur_'
'Declaration_'
', '
'tradition_'
'substance_'
'stocks_'
'started_'
'speak_'
'search_'
'restaurants_'
'reflect_'
'published_'
'professional_'
'procès_'
'principales_'
'postes_'
'pension_'
'particulière_'
'parle_'
'moitié_'
'limits_'
'grave_'
'familles_'
'facile_'
'everyone_'
'disarmament_'
'danger_'
'cultures_'
'communes_'
'comments_'
'climatique_'
'campaign_'
'association_'
'accent_'
'Second_'
'Ms_'
'Lorsque_'
'K'
'Comment_'
'. - (_'
'événements_'
'website_'
'vise_'
'vient_'
'tic_'
'territory_'
'servir_'
'possibilités_'
'port_'
'pleinement_'
'ping_'
'mass_'
'ks_'
'join_'
'id_'
'faits_'
'delivery_'
'default_'
'core_'
'conservation_'
'closed_'
'certaine_'
'begin_'
'autorité_'
'adresse_'
'UNESCO_'
'Règlement_'
'Présidente_'
'Part_'
'Mesdames_'
'Let_'
'Communauté_'
'B'
';&#_'
': (_'
'2'
'). _'
'étranger_'
' ?_'
'weeks_'
'w'
'urgent_'
'télévision_'
'traiter_'
'trait_'
'taille_'
'séjour_'
'safe_'
'régionale_'
'prêts_'
'pre_'
'practical_'
'pourra_'
'participate_'
'mis'
'link_'
'lement_'
'incidence_'
'impression_'
'illegal_'
'iers_'
'ga_'
'function_'
'fondamentaux_'
'fear_'
'efficiency_'
'définition_'
'conscience_'
'conception_'
'completely_'
'client_'
'cancer_'
'avoid_'
'armed_'
'anything_'
'Sur_'
'Rome_'
'Messieurs_'
'Italie_'
'F'
'Each_'
'Accord_'
'96_'
'95_'
'52_'
'wrong_'
'utilisés_'
'transmission_'
'transactions_'
'supporting_'
'stratégies_'
'sport_'
'semaines_'
'seeking_'
'réception_'
'responsabilités_'
'release_'
'regulatory_'
'recommended_'
'prévoit_'
'prior_'
'petite_'
'parfois_'
'ol_'
'multi_'
'mots_'
'mines_'
'menu_'
'membership_'
'medium_'
'longue_'
'infrastructures_'
'informed_'
'indicated_'
'implementing_'
'elected_'
'délai_'
'discussed_'
'developments_'
'decade_'
'cross_'
'cal_'
'aspect_'
'ary_'
'announced_'
'agricole_'
'advantage_'
'accroître_'
'Son_'
'Regulation_'
'Mar'
'J'
'FAO_'
'Executive_'
'Description_'
'CE_'
'According_'
'800_'
'44_'
'élargissement_'
'´_'
'zing_'
'veiller_'
'vehicle_'
'tra'
'thought_'
'tenue_'
'target_'
'spécifiques_'
'souhaite_'
'sommet_'
'sexual_'
'sea_'
'relatively_'
'records_'
'provinces_'
'placed_'
'partnership_'
'operating_'
'lle_'
'ism_'
'installation_'
'housing_'
'followed_'
'fair_'
'exports_'
'exist_'
'ethnic_'
'effectiveness_'
'determined_'
'described_'
'decades_'
'associations_'
'adoptée_'
'accueil_'
'W'
'Regulations_'
'People_'
'Lisbon_'
'God_'
'Education_'
'Booking_'
'Al_'
'A'
'48_'
'étoiles_'
'écoles_'
'word_'
'terre_'
'task_'
'surface_'
'sort_'
'sme_'
'served_'
'secrétariat_'
'retour_'
'religion_'
'race_'
'probably_'
'premières_'
'opinions_'
'mouvement_'
'mondialisation_'
'modification_'
'ler_'
'interested_'
'inter_'
'ideas_'
'haute_'
'files_'
'eurozone_'
'engagements_'
'emergency_'
'customers_'
'contribuer_'
'consiste_'
'commerciales_'
'collection_'
'ais_'
'agent_'
'Islamic_'
'Institut_'
'EC_'
'D'
'1989_'
'%._'
'électronique_'
'zed_'
'yeux_'
'tribunal_'
'telephone_'
'stress_'
'signed_'
'sida_'
'rendu_'
'reduced_'
'reconnaissance_'
'proper_'
'please_'
'perspectives_'
'partis_'
'ongoing_'
'occupation_'
'music_'
'moderne_'
'measure_'
'malgré_'
'lines_'
'guests_'
'g'
'finances_'
'faite_'
'easily_'
'e'
'difference_'
'detailed_'
'degree_'
'cut_'
'conseil_'
'compter_'
'commissions_'
'chefs_'
'check_'
'bed_'
'alimentaire_'
']_'
'Yet_'
'T'
'Irlande_'
'Hamas_'
'George_'
'Co'
'CI'
'47_'
'38_'
'07_'
'."_'
'walk_'
'voulons_'
'violation_'
'transparency_'
'toward_'
'terres_'
'submit_'
'situated_'
'sign_'
'seek_'
'saying_'
'ready_'
'publications_'
'popular_'
'permettent_'
'parking_'
'ordinateur_'
'normal_'
'ms_'
'mises_'
'ministres_'
'matériel_'
'lien_'
'ka'
'indispensable_'
'firms_'
'famous_'
'express_'
'députés_'
'delà_'
'contraire_'
'continuing_'
'consistent_'
'communautaires_'
'chapitre_'
'argument_'
'approval_'
'alone_'
'achieving_'
'Y'
'TION_'
'Poland_'
'Ni'
'Hi'
'Furthermore_'
'Canadians_'
'CD_'
'Be'
'Asian_'
'Américains_'
'400_'
'... _'
', "_'
'  _'
'élaborer_'
'written_'
'writing_'
'véhicules_'
'voting_'
'tête_'
'totalement_'
'tient_'
'tiens_'
'terrorist_'
'supports_'
'subventions_'
'star_'
'règlements_'
'respecter_'
'quement_'
'promoting_'
'presence_'
'pouvait_'
'offered_'
'naturelles_'
'modifier_'
'method_'
'logiciel_'
'ical_'
'historique_'
'garde_'
'fédérale_'
'déjeuner_'
'draw_'
'di_'
'conducted_'
'compromis_'
'autochtones_'
'auront_'
'San_'
'Microsoft_'
'Italian_'
'Haut_'
'Greece_'
'Democratic_'
'Bo'
', “_'
'èrent_'
'volume_'
'utile_'
'transfert_'
'réfugiés_'
'rent_'
'recovery_'
'recevoir_'
'quoi_'
'précisément_'
'proximité_'
'professionnels_'
'produire_'
'president_'
'pourrez_'
'planned_'
'operational_'
'observations_'
'langues_'
'judicial_'
'j'
'items_'
'individus_'
'he'
'granted_'
'forced_'
'fisheries_'
'extérieur_'
'equality_'
'enhance_'
'eligible_'
'contain_'
'considère_'
'commencer_'
'catégorie_'
'cation_'
'becoming_'
'ating_'
'alinéa_'
'advice_'
'accession_'
'Spanish_'
'Great_'
'FI'
'Alors_'
'stand_'
'sharing_'
'sex_'
'scientifique_'
's'
'rising_'
'reducing_'
'recherches_'
'pro'
'poursuivre_'
'opening_'
'looking_'
'lettre_'
'lancer_'
'instance_'
'increases_'
'immigrants_'
'garantie_'
'fédéral_'
'erait_'
'empêcher_'
'drive_'
'dessous_'
'del_'
'decide_'
'dealing_'
'corps_'
'consolidation_'
'commitments_'
'commencé_'
'circulation_'
'chances_'
'card_'
'capitaux_'
'auquel_'
'augmenter_'
'arrive_'
'approbation_'
'animaux_'
'als_'
'ajouter_'
'ages_'
'advanced_'
'achat_'
'Washington_'
'Vice_'
'RO'
'Pourtant_'
'Paul_'
'PC_'
'PA'
'Jean_'
'Japanese_'
'Debian_'
'Ceci_'
'Annex_'
'Alberta_'
'Advisory_'
'," _'
' = _'
'vulnerable_'
'voté_'
'universal_'
'trust_'
'trafic_'
'told_'
'terroristes_'
'supplémentaire_'
'suivante_'
'sta'
'souligner_'
'résolutions_'
'réalisés_'
'respond_'
'refugees_'
'procéder_'
'pouvoirs_'
'potentiel_'
'personnels_'
'organisme_'
'observer_'
'nice_'
'mécanisme_'
'musique_'
'mobile_'
'meilleurs_'
'limites_'
'lieux_'
'identity_'
'goes_'
'generally_'
'fuel_'
'forum_'
'fera_'
'exprimer_'
'exportations_'
'expertise_'
'ements_'
'electronic_'
'difficulties_'
'crois_'
'conseils_'
'communiquer_'
'cinquante_'
'catégories_'
'budgétaires_'
'budgets_'
'baisse_'
'avantage_'
'\\_'
'UNICEF_'
'Review_'
'Representative_'
'Pi'
'Is_'
'Framework_'
'Avant_'
'Aujourd_'
'53_'
'étape_'
'worldwide_'
'voisins_'
'video_'
'unies_'
'trouvent_'
'supérieur_'
'suffisamment_'
'sub_'
'structural_'
'stronger_'
'shared_'
'secretariat_'
'sale_'
'rester_'
'reading_'
'raised_'
'networks_'
'nd_'
'multilateral_'
'montre_'
'lutter_'
'learning_'
'largely_'
'ko'
'ist_'
'introduced_'
'immediate_'
'idées_'
'gouvernance_'
'front_'
'fichiers_'
'enterprises_'
'ended_'
'délégations_'
'déficit_'
'dossier_'
'corporate_'
'considerable_'
'connaissance_'
'compromise_'
'composition_'
'competitiveness_'
'commentaires_'
'clé_'
'chemin_'
'borders_'
'architecture_'
'appelle_'
'appeal_'
'ahead_'
'accident_'
'Ta'
'RE'
'Panel_'
'Not_'
'Meeting_'
'Ja'
'Europeans_'
'DES_'
'Corée_'
'Also_'
'65_'
'0'
');_'
'échanges_'
'won_'
'visite_'
'unless_'
'unité_'
'traitements_'
'tirer_'
'temporary_'
'survey_'
'suivantes_'
'speed_'
'sometimes_'
'separate_'
'sentiment_'
'rie_'
'requests_'
'reprise_'
'recettes_'
'probable_'
'privée_'
'perte_'
'percent_'
'partout_'
'partenariat_'
'partage_'
'organized_'
'obtained_'
'neither_'
'minorités_'
'matières_'
'maison_'
'letter_'
'invited_'
'hour_'
'historic_'
'hands_'
'feature_'
'ey_'
'extrêmement_'
'expect_'
'examine_'
'enter_'
'enfin_'
'dossiers_'
'diversity_'
'departments_'
'cuisine_'
'cs_'
'copy_'
'conventions_'
'compared_'
'choisir_'
'businesses_'
'attendre_'
'appears_'
'actuelles_'
'actifs_'
'accorder_'
'Two_'
'Traité_'
'Toronto_'
'System_'
'Street_'
'She_'
'Nouvelle_'
'London_'
'Lisbonne_'
'LE_'
'Its_'
'Guide_'
'Children_'
'Alliance_'
'46_'
'$_'
' : « _'
'équilibre_'
'élevés_'
'y'
'worked_'
'villes_'
'tribunaux_'
'sujets_'
'suggested_'
'sm_'
'siège_'
'seven_'
'rice_'
'responsibilities_'
'prison_'
'pourtant_'
'pleased_'
'players_'
'pièces_'
'parole_'
'ot_'
'orientation_'
'offering_'
'nent_'
'manage_'
'linked_'
'latest_'
'larger_'
'inter'
'instead_'
'innovative_'
'friends_'
'figures_'
'entièrement_'
'enquêtes_'
'définir_'
'discuss_'
'definition_'
'deep_'
'continuent_'
'consultatif_'
'closely_'
'cher_'
'candidate_'
'behind_'
'attacks_'
'arabe_'
'annex_'
'aller_'
'WIPO_'
'SA'
'OMC_'
'LA'
'Forces_'
'FMI_'
'Dieu_'
'Corporation_'
'Argentina_'
'Amendment_'
' »._'
' '
'treaty_'
'teur_'
'susceptibles_'
'substantial_'
'starting_'
'sales_'
'réponses_'
'représentent_'
'reasonable_'
'rapid_'
'pursuant_'
'producteurs_'
'photo_'
'phone_'
'organes_'
'limite_'
'helped_'
'follows_'
'facilement_'
'expenditures_'
'daily_'
'cra'
'compétitivité_'
'carbon_'
'canadiennes_'
'bonnes_'
'appuyer_'
'aliments_'
'agissant_'
'agency_'
'acteurs_'
'abuse_'
'Université_'
'RE_'
'RA'
'Q_'
'Palestine_'
'PC'
'Only_'
'O'
'NGOs_'
'Ko'
'DA'
'Brésil_'
'BA'
'1872_'
'--_'
'êtes_'
'veulent_'
'tâche_'
'tool_'
'thousands_'
'tell_'
'tableau_'
'stakeholders_'
'spéciale_'
'spread_'
'soi_'
'sessions_'
'semblent_'
'récente_'
'rons_'
'ring_'
'rend_'
'relief_'
'reconstruction_'
'quot_'
'présentation_'
'provenant_'
'prochain_'
'proceedings_'
'pre'
'otherwise_'
'organisé_'
'ones_'
'meilleures_'
'mauvais_'
'mark_'
'limiter_'
'je'
'involving_'
'impôt_'
'implications_'
'ideal_'
'gros_'
'gains_'
'fifty_'
'elsewhere_'
'défi_'
'doubt_'
'discours_'
'devront_'
'considéré_'
'connu_'
'conclure_'
'conclu_'
'compétence_'
'cities_'
'ch'
'certainement_'
'center_'
'bureaux_'
'britannique_'
'amis_'
'alliance_'
'Timor_'
'Support_'
'Strategy_'
'Saddam_'
'Millennium_'
'Inter'
'Industry_'
'Document_'
'David_'
'Columbia_'
'CE'
'Americans_'
'Agriculture_'
'09_'
'08_'
' -_'
'wa'
'utilisées_'
'twenty_'
'trying_'
'stratégiques_'
'speaking_'
'southern_'
'sait_'
'réalisé_'
'règle_'
'revised_'
'religious_'
'released_'
'publié_'
'politicians_'
'permettra_'
'nouvel_'
'ni'
'nearly_'
'ministères_'
'isme_'
'intellectuelle_'
'indépendance_'
'identité_'
'head_'
'fund_'
'fortement_'
'flux_'
'faites_'
'facing_'
'establishing_'
'employee_'
'educational_'
'diseases_'
'die_'
'deficit_'
'controls_'
'contacts_'
'conduit_'
'chercheurs_'
'che_'
'changed_'
'caractéristiques_'
'atmosphere_'
'annoncé_'
'Therefore_'
'Romania_'
'OR_'
'Netherlands_'
'NO'
'Li'
'Control_'
'Church_'
'Christian_'
'Berlin_'
'97_'
'5'
'1988_'
') - _'
'voluntary_'
'vingt_'
'urban_'
'transparent_'
'targets_'
'suggest_'
'spirit_'
'réseaux_'
'registered_'
'reconnaître_'
'recommande_'
'recognize_'
'purchase_'
'pu'
'properly_'
'preparation_'
'paiement_'
'officers_'
'notion_'
'mètres_'
'migrants_'
'managed_'
'maintenance_'
'l'
'judiciaire_'
'inspection_'
'improvement_'
'imposed_'
'ill_'
'i'
'helpful_'
'h'
'formal_'
'forest_'
'fish_'
'fire_'
'faudra_'
'fast_'
'enregistrement_'
'diplomatic_'
'determination_'
'destination_'
'demands_'
'd'
'contribué_'
'connaître_'
'confirmed_'
'comportement_'
'built_'
'auxquels_'
'autour_'
'auraient_'
'allowing_'
'agricoles_'
'affaire_'
'To'
'TA'
'Quand_'
'Protocole_'
'Pe'
'Ministers_'
'Membres_'
'Malgré_'
'La'
'Kyoto_'
'Ku'
'Grand_'
'Cor'
'Authority_'
'AND_'
'02'
'étapes_'
'village_'
'vaste_'
'update_'
'una'
'u'
'traditions_'
'testing_'
'statistics_'
'solidarité_'
'so'
'secure_'
'savings_'
'réserves_'
'reconnu_'
'prêt_'
'principale_'
'presidential_'
'planète_'
'pertes_'
'perfect_'
'par'
'p'
'obstacle_'
'negative_'
'mutual_'
'morning_'
'mo'
'mm_'
'mentionné_'
'marque_'
'manifestations_'
'king_'
'k'
'investments_'
'interdiction_'
'inside_'
'ide_'
'ial_'
'hip_'
'himself_'
'grow_'
'gave_'
'fondamentales_'
'favorable_'
'faudrait_'
'extensive_'
'exposition_'
'equipped_'
'employer_'
'défaut_'
'donateurs_'
'diversité_'
'disaster_'
'digital_'
'contracts_'
'ck'
'bilateral_'
'bases_'
'attempt_'
'approvisionnement_'
'applies_'
'alternatives_'
'Z'
'Voici_'
'Use_'
'Sea_'
'SO'
'Over_'
'OECD_'
'Muslim_'
'Mexique_'
'Mac'
'Here_'
'Federation_'
'AR'
'? _'
'41_'
'31'
'150_'
'équipements_'
'énergétique_'
'éliminer_'
'école_'
'welcomed_'
'wealth_'
'utilisateur_'
'tonnes_'
'territoires_'
'sol_'
'sides_'
'shi'
'sensitive_'
'selected_'
'round_'
'revolution_'
'rendement_'
'remained_'
'registration_'
'quatrième_'
'préserver_'
'précédent_'
'profiter_'
'proche_'
'pass_'
'parliamentary_'
'parlementaire_'
'para_'
'oral_'
'numbers_'
'namely_'
'modèles_'
'mobilité_'
'migration_'
'mid_'
'messages_'
'losses_'
'looks_'
'listed_'
'lancé_'
'labor_'
'interprétation_'
'humanitaire_'
'humain_'
'habitants_'
'fondée_'
'fer_'
'factor_'
'exclusion_'
'espoir_'
'développés_'
'drugs_'
'contrast_'
'considérer_'
'considération_'
'clés_'
'claire_'
'champ_'
'canadiens_'
'camp_'
'broad_'
'banque_'
'assist_'
'alimentaires_'
'addressing_'
'actual_'
'accéder_'
'accommodation_'
'TI'
'Sha'
'Saskatchewan_'
'SI'
'Ri'
'Resources_'
'RI'
'Quebec_'
'Que_'
'Pacific_'
'Ouest_'
'Mo'
'Ministre_'
'LE'
'Ki'
'Indian_'
'IC'
'Genève_'
'Geneva_'
'Britain_'
'98_'
'77_'
'20'
''._'
'étudiants_'
'widely_'
'waste_'
'vol_'
'unable_'
'trial_'
'traite_'
'traffic_'
'tourisme_'
'tive_'
'thinking_'
'thanks_'
'stu'
'specifically_'
'send_'
'sciences_'
'puisque_'
'préoccupations_'
'prospects_'
'proportion_'
'powerful_'
'pourcentage_'
'outils_'
'o'
'ntes_'
'multiples_'
'mechanism_'
'lost_'
'le'
'ki_'
'kept_'
'investigation_'
'intellectual_'
'informal_'
'indigenous_'
'indicators_'
'impose_'
'hors_'
'fourth_'
'fishing_'
'favoriser_'
'faith_'
'estimates_'
'espèces_'
'eight_'
'dy_'
'distinction_'
'declaration_'
'conflicts_'
'collectivités_'
'catastrophes_'
'candidates_'
'bord_'
'bois_'
'aéroport_'
'availability_'
'associés_'
'approuvé_'
'américaines_'
'adjoint_'
'Why_'
'Third_'
'Sierra_'
'Restaurant_'
'OMPI_'
'Néanmoins_'
'Montréal_'
'IT_'
'Hôtel_'
'Costa_'
'Both_'
'Another_'
'AB'
'93_'
'600_'
'3'
'"'
'équitable_'
'ça_'
'xi'
'téléphone_'
'thereby_'
'ter'
'sufficient_'
'specified_'
'sought_'
'signature_'
'régler_'
'ro_'
'requirement_'
'regards_'
'refer_'
'reception_'
'rapporteurs_'
'quarter_'
'prévues_'
'préparer_'
'professionnelle_'
'prochaines_'
'primarily_'
'photos_'
'particuliers_'
'paragraphs_'
'origin_'
'numerous_'
'names_'
'monnaie_'
'mener_'
'machine_'
'lé'
'libertés_'
'latine_'
'jeux_'
'indique_'
'independence_'
'inclusion_'
'imposer_'
'imports_'
'host_'
'holding_'
'graves_'
'gives_'
'fournit_'
'focused_'
'flow_'
'floor_'
'experiences_'
'ely_'
'easier_'
'dynamique_'
'drogues_'
'donnée_'
'différence_'
'devoir_'
'defence_'
'conferences_'
'complète_'
'classes_'
'charged_'
'changing_'
'bancaire_'
'ban_'
'attend_'
'atteint_'
'assess_'
'appointed_'
'appelé_'
'annuel_'
'album_'
'accounts_'
'accounting_'
'WTO_'
'Total_'
'River_'
'Pacte_'
'PNUD_'
'Once_'
'Ob'
'Nos_'
'NEW_'
'MA'
'LES_'
'ION_'
'For'
'Direction_'
'Cooperation_'
'Civil_'
'Chief_'
'Can_'
'Bi'
'Belarus_'
'10'
'win_'
'wi'
'weapon_'
'vérification_'
'vice_'
'ver_'
'uni'
'under'
'sin'
'sed_'
'se'
'requis_'
'reflected_'
'prévenir_'
'préparation_'
'privés_'
'previously_'
'poser_'
'portée_'
'porter_'
'pleine_'
'patient_'
'partner_'
'ory_'
'opened_'
'onal_'
'nuit_'
'notice_'
'navires_'
'minute_'
'mettant_'
'mention_'
'mental_'
'marine_'
'lumière_'
'learn_'
'kg_'
'intermédiaire_'
'ho'
'gérer_'
'guest_'
'gamme_'
'fruits_'
'fighting_'
'erreur_'
'else_'
'ea'
'diffusion_'
'department_'
'dated_'
'crédits_'
'coup_'
'coalition_'
'centrales_'
'bi'
'bathroom_'
'banking_'
'b'
'arguments_'
'adaptation_'
'acte_'
'absolutely_'
'Unfortunately_'
'Transport_'
'See_'
'Sans_'
'Pays_'
'NE'
'ME'
'IV_'
'IN'
'Grèce_'
'Go'
'Finance_'
'FA'
'Di'
'Data_'
'Chaque_'
'Bretagne_'
'Australia_'
'Amnesty_'
'AT'
'85_'
'613_'
'40'
'33'
'250_'
'états_'
'z'
'voire_'
'treated_'
'traités_'
'tor'
'titres_'
'tests_'
'territorial_'
'summit_'
'sts_'
'sse_'
'spéciales_'
'sports_'
'souligné_'
'sion_'
'seuls_'
'sept_'
'save_'
'réduit_'
'running_'
'returned_'
'resolve_'
'rappeler_'
'raise_'
'protected_'
'productivity_'
'privées_'
'pool_'
'patrimoine_'
'passage_'
'occur_'
'né_'
'numéro_'
'montrer_'
'models_'
'map_'
'love_'
'loans_'
'lecture_'
'ka_'
'internes_'
'html_'
'highest_'
'har'
'générales_'
'globalization_'
'futures_'
'forêts_'
'fit_'
'firm_'
'explique_'
'expectations_'
'exercer_'
'exclusive_'
'essentiellement_'
'entendre_'
'endroit_'
'drawn_'
'devra_'
'desire_'
'demeure_'
'database_'
'culturel_'
'containing_'
'civils_'
'centaines_'
'bénéficier_'
'buy_'
'bonds_'
'bly_'
'analyses_'
'amounts_'
'affect_'
'actif_'
'accrue_'
'Your_'
'Work_'
'UK_'
'Official_'
'Northern_'
'Madrid_'
'Labour_'
'Er'
'EN'
'ECB_'
'Despite_'
'Covenant_'
'CD'
'CC'
'Budget_'
'Any_'
'64_'
'38'
'24'
'22'
'2011_'
') _'
'%, _'
' ( _'
' ('
'éra'
'échec_'
'® _'
'ya_'
'went_'
'wanted_'
'versions_'
'ur'
'trafficking_'
'te'
'solidarity_'
'sing_'
'says_'
'sant_'
'révision_'
'ro'
'resulting_'
'responses_'
'reserves_'
'remercie_'
'recommandation_'
'ps_'
'protecting_'
'processing_'
'ports_'
'populaire_'
'po'
'physique_'
'peux_'
'parc_'
'owned_'
'over'
'ouvert_'
'outil_'
'or'
'obvious_'
'notification_'
'monitor_'
'modified_'
'mment_'
'maintained_'
'lay_'
'journée_'
'ized_'
'involvement_'
'installed_'
'ins_'
'impôts_'
'grounds_'
'getting_'
'fo'
'fine_'
'finally_'
'fail_'
'faces_'
'extra_'
'extend_'
'excessive_'
'examiné_'
'eront_'
'engage_'
'enforcement_'
'division_'
'district_'
'devient_'
'detail_'
'demonstrated_'
'dangerous_'
'croire_'
'covered_'
'correct_'
'contrats_'
'concluded_'
'combined_'
'ceci_'
'capitale_'
'bénéfices_'
'buffet_'
'budgetary_'
'ber'
'beach_'
'bar'
'ba'
'asile_'
'Toutes_'
'Thus_'
'Those_'
'Society_'
'Se'
'SP'
'Park_'
'Par'
'NC'
'Last_'
'IT'
'Hong_'
'Home_'
'Given_'
'EI'
'Day_'
'Da'
'Criminal_'
'Charte_'
'CP'
'CA'
'Bruxelles_'
'Because_'
';: _'
'73_'
'29'
'24h_'
'2013_'
' ; _'
'za'
'vivre_'
'visible_'
'un'
'tri'
'track_'
'ten'
'supervision_'
'standing_'
'severe_'
'savons_'
'sauf_'
'régimes_'
'réels_'
'rue_'
'riches_'
'restent_'
'rejected_'
'pro_'
'prime_'
'penser_'
'path_'
'para'
'packages_'
'on'
'neuf_'
'mot_'
'milliers_'
'middle_'
'menaces_'
'maintaining_'
'lit_'
'li'
'laid_'
'keeping_'
'ise_'
'investors_'
'investisseurs_'
'intervenants_'
'ilité_'
'idéal_'
'félicite_'
'fiscale_'
'finding_'
'financer_'
'finalement_'
'expliquer_'
'expenses_'
'détention_'
'déchets_'
'débats_'
'droite_'
'device_'
'critique_'
'concentration_'
'components_'
'complexe_'
'complet_'
'ci'
'character_'
'category_'
'cash_'
'cally_'
'bu'
'audit_'
'attaques_'
'assure_'
'apprentissage_'
'alimentation_'
'ales_'
'achievement_'
'Za'
'Z_'
'Sé'
'Switzerland_'
'Secrétariat_'
'Ra'
'Pro'
'Pologne_'
'Pendant_'
'Palestiniens_'
'Media_'
'Lake_'
'Kong_'
'IP_'
'IP'
'Har'
'HA'
'Guinea_'
'Family_'
'FE'
'Département_'
'Christ_'
'Child_'
'Chi'
'Al'
'AD'
';'
': “_'
': "_'
': '
'92_'
'6'
'23'
') : _'
'''
' » (_'
'â'
'za_'
'worth_'
'wood_'
'welfare_'
'weight_'
'viable_'
'vehicles_'
'units_'
'tés_'
'transformation_'
'trading_'
'thème_'
'textes_'
'taxation_'
'stations_'
'spent_'
'sortie_'
'solide_'
'ski_'
'sets_'
'réellement_'
'russe_'
'ration_'
'que'
'quartier_'
'pénale_'
'préalable_'
'prepare_'
'pouvant_'
'possibles_'
'peaceful_'
'partly_'
'participé_'
'paiements_'
'outcomes_'
'occasions_'
'mérite_'
'mémoire_'
'motion_'
'moteur_'
'modes_'
'modalités_'
'mini_'
'lt_'
'locale_'
'livre_'
'lands_'
'intervenir_'
'instructions_'
'instamment_'
'indicate_'
'happened_'
'ha_'
'génération_'
'gri'
'girls_'
'gauche_'
'games_'
'filles_'
'fichier_'
'feu_'
'fabrication_'
'extraordinaire_'
'extended_'
'experienced_'
'estimated_'
'essentiels_'
'essais_'
'entered_'
'encouraging_'
'du'
'disposer_'
'devrions_'
'critiques_'
'constater_'
'congratulate_'
'comprennent_'
'bringing_'
'bear_'
'balanced_'
'attack_'
'asylum_'
'arrêt_'
'approximately_'
'appareils_'
'anciens_'
'aims_'
'affairs_'
'a'
'Venezuela_'
'UNDP_'
'Sweden_'
'Site_'
'Rwanda_'
'Rule_'
'Plusieurs_'
'Per'
'Pacifique_'
'PE'
'PDF_'
'OTAN_'
'Notes_'
'Nigeria_'
'Nice_'
'NATO_'
'Mediterranean_'
'Manitoba_'
'ME_'
'Leone_'
'Kenya_'
'IMF_'
'Grâce_'
'GA'
'ED_'
'Do'
'DU_'
'Czech_'
'Company_'
'Com'
'COM_'
'CEE_'
'Brunswick_'
'Austria_'
'Atlantic_'
'Airport_'
'; (_'
'61_'
'27'
'15'
'.._'
'.-_'
' «&#_'
'… _'
'élèves_'
'widespread_'
'wants_'
'véhicule_'
'vitesse_'
'vidéo_'
've'
'van_'
'tâches_'
'tu_'
'tensions_'
'sélection_'
'sé_'
'supplies_'
'suggestions_'
'ste_'
'spend_'
'showing_'
'seriously_'
'représentation_'
'recommendation_'
'quotas_'
'progresser_'
'premiers_'
'precisely_'
'pointed_'
'palestinien_'
'owing_'
'ourselves_'
'operate_'
'og'
'obtenu_'
'obligatoire_'
'ny_'
'ne'
'moving_'
'ministers_'
'marketing_'
'majeure_'
'lu'
'intégrer_'
'introduce_'
'imposition_'
'impacts_'
'im_'
'iii_'
'harmonisation_'
'guarantees_'
'genuine_'
'fi'
'faibles_'
'explain_'
'environnementale_'
'désarmement_'
'dépôt_'
'différences_'
'devices_'
'devez_'
'devenu_'
'den_'
'delivered_'
'defense_'
'cro'
'contrary_'
'considérablement_'
'considérable_'
'conforme_'
'comply_'
'comfort_'
'climat_'
'classification_'
'civilian_'
'chers_'
'characteristics_'
'changer_'
'candidat_'
'bur'
'ay_'
'autorisation_'
'ar'
'approaches_'
'applique_'
'animals_'
'aircraft_'
'adoptées_'
'acquisition_'
'accidents_'
'Where_'
'Val'
'Tu'
'Tax_'
'TRANS_'
'Royal_'
'Parti_'
'PCT_'
'ONG_'
'News_'
'Nevertheless_'
'Martin_'
'Lo'
'Islam_'
'Instead_'
'IS_'
'Her'
'Further_'
'Foundation_'
'Environmental_'
'Eastern_'
'Do_'
'Democrats_'
'Colombia_'
'Clinton_'
'Belgium_'
'Beijing_'
'Based_'
'Ar'
'Agenda_'
'7'
'68_'
'66_'
'50'
'25'
'. _'
')(_'
'élimination_'
'élection_'
'écran_'
'  _'
'ys_'
'woman_'
'whatever_'
'véritablement_'
'voyage_'
'violent_'
'vast_'
'vacances_'
'utilisée_'
'ue'
'ture_'
'truth_'
'trends_'
'territories_'
'taxe_'
'tabled_'
'summary_'
'strongly_'
'street_'
'specialized_'
'south_'
'somme_'
'ser'
'sensibilisation_'
'sections_'
'secrétaire_'
'salles_'
'régulièrement_'
'réduite_'
'ri'
'revenue_'
'researchers_'
'raient_'
'radical_'
'prestations_'
'plant_'
'pa'
'out'
'négociation_'
'nu'
'nomination_'
'mé'
'movements_'
'minorities_'
'mené_'
'mainly_'
'ley_'
'launched_'
'juge_'
'involves_'
'inscrit_'
'infection_'
'indicateurs_'
'incentives_'
'iez_'
'hu'
'généraux_'
'ger_'
'functions_'
'fondamentale_'
'fields_'
'fees_'
'entirely_'
'employé_'
'emphasis_'
'dépend_'
'défendre_'
'download_'
'dimensions_'
'description_'
'counter_'
'correspond_'
'contenant_'
'conférences_'
'component_'
'compagnies_'
'commerciale_'
'clause_'
'chacune_'
'catastrophe_'
'carbone_'
'avancés_'
'authorized_'
'applicables_'
'ances_'
'activement_'
'Ve'
'Ti'
'Shi'
'School_'
'ON'
'Na'
'Mon'
'Lors_'
'Le'
'Just_'
'Joint_'
'Hussein_'
'Ho'
'He'
'Google_'
'Du'
'Del'
'Brussels_'
'Bas_'
'AS'
'86_'
'120_'
''
'ène_'
'utilise_'
'undertake_'
'tôt_'
'trouverez_'
'troops_'
'threats_'
'teurs_'
'susceptible_'
'successfully_'
'sub'
'story_'
'stade_'
'signé_'
'significantly_'
'servi_'
'salaires_'
'root_'
'respective_'
'requête_'
'represent_'
'recession_'
'raising_'
'quiet_'
'provisoire_'
'prove_'
'prolifération_'
'profits_'
'prestation_'
'plenary_'
'ple'
'played_'
'our'
'observation_'
'néanmoins_'
'mi_'
'merely_'
'meaning_'
'maritime_'
'limitée_'
'learned_'
'laisser_'
'ji'
'iné'
'invasion_'
'intérieure_'
'intitulé_'
'interface_'
'inform_'
'improvements_'
'identifier_'
'ht'
'historiques_'
'heureux_'
'heard_'
'gone_'
'generation_'
'fixed_'
'fe'
'familiale_'
'facteur_'
'exportation_'
'euse_'
'ethniques_'
'espagnol_'
'ery_'
'environnementaux_'
'effectuer_'
'do'
'directe_'
'detention_'
'deliver_'
'culturels_'
'courts_'
'consulter_'
'constitute_'
'confusion_'
'conduite_'
'concours_'
'compatible_'
'committees_'
'comités_'
'colleagues_'
'cli'
'cité_'
'circonstances_'
'camps_'
'cadres_'
'burden_'
'bri'
'brevets_'
'break_'
'born_'
'binding_'
'ba_'
'author_'
'ates_'
'arrivée_'
'appropriée_'
'annuelle_'
'ana'
'amended_'
'accepté_'
'Vi'
'Ver'
'Vancouver_'
'VI_'
'Suède_'
'Soviet_'
'Source_'
'Saudi_'
'Occident_'
'OR'
'Network_'
'Ne'
'NI'
'Implementation_'
'Gi'
'Following_'
'DS_'
'Chamber_'
'Aux_'
'As'
'AP'
'A5_'
'700_'
'63_'
'2012_'
'1987_'
'191'
'11'
', (_'
'%_'
'� _'
'équipement_'
'»._'
'unit_'
'underlying_'
'tte_'
'television_'
'targeted_'
'tan'
'talk_'
'sé'
'summer_'
'souhaitez_'
'sexes_'
'settlement_'
'server_'
'sement_'
'secret_'
'seconde_'
'sauna_'
'rurales_'
'residence_'
'relever_'
'prospérité_'
'prosperity_'
'productivité_'
'poly'
'poids_'
'playing_'
'plainte_'
'paragraphes_'
'op'
'oir_'
'offrant_'
'officielle_'
'obtain_'
'né'
'montré_'
'modernes_'
'marche_'
'malheureusement_'
'mal'
'logiciels_'
'legitimate_'
'killed_'
'ition_'
'intergovernmental_'
'implique_'
'ien_'
'frontière_'
'fla'
'ff_'
'felt_'
'explained_'
'expenditure_'
'except_'
'ette_'
'effectivement_'
'détail_'
'décider_'
'dynamic_'
'dispute_'
'destinées_'
'den'
'ded_'
'correctement_'
'construire_'
'connexion_'
'conformité_'
'concrete_'
'command_'
'cohesion_'
'club_'
'chu'
'cho'
'cherche_'
'cam'
'blement_'
'bility_'
'becomes_'
'avancées_'
'avance_'
'auteurs_'
'appreciation_'
'anti'
'antes_'
'allemand_'
'adultes_'
'actively_'
'White_'
'Un'
'Trans'
'Time_'
'Te'
'Summary_'
'Su'
'Science_'
'Ru'
'Roumanie_'
'Red_'
'RC'
'Quant_'
'QUE_'
'Page_'
'PHP_'
'OCDE_'
'Nouveau_'
'Je'
'IN_'
'Gen'
'GR'
'Fax_'
'Européens_'
'Energy_'
'El_'
'Développement_'
'Decision_'
'Congress_'
'Communications_'
'Chambre_'
'Bar_'
'Balkans_'
'Argentine_'
'; '
'94_'
'30'
'2015_'
'192'
'. (_'
')'
'étroite_'
'zu'
'wing_'
'vivent_'
'visiteurs_'
'unlikely_'
'university_'
'understood_'
'tried_'
'to'
'tique_'
'suppression_'
'suffit_'
'substantive_'
'souligne_'
'smoking_'
'shopping_'
'senior_'
'réussi_'
'réel_'
'réaction_'
'represented_'
'remplir_'
'rapidly_'
'présentée_'
'protocole_'
'proliferation_'
'pourront_'
'possède_'
'possession_'
'picture_'
'permettrait_'
'parlementaires_'
'offrent_'
'noms_'
'ning_'
'nces_'
'logical_'
'laisse_'
'ko_'
'installer_'
'indépendant_'
'indiquer_'
'importation_'
'honorable_'
'her'
'grant_'
'futur_'
'funded_'
'functioning_'
'ft_'
'française_'
'findings_'
'fil_'
'farm_'
'exemption_'
'erreurs_'
'encouraged_'
'electoral_'
'el'
'détails_'
'démocratiques_'
'découvrir_'
'décennies_'
'dia'
'dehors_'
'dangereux_'
'da'
'convaincu_'
'contrôler_'
'contributed_'
'constructive_'
'commande_'
'cing_'
'choisi_'
'ches_'
'bro'
'bre'
'blood_'
'avions_'
'atteinte_'
'arts_'
'ara'
'acquis_'
'VI'
'Tri'
'Tra'
'Sudan_'
'Rock_'
'Ro'
'Political_'
'Police_'
'PI'
'Order_'
'OS'
'Monday_'
'Manager_'
'Lin'
'Good_'
'Fédération_'
'Fi'
'Draft_'
'De'
'DI'
'DE'
'Cyprus_'
'Congrès_'
'Compte_'
'Common_'
'Col'
'CF'
'Blair_'
'Bio'
'Bar'
'Ba'
'BCE_'
'Afin_'
'Affaires_'
'AC'
';» _'
'69_'
'4'
'32'
'1960_'
'193'
''
'émission_'
'á'
'», _'
'° _'
'weak_'
'vues_'
'voters_'
'vo'
'ttes_'
'tit'
'sérieux_'
'suggests_'
'subsequent_'
'subsection_'
'square_'
'soft_'
'sitting_'
'showed_'
'saw_'
'récession_'
'revenues_'
'remise_'
'relève_'
'regret_'
'refugee_'
'reflects_'
'receiving_'
'q_'
'pénal_'
'professionals_'
'producers_'
'presidency_'
'poursuite_'
'plants_'
'permit_'
'ped_'
'pe_'
'participating_'
'pan'
'outstanding_'
'output_'
'naturel_'
'multi'
'mor'
'minority_'
'me'
'manufacturing_'
'managers_'
'logement_'
'lis'
'liaison_'
'jeune_'
'ja'
'ir'
'io_'
'investigations_'
'interaction_'
'intelligence_'
'inclure_'
'helping_'
'hear_'
'happen_'
'hand'
'fumeurs_'
'fruit_'
'foundation_'
'flexible_'
'figurent_'
'fellow_'
'executive_'
'entrer_'
'enormous_'
'effectués_'
'désa'
'décrit_'
'dois_'
'distributed_'
'define_'
'deficits_'
'corporations_'
'considérables_'
'conclude_'
'commence_'
'cohésion_'
'closer_'
'chimiques_'
'cat'
'cartes_'
'carrying_'
'buildings_'
'bientôt_'
'believes_'
'automatically_'
'augmenté_'
'ato'
'atmosphère_'
'approprié_'
'anyone_'
'annonce_'
'ambiance_'
'allocation_'
'ah_'
'ade_'
'actuels_'
'acheter_'
'aa'
'Zimbabwe_'
'Youth_'
'Sustainable_'
'Rec'
'Provincial_'
'Permanent_'
'Palestinians_'
'PRO'
'OL'
'OC'
'NA'
'Mus'
'Michael_'
'Malheureusement_'
'Lu'
'Linux_'
'Ir'
'Guest_'
'Guatemala_'
'Greek_'
'Gra'
'Facilities_'
'Due_'
'Doha_'
'Colombie_'
'Check_'
'Che'
'Center_'
'CS'
'CO2_'
'Bulgaria_'
'Bre'
'Athlétisme_'
'Amsterdam_'
'Am'
'48'
'41'
'16'
'! _'
'о'
'évidence_'
'è'
'Église_'
'yourself_'
'water'
'ving_'
'uvre_'
'utilisant_'
'up'
'ul'
'truly_'
'tro'
'tomorrow_'
'ters_'
'tend_'
'teaching_'
'tab'
'su'
'sto'
'stes_'
'soldats_'
'sla'
'sis_'
'simples_'
'signal_'
'ships_'
'sen_'
'select_'
'réussite_'
'répondu_'
'remote_'
'recommend_'
'reaching_'
'ral_'
'r'
'questionnaire_'
'qualified_'
'proposée_'
'productive_'
'producing_'
'plénière_'
'permanente_'
'pensions_'
'peacekeeping_'
'passed_'
'pace_'
'orientations_'
'organisée_'
'organiser_'
'opposed_'
'nine_'
'na'
'ménages_'
'mi'
'lose_'
'lists_'
'liability_'
'lasting_'
'ite_'
'is'
'invitation_'
'intégré_'
'ines_'
'hydro'
'households_'
'helps_'
'heading_'
'gue_'
'got_'
'garder_'
'féliciter_'
'fresh_'
'fourni_'
'formulation_'
'foi_'
'father_'
'exemples_'
'ets_'
'ess_'
'entretien_'
'entend_'
'engager_'
'encontre_'
'en'
'elimination_'
'effectué_'
'dro'
'disposent_'
'displaced_'
'dettes_'
'depends_'
'demonstrate_'
'degré_'
'dedicated_'
'culturelle_'
'coverage_'
'courant_'
'connexes_'
'configuration_'
'communs_'
'combination_'
'cha'
'cations_'
'career_'
'bit_'
'bio'
'belief_'
'be'
'background_'
'auparavant_'
'adressée_'
'abus_'
'absolument_'
'aborder_'
'ab'
'Water_'
'Voir_'
'Treasury_'
'Their_'
'TO_'
'Sommet_'
'Rules_'
'Robert_'
'Représentant_'
'Portuguese_'
'Pa'
'Out'
'Nova_'
'Mor'
'Mont'
'Mon_'
'Mat'
'Ma'
'Luxembourg_'
'Lorsqu_'
'Jo'
'Iraqi_'
'ID'
'Free_'
'ES'
'ER_'
'EC'
'DR'
'CP_'
'CN'
'Bro'
'Best_'
'Administrative_'
'AM'
'79_'
'67_'
'44'
'43'
'1970_'
'.'
','
'" (_'
'”'
'ón_'
'í'
'éthique_'
'étendre_'
'électeurs_'
'Égypte_'
'zo'
'write_'
'wishes_'
'timely_'
'th'
'speech_'
'soutient_'
'soutenu_'
'souhaitent_'
'sor'
'societies_'
'signe_'
'sert_'
'sentence_'
'selection_'
'sa'
'résidence_'
'rt_'
'reproduction_'
'representing_'
'rencontre_'
'remember_'
'remaining_'
'raw_'
'ratio_'
'quantité_'
'pursue_'
'présentés_'
'préciser_'
'proved_'
'progressive_'
'professionnelles_'
'prioritaires_'
'pensons_'
'partenariats_'
'overcome_'
'ou'
'os'
'older_'
'observateurs_'
'no'
'navigation_'
'modifié_'
'lla'
'lié_'
'livres_'
'lie_'
'ku'
'islamique_'
'interim_'
'interesting_'
'interdit_'
'informer_'
'ine'
'importations_'
'immédiatement_'
'ille_'
'household_'
'hopes_'
'homes_'
'hearing_'
'greatest_'
'go'
'garanties_'
'gap_'
'functional_'
'formulaire_'
'favorables_'
'fan_'
'facts_'
'facility_'
'exposé_'
'es'
'equivalent_'
'equally_'
'ents_'
'enregistré_'
'eni'
'element_'
'electricity_'
'démarche_'
'délais_'
'dignity_'
'difficiles_'
'depend_'
'delay_'
'dar'
'croissante_'
'cri'
'correspondant_'
'convinced_'
'convergence_'
'constitutional_'
'consent_'
'comparaison_'
'coffre_'
'coeur_'
'cin'
'chercher_'
'che'
'chaîne_'
'cable_'
'c'
'bra'
'avancer_'
'auto'
'assurances_'
'arising_'
'appareil_'
'ama'
'administratives_'
'accueille_'
'accountability_'
'accise_'
'Year_'
'Ye'
'Ya'
'Wa'
'Veuillez_'
'Uni'
'Training_'
'Then_'
'TO'
'Syrie_'
'Star_'
'Secondly_'
'Réunion_'
'RS_'
'Putin_'
'Pre'
'Po'
'Parmi_'
'PP'
'PD'
'Ltd_'
'Limited_'
'Lebanon_'
'Indonesia_'
'In'
'ING_'
'Ha'
'Green_'
'Ghana_'
'Finland_'
'Fi_'
'Every_'
'EADS_'
'Dis'
'Dia'
'Deuxièmement_'
'Des'
'Countries_'
'Commentaires_'
'Certaines_'
'Car_'
'Car'
'CT'
'Before_'
'Barack_'
'Bangladesh_'
'BU'
'Application_'
'AL'
';; _'
'88_'
'83_'
'82_'
'72_'
'71_'
'28'
'110_'
'01'
'. '
'*_'
''
''
'ï'
'électricité_'
'ä'
' », _'
'ze'
'ya'
'worse_'
'whereas_'
'waiting_'
'wage_'
'vérifier_'
'vulnérables_'
'veux_'
'updated_'
'um'
'ultimately_'
'ts'
'trouvé_'
'trend_'
'transit_'
'traditionnels_'
'tendances_'
'teams_'
'tasks_'
'suites_'
'suffering_'
'submission_'
'spécifique_'
'sons_'
'silence_'
'sh_'
'serving_'
'san'
'révolution_'
'répression_'
'rémunération_'
'rose_'
'ri_'
'revanche_'
'ret'
'reserve_'
'remplacer_'
'register_'
'recommandé_'
're'
'putting_'
'puisqu_'
'précis_'
'pré'
'profile_'
'pressions_'
'prennent_'
'pit'
'peur_'
'perdu_'
'ouvre_'
'organe_'
'ordinary_'
'opération_'
'operators_'
'offres_'
'musulmans_'
'mostly_'
'mos'
'mortgage_'
'modernisation_'
'menée_'
'men'
'marked_'
'mari'
'machines_'
'lire_'
'lessons_'
'ker_'
'ke'
'japonais_'
'it'
'intégrée_'
'innovations_'
'indemnité_'
'incidents_'
'ici'
'humanity_'
'healthy_'
'head'
'ha'
'géo'
'gratuitement_'
'gra'
'gare_'
'gar'
'ga'
'forget_'
'fonctionne_'
'flexibility_'
'ffe'
'fermement_'
'faced_'
'existantes_'
'examined_'
'est'
'er'
'entente_'
'ent'
'economics_'
'décennie_'
'drinking_'
'door_'
'died_'
'destiné_'
'demain_'
'dead_'
'cuts_'
'courses_'
'copies_'
'contribue_'
'continuera_'
'constituer_'
'consommateur_'
'considering_'
'concentrations_'
'comporte_'
'commercialisation_'
'combattre_'
'collègue_'
'collapse_'
'clubs_'
'climatiques_'
'click_'
'cies_'
'cible_'
'chosen_'
'chair_'
'cast_'
'capture_'
'campaigns_'
'calling_'
'ca'
'behavior_'
'bain_'
'attached_'
'ast'
'assume_'
'asking_'
'arabes_'
'applicant_'
'appeared_'
'ambitious_'
'ali'
'aides_'
'adolescents_'
'ace'
'absolute_'
'abroad_'
']._'
'Without_'
'Wi_'
'WA'
'Voilà_'
'Turkish_'
'Technology_'
'Sur'
'Sta'
'Sen'
'Sarkozy_'
'SC_'
'Ren'
'Professor_'
'Peace_'
'Or'
'OP'
'Nobel_'
'Merkel_'
'Mal'
'MO'
'MD'
'Lord_'
'Legal_'
'Journal_'
'Island_'
'Interactive_'
'Guidelines_'
'Guerre_'
'Fe'
'Dès_'
'Burundi_'
'Breakfast_'
'Branch_'
'Annexe_'
'Adoption_'
'Access_'
'AV'
'95'
'90'
'81_'
'.  _'
'‑_'
'а'
'évidemment_'
'épargne_'
'È'
'zi'
'zero_'
'wo'
'warm_'
'war'
'voiture_'
'visée_'
'vaut_'
'valuable_'
'ut_'
'universités_'
'unités_'
'ums_'
'turned_'
'tur'
'trans'
'tourism_'
'touchant_'
'ti_'
'terrasse_'
'tentative_'
'technological_'
'statistique_'
'statistical_'
'sses_'
'ssement_'
'spoke_'
'socio_'
'smaller_'
'shape_'
'returns_'
'retraite_'
'religions_'
'rejoindre_'
'regimes_'
'reflète_'
'referendum_'
'ree'
'recommends_'
'rea'
'prévue_'
'prévisions_'
'précise_'
'proposées_'
'promises_'
'pou'
'plaisir_'
'permitted_'
'periods_'
'perdre_'
'paying_'
'passagers_'
'participant_'
'parent_'
'pare'
'ouvrir_'
'observed_'
'norme_'
'nic'
'ng'
'nement_'
'mouvements_'
'montrent_'
'mondiales_'
'mg_'
'légitimité_'
'listes_'
'length_'
'lar'
'la'
'ju'
'joué_'
'ization_'
'isation_'
'intentions_'
'inte'
'instances_'
'indication_'
'illes_'
'ile_'
'gre'
'gold_'
'freedoms_'
'formed_'
'flows_'
'flight_'
'falls_'
'fa'
'exposure_'
'existent_'
'excellence_'
'examples_'
'eva'
'essence_'
'environnementales_'
'enta'
'email_'
'eliminate_'
'efficacement_'
'dou'
'disasters_'
'designated_'
'des'
'customs_'
'criminalité_'
'couple_'
'corresponding_'
'considérée_'
'considers_'
'confirmé_'
'confirm_'
'concentrer_'
'complexes_'
'command'
'collectivité_'
'cis'
'cinquième_'
'chiffres_'
'certification_'
'cer'
'capabilities_'
'calcul_'
'attirer_'
'attaquer_'
'ateurs_'
'assign'
'arrested_'
'arrangement_'
'armées_'
'argued_'
'appliqué_'
'appliquent_'
'appartenant_'
'ancienne_'
'amp_'
'admission_'
'Yugoslavia_'
'Technical_'
'Supreme_'
'Strasbourg_'
'So'
'SU'
'Roma_'
'Question_'
'Products_'
'Prague_'
'Port_'
'Ph'
'Partnership_'
'PS'
'Officer_'
'Nor_'
'No'
'Mu'
'Macedonia_'
'MP_'
'Like_'
'Life_'
'LI'
'Kuwait_'
'IF'
'Gor'
'Earth_'
'EP'
'EL'
'Droits_'
'Customs_'
'Co_'
'Chapter_'
'Australie_'
'Arabia_'
'91_'
'68'
'62_'
'49'
'34'
''
'” (_'
'—_'
'êtres_'
'électorale_'
'éa'
'ènes_'
'west_'
'vérité_'
'vivant_'
'vite_'
'visés_'
'vir'
'va'
'usually_'
'us'
'uns_'
'unacceptable_'
'tures_'
'troubles_'
'travaillent_'
'travaille_'
'transportation_'
'tourist_'
'tis'
'tellement_'
'supérieure_'
'suitable_'
'st'
'soumettre_'
'sou'
'sixth_'
'shower_'
'shift_'
'serveur_'
'secondary_'
'scène_'
'répartition_'
'réelle_'
'reviewed_'
'reprises_'
'represents_'
'rem'
'rappelle_'
'q'
'pti'
'positif_'
'player_'
'pire_'
'performances_'
'ownership_'
'officiels_'
'officielles_'
'nourriture_'
'non'
'noise_'
'mountain_'
'mon'
'minister_'
'milliard_'
'menées_'
'makers_'
'mains_'
'logique_'
'liée_'
'lies_'
'licences_'
'libéralisation_'
'liberal_'
'levée_'
'kr_'
'knows_'
'ja_'
'ière_'
'ives_'
'irré'
'ira_'
'involve_'
'install_'
'input_'
'industriel_'
'humanitaires_'
'hot_'
'hoc_'
'green_'
'geographical_'
'fr_'
'fournis_'
'films_'
'fication_'
'ferme_'
'expand_'
'existants_'
'ex'
'entrepris_'
'eng'
'effectuée_'
'east_'
'duties_'
'destinés_'
'demandent_'
'célèbre_'
'culturelles_'
'contributing_'
'concernés_'
'commis_'
'collecte_'
'codes_'
'can'
'bénéficiaires_'
'bons_'
'believed_'
'aérien_'
'au'
'attentes_'
'assumed_'
'assessed_'
'arrears_'
'appropriées_'
'app'
'an'
'airport_'
'actors_'
'acquérir_'
'accueillir_'
'accordée_'
'acceptance_'
'abandon_'
'We'
'Unit_'
'Staff_'
'Serbie_'
'Sa_'
'Sa'
'Road_'
'Paper_'
'PT_'
'Old_'
'Number_'
'Nov'
'My'
'Moldova_'
'Man'
'Mala'
'Ji'
'IM'
'Ger'
'Fisheries_'
'Express_'
'Ed'
'DO'
'Contact_'
'Club_'
'Ca'
'CO'
'CM'
'CAR'
'Bay_'
'An'
'Ac'
'AN_'
'AL_'
'ACP_'
'8'
'74_'
'190'
'#_'
' . . _'
'workshops_'
'work'
'walking_'
'voyageurs_'
'voter_'
'villages_'
'victoire_'
'veuillez_'
'vely_'
'utiles_'
'undertaking_'
'traduction_'
'traditionnelles_'
'tim'
'tested_'
'technologiques_'
'tarif_'
'tangible_'
'talks_'
'tables_'
'sustainability_'
'suicide_'
'stri'
'ster_'
'ssi'
'spéciaux_'
'sorti'
'située_'
'sho'
'shares_'
'sexe_'
'servent_'
'sea'
'screen_'
'scheduled_'
'saving_'
'satisfaire_'
'sang_'
'récentes_'
'réa'
'routes_'
'rez_'
'revenir_'
'retirement_'
'replace_'
'remédier_'
'rd_'
'rang_'
'rance_'
'rai_'
'présentées_'
'proof_'
'programming_'
'proc'
'prisonniers_'
'prisoners_'
'presentation_'
'posts_'
'pla'
'pertinentes_'
'penalty_'
'partager_'
'park_'
'ouest_'
'obtenus_'
'observe_'
'northern_'
'north_'
'negotiating_'
'naissance_'
'multiple_'
'mauvaise_'
'marriage_'
'majeur_'
'lou'
'ki'
'ium_'
'ional_'
'invest_'
'ing'
'informatique_'
'indications_'
'incidences_'
'immobilier_'
'ied_'
'humanité_'
'honneur_'
'holds_'
'hi_'
'hi'
'hen'
'heads_'
'habitat_'
'guidance_'
'guaranteed_'
'fragile_'
'fournisseurs_'
'foot_'
'fle'
'fasse_'
'extrême_'
'eu'
'estimations_'
'eo'
'envoyer_'
'entre'
'enti'
'engagés_'
'els_'
'ei'
'ee'
'eb'
'déployés_'
'démocrates_'
'dumping_'
'dor'
'donor_'
'disponibilité_'
'disant_'
'dis'
'devenue_'
'determining_'
'depending_'
'dealt_'
'dates_'
'crée_'
'courage_'
'counter'
'coopérer_'
'conviction_'
'conserver_'
'confortable_'
'composé_'
'categories_'
'cabinet_'
'bé'
'bound_'
'books_'
'bes_'
'barriers_'
'attaque_'
'associé_'
'asset_'
'armés_'
'argue_'
'appuie_'
'appels_'
'aine_'
'ain_'
'africains_'
'affirmé_'
'affectation_'
'administrations_'
'adjustment_'
'acquired_'
'Yo'
'Within_'
'WG_'
'VA'
'Taiwan_'
'TE_'
'Sub_'
'Status_'
'Ses_'
'Scientific_'
'Sau'
'ST'
'SE'
'Rica_'
'Questions_'
'Prince_'
'Philippines_'
'Peter_'
'PO'
'PA_'
'Open_'
'OSCE_'
'Norway_'
'NG_'
'Museum_'
'Kim_'
'IC_'
'Hezbollah_'
'Fa'
'Exchange_'
'Euro_'
'Enterprise_'
'Employment_'
'El'
'Ei'
'EM'
'EA_'
'Côte_'
'Cu'
'Contracting_'
'Commerce_'
'Cold_'
'Caribbean_'
'C5_'
'Ben'
'Archives_'
'Angola_'
'Ad'
'ATION_'
'AS_'
'AG'
'AE'
'89_'
'42'
'39'
'14'
'04'
'.)_'
'('
' &_'
'н'
'îles_'
'évident_'
'établis_'
'équipes_'
'énorme_'
'édition_'
'· _'
'yl'
'wars_'
'wages_'
'voyages_'
'uncertainty_'
'ug'
'témoins_'
'topics_'
'terrorists_'
'tal_'
'surprising_'
'surplus_'
'supprimer_'
'substantially_'
'storage_'
'stic_'
'stake_'
'sized_'
'sixième_'
'signs_'
'si'
'sharp_'
'rer_'
'representation_'
'renewed_'
'remove_'
'remettre_'
'relance_'
'regularly_'
'recon'
'présents_'
'protocol_'
'proposer_'
'pri'
'preventing_'
'pr'
'pouvaient_'
'potentially_'
'portion_'
'pic'
'percentage_'
'per'
'payable_'
'patent_'
'parfaitement_'
'palestinienne_'
'pacifique_'
'organised_'
'ona'
'officer_'
'oa'
'numérique_'
'nti'
'ned_'
'médicaux_'
'mp'
'moved_'
'mondiaux_'
'mobility_'
'mine_'
'match_'
'master_'
'législatif_'
'lots_'
'limitations_'
'limitation_'
'ld_'
'ize_'
'ities_'
'investir_'
'instruction_'
'injury_'
'ie'
'ians_'
'hy'
'générations_'
'gi'
'genetic_'
'gan'
'frequently_'
'fourniture_'
'forth_'
'fondamental_'
'fishermen_'
'ferroviaire_'
'fans_'
'faisons_'
'extérieure_'
'expériences_'
'exprimé_'
'explore_'
'exists_'
'exige_'
'exceptional_'
'examination_'
'eventually_'
'ethical_'
'estiment_'
'estimate_'
'essentielle_'
'essai_'
'esc'
'envisager_'
'ends_'
'enabling_'
'elo'
'détenus_'
'démo'
'déficits_'
'déclin_'
'doesn_'
'dly_'
'diverse_'
'dispositif_'
'directrices_'
'declared_'
'datée_'
'courriel_'
'couleur_'
'conversion_'
'contrôles_'
'consacré_'
'con_'
'comprenant_'
'complaints_'
'comparable_'
'combien_'
'col'
'choices_'
'cap'
'box_'
'bout_'
'belle_'
'aw'
'auxquelles_'
'aspirations_'
'arrêter_'
'appointment_'
'ampleur_'
'agréable_'
'agences_'
'ag'
'africaine_'
'administratif_'
'adapter_'
'YORK_'
'Vo'
'UNCTAD_'
'Toute_'
'Ten'
'Taliban_'
'Sou'
'Si'
'Server_'
'Serbia_'
'Scotia_'
'SE_'
'RÉ'
'Re'
'Qua'
'Private_'
'Pourquoi_'
'Pin'
'Partie_'
'PS_'
'NT_'
'NT'
'Mou'
'Londres_'
'Ivoire_'
'Internal_'
'IR'
'GI'
'Front_'
'FR_'
'Deux_'
'Delegation_'
'Dar'
'DC_'
'Culture_'
'Ci'
'Care_'
'Bou'
'Bill_'
'Assistance_'
'AI'
'67'
'52'
'26'
'21'
'2020_'
'200'
'-'
') _'
') [_'
'$ _'
' >_'
'événement_'
'élevée_'
'échéant_'
'é'
'worst_'
'welcomes_'
'warning_'
'volontaire_'
'visiter_'
'viennent_'
'vert_'
'utilisent_'
'ura'
'ty'
'transaction_'
'technologique_'
'survival_'
'subsidies_'
'su_'
'struggle_'
'spacious_'
'sky_'
'servi'
'sensible_'
'seminars_'
'sel'
'salon_'
'sais_'
'récents_'
'rr'
'riche_'
'retirer_'
'restricted_'
'ren'
'remboursement_'
'reconnus_'
'rare_'
'railway_'
'quo_'
'qui'
'quels_'
'qua'
'pur'
'publicly_'
'publicité_'
'présentes_'
'préoccupation_'
'précédemment_'
'provisional_'
'pres'
'post'
'policymakers_'
'placé_'
'pilote_'
'personnelles_'
'perform_'
'participated_'
'parlé_'
'parlement_'
'oti'
'ord'
'oppose_'
'ok'
'officiel_'
'occupied_'
'noter_'
'normally_'
'nit'
'ngs_'
'nel_'
'médecins_'
'mère_'
'mu'
'mineurs_'
'min_'
'mentale_'
'matin_'
'masse_'
'marques_'
'listing_'
'les'
'len'
'jurisdiction_'
'joined_'
'ises_'
'intéressés_'
'introduire_'
'introducing_'
'interpretation_'
'informé_'
'infections_'
'incurred_'
'ina'
'illness_'
'ight_'
'ida'
'huit_'
'heritage_'
'heavy_'
'h00_'
'grown_'
'gouvernementaux_'
'globalisation_'
'gin'
'generate_'
'gagner_'
'fying_'
'friend_'
'fraude_'
'fou'
'football_'
'figurant_'
'fifth_'
'exécutif_'
'exceptions_'
'espérons_'
'error_'
'entraîner_'
'entities_'
'engineering_'
'endo'
'employers_'
'effectuées_'
'ect'
'economists_'
'dépit_'
'duration_'
'divisions_'
'directed_'
'difficulté_'
'diagnostic_'
'di'
'de'
'constant_'
'confrontés_'
'confrontation_'
'conf'
'concrètes_'
'concert_'
'completion_'
'competence_'
'combating_'
'clo'
'clinical_'
'climatisation_'
'cles_'
'chute_'
'chemical_'
'chauffage_'
'chargée_'
'care'
'calendrier_'
'bénéficie_'
'bridge_'
'bottom_'
'block_'
'bla'
'biggest_'
'battle_'
'basée_'
'back'
'autrement_'
'automatiquement_'
'attente_'
'arrival_'
'appreciate_'
'ano_'
'angle_'
'alia_'
'ale'
'advisory_'
'ado'
'accroissement_'
'accomplis_'
'accessibles_'
'Ze'
'Yukon_'
'Yu'
'UN'
'Tre'
'Tibet_'
'Three_'
'Syrian_'
'Station_'
'Sri_'
'Société_'
'Small_'
'Situé_'
'Ser'
'ST_'
'SD'
'SA_'
'Revenue_'
'Qu_'
'Power_'
'Pen'
'Pay'
'PH'
'On'
'Ol'
'OT'
'OMS_'
'OD'
'Nu'
'Nombre_'
'Mer'
'MP'
'Luc'
'Lou'
'Library_'
'King_'
'Iranian_'
'Indonésie_'
'Hel'
'Guilty_'
'Governing_'
'Financing_'
'Fin'
'Fed_'
'Entre_'
'En'
'ER'
'Défense_'
'Drug_'
'Deputy_'
'Dan'
'Constitutional_'
'Communication_'
'Case_'
'CO_'
'CH'
'Bosnie_'
'Ban'
'BC_'
'Aussi_'
'Appendix_'
'Ali'
'94'
'80'
'75'
'70'
'35'
'1982_'
'17'
'03'
' � _'
' ... _'
''
'ö'
'île_'
'ê'
'éva'
'étudier_'
'âgées_'
'á_'
'workplace_'
'white_'
'wait_'
'voulu_'
'visits_'
'vieux_'
'vieille_'
'vent_'
'valid_'
'uns'
'troupes_'
'treaties_'
'transmettre_'
'transfers_'
'traditionnelle_'
'topic_'
'the'
'terrible_'
'terrace_'
'teachers_'
'surrounding_'
'supplied_'
'strengthened_'
'stands_'
'souveraineté_'
'souhaiterais_'
'someone_'
'soir_'
'sexuelle_'
'sensibles_'
'seeing_'
'sample_'
'sal'
'réchauffement_'
'ré'
'rou'
'rob'
'rightly_'
'revient_'
'retrait_'
'resulted_'
'respondents_'
'représenter_'
'replaced_'
'reliable_'
'refused_'
'recrutement_'
'reconciliation_'
'ram'
'raisonnable_'
'quelconque_'
'puissant_'
'présentent_'
'précieux_'
'promise_'
'proceed_'
'printemps_'
'preparing_'
'preliminary_'
'precise_'
'possibly_'
'pleasant_'
'platform_'
'plage_'
'physiques_'
'pertinents_'
'pending_'
'peines_'
'passant_'
'partnerships_'
'parliament_'
'pal'
'oy'
'ore_'
'ore'
'op_'
'oni'
'ology_'
'ole'
'offence_'
'ocean_'
'occurred_'
'neuvième_'
'narrow_'
'myself_'
'moyennes_'
'mortality_'
'moments_'
'micro'
'mettent_'
'metres_'
'meant_'
'managing_'
'logy_'
'logi'
'lits_'
'lev'
'lay'
'launch_'
'late'
'lap'
'landscape_'
'land'
'ked_'
'judge_'
'ières_'
'iti'
'istes_'
'industrielle_'
'illégale_'
'illa'
'ia'
'htm_'
'holder_'
'highlighted_'
'hauts_'
'handicapés_'
'génétique_'
'grants_'
'gle'
'ght_'
'geo'
'ge'
'founded_'
'foster_'
'fixé_'
'fiscaux_'
'financed_'
'finale_'
'fill_'
'feeling_'
'farming_'
'extreme_'
'extra'
'expense_'
'exactly_'
'entreprendre_'
'engaged_'
'enables_'
'emplacement_'
'eli'
'ele'
'ein'
'dés'
'drawing_'
'donnent_'
'disabilities_'
'directions_'
'diplomatique_'
'didn_'
'derived_'
'depth_'
'dependent_'
'demi_'
'cy'
'ction_'
'cti'
'croissant_'
'criticism_'
'covering_'
'cooperate_'
'controlled_'
'consentement_'
'cons'
'conformes_'
'clos_'
'chi'
'centuries_'
'carefully_'
'car'
'broader_'
'boost_'
'black_'
'bis_'
'biennal_'
'ban'
'attitudes_'
'ative_'
'assa'
'apprendre_'
'ap'
'anniversaire_'
'advantages_'
'adults_'
'adoptés_'
'West'
'War'
'US'
'Tur'
'Thank_'
'Tel_'
'Sécurité_'
'Syria_'
'Swiss_'
'Suisse_'
'Stratégie_'
'Ste'
'SR_'
'Results_'
'Rappelant_'
'Pu'
'Prodi_'
'Persons_'
'NE_'
'Muslims_'
'Multi'
'Mi'
'Med'
'Market_'
'Line_'
'Liban_'
'LO'
'Jordan_'
'Inn_'
'Hon'
'Heritage_'
'Han'
'HE'
'GO'
'Friday_'
'Figure_'
'DP'
'Clients_'
'Chypre_'
'Chair_'
'Ceux_'
'Cal'
'CIHR_'
'Bra'
'Bel'
'Barroso_'
'BO'
'Autres_'
'Auto'
'Art_'
'Are_'
'Anti'
'Algeria_'
'54'
'51'
'46'
'37'
'212_'
'130_'
'13'
'105_'
', « _'
'):_'
'%) _'
' : '
' /_'
''
' '
' (_'
'…'
'т'
'ît_'
'éventuellement_'
'étroitement_'
'équité_'
'élu_'
'É_'
'© _'
'window_'
'wider_'
'ware_'
'wall_'
'voit_'
'voice_'
'visa_'
'vin_'
'vac'
'uti'
'urged_'
'upper_'
'und_'
'ud'
'uc'
'ua'
'trente_'
'tre_'
'transf'
'tiques_'
'time'
'tenter_'
'tenant_'
'tchèque_'
'séjourner_'
'subsequently_'
'stimulus_'
'ste'
'spécialement_'
'soutenue_'
'ski'
'similaires_'
'significance_'
'seeks_'
'scolaire_'
'saisir_'
'répond_'
'ry'
'restructuring_'
'restriction_'
'resolved_'
'rend'
'relevance_'
'relationships_'
'rejet'
'refers_'
'rail_'
'radio'
'racism_'
'périodes_'
'pure_'
'présidents_'
'promised_'
'print_'
'presents_'
'prescriptions_'
'portent_'
'politically_'
'ple_'
'placement_'
'pi'
'phénomène_'
'personnelle_'
'perception_'
'pensent_'
'participent_'
'paramètres_'
'originally_'
'oriented_'
'oo'
'ond'
'oli'
'of'
'observers_'
'ob'
'nés_'
'nommé_'
'newly_'
'negotiated_'
'nc'
'méta'
'municipal_'
'motifs_'
'modifiée_'
'minimal_'
'metal_'
'memory_'
'load_'
'lo'
'll'
'lin_'
'legitimacy_'
'latter_'
'lancement_'
'lam'
'kilomètres_'
'juges_'
'judges_'
'journaux_'
'joueurs_'
'italien_'
'ire'
'ion'
'internally_'
'inscrire_'
'infractions_'
'inde'
'import_'
'imagine_'
'ig'
'ics_'
'ica'
'ic'
'ib'
'hit_'
'happy_'
'happens_'
'gs_'
'glo'
'garden_'
'fy_'
'fulfil_'
'fraud_'
'ford_'
'for'
'filing_'
'female_'
'eyes_'
'exploiter_'
'explanation_'
'expanded_'
'excess_'
'evaluate_'
'ett'
'ert'
'envoyé_'
'enjeux_'
'enhancing_'
'enhanced_'
'enfance_'
'enf'
'ek_'
'eighth_'
'ef'
'ed'
'déploiement_'
'définitive_'
'défini_'
'déclarer_'
'drop_'
'drogue_'
'dra'
'don'
'distinct_'
'directeurs_'
'difficulty_'
'deployment_'
'deeply_'
'deemed_'
'decrease_'
'debates_'
'dd'
'cre'
'copyright_'
'coordinated_'
'continuous_'
'constitué_'
'consists_'
'considérés_'
'concernées_'
'complètement_'
'communiste_'
'combinaison_'
'certificate_'
'cc'
'bou'
'blo'
'birth_'
'biologique_'
'biennium_'
'berg_'
'bars_'
'bande_'
'bal'
'bains_'
'audio_'
'attended_'
'ats_'
'assisté_'
'asi'
'artists_'
'apporte_'
'appliquée_'
'apo'
'am'
'allons_'
'allocated_'
'aime_'
'agriculteurs_'
'adresser_'
'accompli_'
'Vol'
'VE'
'Travel_'
'Tele'
'TPS_'
'Stability_'
'Soudan_'
'Smoking_'
'Slovenia_'
'Sch'
'Sam'
'RU'
'Projet_'
'Procedure_'
'Pra'
'Pact_'
'PPE_'
'PME_'
'Montreal_'
'Monitoring_'
'Mis'
'Millénaire_'
'MS'
'KE'
'Irish_'
'Indi'
'ID_'
'Hu'
'Holy_'
'Georgia_'
'Geo'
'Gar'
'Ga'
'Européenne_'
'Et'
'Du_'
'Drugs_'
'Deuxième_'
'Dep'
'Dal'
'DA_'
'Cre'
'Conformément_'
'Conf'
'Conditions_'
'Click_'
'Cho'
'Charles_'
'Camp'
'CON'
'Box_'
'Beau'
'Aucune_'
'Air'
'Ag'
'Additional_'
'AP_'
'?'
':'
'900_'
'9'
'84_'
'78_'
'71'
'57'
'47'
'45'
'1985_'
'129_'
'.) _'
' ▪ _'
' %._'
'л'
'ía_'
'établies_'
'éni'
'élus_'
'élaboré_'
'écart_'
'ç'
'yr'
'xa'
'waters_'
'watch_'
'vé'
'vité_'
'visées_'
'visited_'
'virtually_'
'vin'
'via'
'verbal_'
'valoir_'
'vaccins_'
'universities_'
'universelle_'
'une'
'ul_'
'typical_'
'turning_'
'tu'
'tru'
'totalité_'
'terminer_'
'temperature_'
'super'
'suffisant_'
'suffered_'
'strict_'
'strength_'
'sti'
'spring_'
'sovereignty_'
'sovereign_'
'soumises_'
'sortir_'
'somewhat_'
'soil_'
'simplification_'
'sh'
'seventh_'
'sen'
'seat_'
'savent_'
'résultant_'
'résistance_'
'réside_'
'réparation_'
'réglementations_'
'réglementaire_'
'récent_'
'rythme_'
'ruling_'
'ros'
'retard_'
'retain_'
'restore_'
'repas_'
'remarks_'
'religieuses_'
'reg'
'recorded_'
'reaction_'
'rac'
'quick_'
'puts_'
'pursuing_'
'prévoir_'
'providers_'
'prot'
'preuves_'
'pon'
'poi'
'piscine_'
'pin'
'phones_'
'pe'
'pdf_'
'pay'
'paquet_'
'panel_'
'pain_'
'owner_'
'organise_'
'omi'
'offerts_'
'occuper_'
'occupe_'
'neighbouring_'
'necessarily_'
'nda'
'naturally_'
'médecine_'
'my'
'min'
'miles_'
'micro_'
'marks_'
'manufacturers_'
'manu'
'mant'
'législatives_'
'luxury_'
'lt'
'log'
'lobby_'
'leisure_'
'leaving_'
'ken'
'kar'
'justifier_'
'justification_'
'iste_'
'invention_'
'internationally_'
'ino'
'infraction_'
'indicates_'
'inclus_'
'immense_'
'ili'
'idi'
'ice_'
'hoped_'
'harm_'
'gradually_'
'governing_'
'gen'
'furniture_'
'four'
'fort'
'fondé_'
'fonctionner_'
'focusing_'
'flexibilité_'
'fabricants_'
'ext'
'expulsion_'
'exit_'
'exempt_'
'exclusively_'
'ethnique_'
'et'
'espérer_'
'esp'
'environments_'
'entités_'
'entering_'
'engagé_'
'enabled_'
'employed_'
'edi'
'déclare_'
'duquel_'
'drivers_'
'dommages_'
'discharge_'
'disability_'
'diminution_'
'dignité_'
'dig'
'différent_'
'dh'
'derrière_'
'demanding_'
'delegations_'
'cutting_'
'customer_'
'cur'
'conventional_'
'convaincre_'
'contribuent_'
'contents_'
'connected_'
'conciliation_'
'compréhension_'
'comparison_'
'compagnie_'
'combine_'
'cle_'
'citizen_'
'chief_'
'cars_'
'carrière_'
'boom_'
'bo_'
'bil'
'beings_'
'bath_'
'automobile_'
'attempts_'
'ati'
'appoint_'
'apparent_'
'annually_'
'alle'
'advertising_'
'adds_'
'ad'
'acting_'
'accélérer_'
'accurate_'
'acc'
'Wi'
'Very_'
'VO'
'UNHCR_'
'Tor'
'Task_'
'TP'
'Storage_'
'Statistics_'
'Space_'
'Spa_'
'Sec'
'Sal'
'SL'
'Ré'
'Reserve_'
'Requests_'
'Promotion_'
'Première_'
'Port'
'Plat'
'Ou'
'Os'
'Olympic_'
'OS_'
'Net_'
'NRC_'
'Myanmar_'
'Morocco_'
'Merci_'
'Mel'
'Mc'
'MS_'
'List_'
'Libya_'
'Language_'
'Land'
'Ke'
'Jusqu_'
'James_'
'Jacques_'
'Investment_'
'ILO_'
'Head_'
'Having_'
'Habitat_'
'Ge'
'GN'
'Fr'
'Fondation_'
'FC'
'Ex'
'Evaluation_'
'Esta'
'DÉ'
'Donc_'
'Desk_'
'Design_'
'Deposit_'
'Defence_'
'DVD_'
'Corporate_'
'Cha'
'Caraïbes_'
'Cam'
'CC_'
'BE'
'Au'
'Area_'
'AN'
'76'
'61'
'1986_'
'18'
'...._'
' «&_'
'  _'
'е'
'œuvres_'
'éri'
'érer_'
'ére'
'éné'
'énormes_'
'énergétiques_'
'électroniques_'
'échantillon_'
'Étant_'
'»'
'yes_'
'ye'
'workshop_'
'willing_'
'western_'
'websites_'
'vouloir_'
'voies_'
'visas_'
'violences_'
'vet'
'variables_'
'urg_'
'unt'
'unions_'
'ude'
'u0027'
'tours_'
'touche_'
'totally_'
'tors_'
'tor_'
'tone_'
'tly_'
'titulaire_'
'theory_'
'tentatives_'
'tension_'
'talking_'
'tain'
'tabac_'
'séminaire_'
'systématiquement_'
'sum_'
'succeed_'
'student_'
'ster'
'stance_'
'spécialistes_'
'speakers_'
'spa_'
'soin_'
'signaler_'
'sens'
'sell_'
'scolaires_'
'scheme_'
'salaire_'
'ré_'
'runs_'
'roads_'
'risquent_'
'resistance_'
'reservation_'
'renouvelables_'
'rena'
'relax_'
'refuse_'
'red'
'reconnaît_'
'rc'
'ras'
'raciale_'
'ra'
'père_'
'présentant_'
'préc'
'propriétaire_'
'proposes_'
'privacy_'
'pra'
'pol'
'plaintes_'
'pièce_'
'partisans_'
'organizational_'
'ores_'
'opposite_'
'opportunités_'
'om_'
'ola'
'nted_'
'nse'
'ns'
'noté_'
'norms_'
'nk'
'nationals_'
'mother_'
'morts_'
'morale_'
'monthly_'
'montants_'
'mol'
'moindre_'
'mo_'
'ming_'
'matériaux_'
'mar'
'maisons_'
'mailman_'
'lla_'
'linguistic_'
'li_'
'lending_'
'lation_'
'lat'
'ky_'
'jouent_'
'jou'
'jardin_'
'jan'
'iv_'
'island_'
'iser_'
'intéressant_'
'integrity_'
'insufficient_'
'initiated_'
'inequality_'
'indépendante_'
'in'
'impl'
'ime_'
'il'
'ienne_'
'ication_'
'hundred_'
'houses_'
'honour_'
'hon'
'hautes_'
'hat'
'ham_'
'gov_'
'gouvernementale_'
'gon'
'golf_'
'gne'
'gn'
'gio'
'generated_'
'fédéraux_'
'futurs_'
'furent_'
'filled_'
'fier_'
'fax_'
'familiales_'
'falling_'
'extérieures_'
'extradition_'
'exploration_'
'exploit_'
'expensive_'
'evening_'
'estimé_'
'essentially_'
'espèce_'
'employeurs_'
'em'
'een_'
'ear'
'déterminé_'
'définit_'
'driven_'
'dre_'
'dra_'
'dose_'
'display_'
'cycles_'
'cross'
'couverture_'
'correction_'
'cor'
'conçu_'
'constitutes_'
'connaissent_'
'conjointement_'
'confort_'
'confirmation_'
'con'
'compléter_'
'competent_'
'commit_'
'com'
'coffee_'
'coal_'
'clarify_'
'claimed_'
'chinoise_'
'cheap_'
'cer_'
'capables_'
'camera_'
'calme_'
'bénéficient_'
'borne_'
'bilatéraux_'
'ber_'
'behaviour_'
'awarded_'
'aviation_'
'assumer_'
'assigned_'
'asiatique_'
'as'
'arriver_'
'arise_'
'apporté_'
'appartient_'
'anniversary_'
'améliorations_'
'amp'
'alt'
'allant_'
'airports_'
'affecting_'
'adverse_'
'admissible_'
'adjustments_'
'achievements_'
'aba'
'Wo'
'Whether_'
'Wall_'
'Votre_'
'Uruguay_'
'UNECE_'
'Terre_'
'TS_'
'TH'
'Suite_'
'Square_'
'Sim'
'Sho'
'Rob'
'Reform_'
'RT'
'RR'
'Quel_'
'Publications_'
'Prix_'
'Prevention_'
'Plaza_'
'Place_'
'Over'
'Op'
'OI'
'OA'
'Nuclear_'
'Ne_'
'NEPAD_'
'Monetary_'
'Merc'
'Mali_'
'Ma_'
'Live_'
'Lithuania_'
'Lanka_'
'José_'
'Insurance_'
'IL'
'Hor'
'Headquarters_'
'Guests_'
'GE'
'Euro'
'Em'
'Dutch_'
'Documents_'
'Disarmament_'
'Directorate_'
'Denmark_'
'DU'
'DM'
'Croatia_'
'Country_'
'Class_'
'Chinois_'
'Chile_'
'Certes_'
'Cas'
'CA_'
'CANADA_'
'Ber'
'Ben_'
'Band'
'Az'
'Ay'
'Autriche_'
'Arabie_'
'Ai'
'AA'
'76_'
'62'
'36'
'1974_'
'194'
'12'
'/'
'))._'
'''_'
' ) _'
''
'évaluations_'
'ési'
'équivalent_'
'éo'
'ément_'
'ég'
'éclair'
'« _'
'«_'
'zéro_'
'yesterday_'
'yer_'
'ws_'
'witness_'
'wer'
'we'
'voi'
'verification_'
'veri'
'vendre_'
'var'
'val'
'université_'
'universitaires_'
'unfortunately_'
'undermine_'
'uk'
'ual_'
'télé'
'twice_'
'travellers_'
'travaillé_'
'transferts_'
'thèmes_'
'taire_'
'ta'
'sus'
'suffisante_'
'suffer_'
'subsidiary_'
'stressed_'
'stone_'
'sson_'
'ssant_'
'ssa'
'ss'
'speaker_'
'soviétique_'
'solely_'
'sir'
'significative_'
'she'
'scientists_'
'sb'
'savez_'
'sac'
'résidents_'
'répercussions_'
'rédaction_'
'repose_'
'remplacement_'
'religieux_'
'refuser_'
'recourir_'
'recall_'
'ratified_'
'rant_'
'qualifiés_'
'pé'
'pul'
'ption_'
'prévus_'
'programmation_'
'profondément_'
'processed_'
'prescribed_'
'prenant_'
'pratiquement_'
'pli'
'plays_'
'placer_'
'piece_'
'ph'
'permits_'
'passée_'
'passengers_'
'particulières_'
'paquets_'
'owners_'
'ow_'
'outlined_'
'ously_'
'oublier_'
'ot'
'ose'
'ordinaires_'
'opa'
'ont'
'ons'
'oire_'
'occidental_'
'obviously_'
'nor'
'nie'
'nia'
'nge'
'new'
'nette_'
'nets_'
'ner'
'naturellement_'
'nationality_'
'moto'
'monuments_'
'ministérielle_'
'minibar_'
'matériels_'
'mai'
'mac'
'lowest_'
'logistique_'
'lo_'
'lim'
'legally_'
'leaves_'
'lc'
'las_'
'jurisdictions_'
'journalists_'
'journalistes_'
'joue_'
'jeunesse_'
'isolation_'
'iso'
'io'
'invités_'
'ingly_'
'indiquent_'
'incorporated_'
'incompatible_'
'incapacité_'
'ign'
'iens_'
'ically_'
'hé'
'hr'
'honourable_'
'holders_'
'hier_'
'here'
'hardly_'
'handling_'
'hal'
'grade_'
'gli'
'gg'
'furnished_'
'ft'
'fournisseur_'
'fournie_'
'fore'
'fondées_'
'financé_'
'fied_'
'ffi'
'facultatif_'
'facto_'
'exactement_'
'everywhere_'
'eta'
'essayer_'
'erie_'
'ere_'
'equity_'
'entrepreneurs_'
'entity_'
'encourages_'
'ell_'
'déterminée_'
'ds'
'dri'
'disputes_'
'discussing_'
'directs_'
'diminué_'
'devaient_'
'destroy_'
'der'
'deco'
'dangers_'
'crédibilité_'
'credibility_'
'creative_'
'courte_'
'count'
'corporation_'
'cop'
'contre'
'contraintes_'
'constraints_'
'constaté_'
'consolider_'
'considèrent_'
'condamné_'
'complémentaires_'
'comp'
'commandes_'
'comm'
'collected_'
'collect'
'cm_'
'char'
'chapter_'
'chap_'
'certes_'
'cel'
'ce'
'cas'
'bâtiments_'
'brings_'
'bran'
'bo'
'bilan_'
'bel'
'beds_'
'bearing_'
'attractions_'
'att'
'ateliers_'
'at'
'assessments_'
'art'
'army_'
'ard'
'appropriés_'
'answers_'
'anim'
'ancient_'
'aménagement_'
'alliés_'
'allies_'
'alcohol_'
'air'
'ai'
'adopte_'
'adi'
'ade'
'] [_'
'Yes_'
'Winnipeg_'
'Wei'
'WC_'
'Vietnam_'
'UL'
'Tunisia_'
'Star'
'Se_'
'Schengen_'
'Sar'
'Sant'
'SF'
'Rotary_'
'Res'
'Region_'
'Recalling_'
'Qui_'
'Post'
'PM'
'Natural_'
'Nat'
'Musée_'
'Mozambique_'
'Mad'
'MC'
'Leur_'
'Lettre_'
'LC'
'Kar'
'Intergovernmental_'
'Index_'
'IO'
'IE'
'Hungary_'
'HO'
'HI'
'Géorgie_'
'Guinée_'
'Growth_'
'Gas'
'GU'
'GST_'
'GE_'
'Fort'
'Find_'
'Environnement_'
'Ele'
'Dra'
'Developing_'
'Desjardins_'
'Crime_'
'Cop'
'Coordination_'
'Con'
'Ce'
'Capital_'
'CB'
'Bulgarie_'
'Black_'
'Bal'
'BR'
'Aucun_'
'At'
'Assistant_'
'Ann'
'Ambassadeur_'
'About_'
'AK'
'98'
'87'
'66'
'53'
'201'
'1979_'
'1950_'
'08'
'), (_'
') : _'
' ;_'
' - '
'�'
'  _'
'р'
'и'
'éventail_'
'établie_'
'énergies_'
'âgés_'
' (_'
'zz'
'yl_'
'ye_'
'xe'
'wonderful_'
'warming_'
'wan'
'wake_'
'vols_'
'voitures_'
'visiting_'
'visent_'
'victory_'
'vi_'
'vi'
'vez_'
'ventes_'
'ved_'
'vais_'
'und'
'ult'
'tum'
'tta'
'tobacco_'
'théorie_'
'tent_'
'temporaire_'
'tation_'
'tali'
'supérieurs_'
'streets_'
'store_'
'stockage_'
'stars_'
'stages_'
'solve_'
'solides_'
'slightly_'
'similaire_'
'shops_'
'seules_'
'sei'
'seemed_'
'résulte_'
'réflexion_'
'réagir_'
'river_'
'rit'
'rices_'
'reçoit_'
'revi'
'returning_'
'rest'
'ressource_'
'ressort_'
'respectively_'
'requérant_'
'requiring_'
'requiert_'
'requesting_'
'removed_'
'remind_'
'reject_'
'rein'
'regulated_'
'rb'
'rai'
'quer_'
'pêcheurs_'
'push_'
'pursued_'
'prête_'
'protégés_'
'promoted_'
'profession_'
'producer_'
'pressures_'
'poursuit_'
'pot'
'patterns_'
'partenaire_'
'parlements_'
'papier_'
'oui_'
'ought_'
'oth'
'ose_'
'organs_'
'ordinateurs_'
'ordinaire_'
'opérationnel_'
'opportunité_'
'onn'
'om'
'objets_'
'object_'
'négatif_'
'nta'
'notably_'
'nal_'
'mountains_'
'mn'
'mic'
'medicine_'
'meat_'
'maximale_'
'mariage_'
'magnifique_'
'lundi_'
'longues_'
'limité_'
'lecteur_'
'lau'
'lac_'
'laboratoire_'
'killing_'
'journal_'
'ji_'
'ite'
'ish_'
'ious_'
'int_'
'int'
'institutionnels_'
'inquiète_'
'informe'
'industriels_'
'incluant_'
'importantly_'
'imi'
'ignorance_'
'ifs_'
'hotels_'
'happening_'
'guère_'
'generations_'
'franchi'
'franc_'
'formule_'
'fixe_'
'finds_'
'fils_'
'filed_'
'feuille_'
'far'
'eye_'
'exposés_'
'exposed_'
'exc'
'enjoyed_'
'ene'
'ending_'
'empire_'
'ee_'
'earth_'
'détection_'
'déposé_'
'dépasse_'
'démographique_'
'défi'
'décès_'
'découlant_'
'durables_'
'driving_'
'discovered_'
'discipline_'
'disa'
'diplomacy_'
'diminuer_'
'devenus_'
'destroyed_'
'democracies_'
'currencies_'
'cr'
'covers_'
'cot'
'correctly_'
'corner_'
'constantly_'
'connus_'
'connaît_'
'conjunction_'
'confronté_'
'confirmer_'
'confi'
'colour_'
'colon'
'coastal_'
'claimant_'
'civilians_'
'citoyenneté_'
'chan'
'cells_'
'ced_'
'cards_'
'cal'
'café_'
'cad'
'bor'
'bon'
'bol'
'boissons_'
'biologiques_'
'bell'
'begun_'
'basi'
'avion_'
'autonomie_'
'appropriations_'
'approches_'
'apportées_'
'appeler_'
'apparition_'
'ana_'
'amé'
'amend_'
'alleged_'
'alité_'
'al'
'ak_'
'ajoutée_'
'aimerais_'
'ado_'
'admissibles_'
'accru_'
'accordingly_'
'accompanied_'
'accepte_'
'Yougoslavie_'
'Will_'
'Who_'
'Version_'
'UT'
'Ts'
'Tom'
'Times_'
'Thursday_'
'Tal'
'TIR_'
'TA_'
'Sub'
'Several_'
'San'
'Salle_'
'Sala'
'SS'
'SH'
'Rio_'
'Rien_'
'Rep'
'Records_'
'Rather_'
'Ram'
'RI_'
'RES_'
'Pierre_'
'Pass'
'Palais_'
'PE_'
'Optional_'
'OIT_'
'Nicolas_'
'Net'
'Nairobi_'
'NH'
'Mé'
'Mes'
'Medical_'
'Lam'
'LAN'
'Kin'
'Ka'
'Islands_'
'Industrial_'
'Income_'
'Inc'
'Import'
'ISO_'
'IS'
'HP_'
'Gh'
'Garden_'
'Games_'
'GH'
'Funds_'
'Fundamental_'
'Franc'
'Fra'
'Form_'
'Finances_'
'Festival_'
'FT'
'FC_'
'ET'
'EE'
'ED'
'Digital_'
'Danemark_'
'Cra'
'Communities_'
'Commissariat_'
'Centres_'
'CF_'
'Br'
'BP'
'Avis_'
'Ath'
'Among_'
'AU_'
'> _'
'99'
'91'
'77'
'69'
'55'
'350_'
'1990s_'
'195'
'130'
'05'
'+'
'' '
' − _'
' –_'
' : (_'
' - _'
'• '
'”_'
'êt'
'éro'
'équipées_'
'élevées_'
'électro'
'électoral_'
'élargir_'
'écrite_'
'Écosse_'
'¨_'
' ;_'
'videos_'
'veto_'
'venu_'
'vement_'
'vaccination_'
'ury_'
'uri'
'undoubtedly_'
'unde'
'uli'
'ules_'
'trip_'
'trials_'
'trains_'
'traduit_'
'traditionnel_'
'tr'
'tourner_'
'tons_'
'tent'
'tap'
'sés_'
'sérieusement_'
'sée_'
'systematic_'
'syndicats_'
'suspected_'
'surprise_'
'supporters_'
'sufficiently_'
'subs'
'stupéfiants_'
'stra'
'stabilisation_'
'spe'
'soutiennent_'
'soumise_'
'situés_'
'situe_'
'sinon_'
'sheets_'
'septième_'
'sentiments_'
'season_'
'sch'
'révisé_'
'rétablissement_'
'réglementaires_'
'rues_'
'rti'
'rt'
'roots_'
'roles_'
'rie'
'reçues_'
'residents_'
'resident_'
'remarques_'
'relie'
'refus_'
'rede'
'recognised_'
'realistic_'
'rating_'
'rat'
'rage_'
'racial_'
'quotidienne_'
'quit'
'quelles_'
'quasi_'
'quantities_'
'précédente_'
'provenance_'
'prospect_'
'proposés_'
'produisent_'
'primaire_'
'pretty_'
'preserve_'
'preparatory_'
'prefer_'
'pourrons_'
'positifs_'
'politiciens_'
'pointe_'
'plats_'
'periodic_'
'performed_'
'pea'
'passenger_'
'pairs_'
'orn'
'ologie_'
'ok_'
'og_'
'offert_'
'octroi_'
'occurring_'
'occidentale_'
'nou'
'none_'
'ninth_'
'ncy_'
'métro_'
'm²_'
'mono'
'moderate_'
'mel'
'meal_'
'mati'
'mani'
'man'
'mala'
'légitime_'
'lli'
'lles_'
'lived_'
'license_'
'jun'
'jug'
'judiciary_'
'jointly_'
'ists_'
'irs_'
'iri'
'ip'
'interpret'
'intergouvernementales_'
'intense_'
'intend_'
'instant_'
'ins'
'inquiétudes_'
'initiale_'
'inevitable_'
'indemnisation_'
'incomp'
'inca'
'implies_'
'ik'
'ignore_'
'identifying_'
'humans_'
'hood_'
'hol'
'hit'
'hin'
'hea'
'géographique_'
'gro'
'gratitude_'
'granting_'
'got'
'gla'
'gift_'
'gathered_'
'gan_'
'foot'
'faux_'
'fat'
'explicitly_'
'existant_'
'exigence_'
'exhibit'
'exclusivement_'
'excellente_'
'ew'
'estimation_'
'era'
'environmentally_'
'enterprise_'
'ens'
'enregistrés_'
'employeur_'
'emi'
'economically_'
'eastern_'
'ea_'
'détermination_'
'désire'
'désigné_'
'député_'
'démocraties_'
'drinks_'
'dominant_'
'domicile_'
'dom'
'divorce_'
'dites_'
'districts_'
'dissemination_'
'disposal_'
'disc'
'dim'
'dil'
'dies_'
'dic'
'devises_'
'devise_'
'desirable_'
'definitions_'
'credits_'
'couples_'
'continental_'
'constate_'
'confidentialité_'
'concernent_'
'concepts_'
'compl'
'commissaires_'
'cold_'
'cod'
'coast_'
'clientèle_'
'civiles_'
'circuit_'
'chrétiens_'
'channels_'
'chain_'
'carburant_'
'campagnes_'
'camp'
'bulletin_'
'bru'
'brevet_'
'bb'
'bateaux_'
'bataille_'
'axée_'
'award_'
'avancée_'
'augmente_'
'audience_'
'auberge_'
'atte'
'ateur_'
'ate'
'are'
'arbitra'
'appartements_'
'ano'
'annulation_'
'amongst_'
'ambition_'
'alg'
'affects_'
'ae'
'adopting_'
'administered_'
'adding_'
'acquitter_'
'acid_'
'accordé_'
'accomplir_'
'Zi'
'Wood'
'Wii_'
'Village_'
'USB_'
'UE'
'Trois_'
'Tour_'
'Top_'
'Through_'
'Thomas_'
'Team_'
'Tableau_'
'TRA'
'TELUS_'
'TC'
'Sun_'
'Statement_'
'Singapore_'
'Search_'
'SMEs_'
'Risk_'
'Richard_'
'Pérou_'
'Province_'
'Property_'
'Professional_'
'Process_'
'Press_'
'Play'
'Permettez_'
'Pat'
'Pas_'
'POUR_'
'Oui_'
'Nor'
'Nav'
'Maroc_'
'Mahmoud_'
'MAR'
'Lula_'
'Location_'
'Local_'
'Lea'
'Kha'
'Keynes_'
'Joseph_'
'Johannesburg_'
'Is'
'IA'
'Hour_'
'HS'
'HR_'
'Gre'
'Gestion_'
'Free'
'Fo'
'FOR_'
'Experts_'
'Enjoy_'
'Edition_'
'EA'
'DS'
'Cultural_'
'Copyright_'
'Comp'
'Cli'
'Chávez_'
'Chili_'
'Change_'
'Casino_'
'Canadiennes_'
'CG'
'Building_'
'Bosnia_'
'Beh'
'Beach_'
'Be_'
'BI'
'Ayant_'
'Arts_'
'Arr'
'Appeal_'
'Annual_'
'Afghan_'
'Accordingly_'
'Ab'
'ASEAN_'
'AF'
'AA_'
'87_'
'86'
'78'
'73'
'65'
'63'
'59'
'56'
'1981_'
'189'
'180_'
'103_'
'..." _'
'.&_'
'', _'
'" '
' » '
' + _'
' "..._'
''
''
'’._'
'в'
'ü'
'étais_'
'émergents_'
'église_'
'yn'
'wrote_'
'voulez_'
'vola'
'voici_'
'vide_'
'viande_'
'vendredi_'
'vend'
'venant_'
'varia'
'valable_'
'uta'
'urgency_'
'unprecedented_'
'unlike_'
'unity_'
'unilateral_'
'unification_'
'underway_'
'ula'
'tér'
'tue'
'trouvant_'
'treat_'
'tragedy_'
'tom'
'tolérance_'
'tia'
'texts_'
'textile_'
'terror_'
'tea'
'tch_'
'tar'
'talent_'
'tackle_'
'systemic_'
'symbol_'
'survie_'
'surely_'
'suprême_'
'sun'
'succ'
'subjects_'
'strike_'
'stories_'
'stor'
'stock'
'stagnation_'
'sso'
'sse'
'soutiens_'
'sle'
'signes_'
'shed_'
'sensibiliser_'
'schemes_'
'sanitaires_'
'safeguard_'
'révélé_'
'réservation_'
'rédigé_'
'réci'
'règne_'
'rs'
'rol'
'retrouve_'
'retained_'
'resort_'
'reproductive_'
'reply_'
'renovated_'
'renforcé_'
'rement_'
'remarquer_'
'relancer_'
'reas'
'ravi'
'rares_'
'quitter_'
'qualifications_'
'purchased_'
'puissances_'
'pte'
'préservation_'
'préparatoire_'
'précision_'
'prostitution_'
'profondes_'
'profonde_'
'profil_'
'professionnel_'
'proches_'
'primaires_'
'pricing_'
'prescription_'
'possibilities_'
'portefeuille_'
'poorest_'
'po_'
'plate_'
'plane_'
'pist'
'pilotes_'
'pierre_'
'persistent_'
'permettront_'
'peri'
'pencher_'
'parti'
'ote_'
'optional_'
'onto_'
'officiellement_'
'offences_'
'objects_'
'objection_'
'nécessairement_'
'nsi'
'nist'
'negotiate_'
'nearby_'
'naturelle_'
'moteurs_'
'mod'
'mm'
'missiles_'
'militants_'
'mer'
'med_'
'marge_'
'manufacture_'
'macroeconomic_'
'légale_'
'liquidity_'
'line'
'library_'
'lettres_'
'lets_'
'leads_'
'lancée_'
'laissé_'
'lag'
'lab'
'jugement_'
'judiciaires_'
'izing_'
'itions_'
'inégalités_'
'intérieures_'
'intégrés_'
'integral_'
'inspections_'
'inscription_'
'ini'
'inférieur_'
'individuels_'
'incon'
'impr'
'imported_'
'impo'
'impa'
'imaginer_'
'illi'
'ility_'
'ignored_'
'ident'
'ich_'
'hôte_'
'hébergement_'
'hundreds_'
'hospitals_'
'hospital_'
'hor'
'hic'
'hauteur_'
'handed_'
'han_'
'guilty_'
'gu'
'greenhouse_'
'grateful_'
'grain_'
'gestionnaires_'
'garantit_'
'fun'
'fréquence_'
'fro'
'freely_'
'frame_'
'fournissent_'
'forests_'
'flo'
'fleet_'
'fixer_'
'fiscales_'
'fiabilité_'
'fell_'
'feed_'
'fee_'
'favor_'
'fan'
'fairly_'
'facilitation_'
'expanding_'
'excédent_'
'exceed_'
'evolution_'
'ev_'
'esi'
'erg'
'entière_'
'endroits_'
'endorse_'
'ena'
'emprisonnement_'
'emphasise_'
'emerged_'
'edge_'
'ecte'
'dép'
'démontré_'
'définies_'
'déc'
'débattre_'
'douche_'
'donors_'
'donnant_'
'dizaines_'
'dit'
'disk_'
'différends_'
'dial_'
'destinée_'
'designs_'
'demo'
'demandeurs_'
'defend_'
'defeat_'
'deaths_'
'côte_'
'cum'
'créée_'
'créant_'
'creates_'
'couleurs_'
'cosy_'
'continu'
'constat'
'constante_'
'consolidate_'
'considérées_'
'consequence_'
'conseiller_'
'conduire_'
'concrets_'
'compétents_'
'comprises_'
'complicated_'
'competitors_'
'compare_'
'colleague_'
'coherent_'
'coh'
'cle'
'citoyen_'
'citizenship_'
'checks_'
'chargés_'
'charbon_'
'changé_'
'certainty_'
'cere'
'by'
'broadly_'
'blanc_'
'bill_'
'bilité_'
'bie'
'ben'
'bedrooms_'
'automobiles_'
'authors_'
'atténuer_'
'attentats_'
'ath'
'atelier_'
'arrière_'
'arrived_'
'ards_'
'appelée_'
'apparaît_'
'ani'
'ak'
'ajoute_'
'aid'
'agissait_'
'afford_'
'affi'
'admis_'
'acknowledged_'
'accept'
'Video_'
'Trésor_'
'Tan'
'TVH_'
'Survey_'
'Super'
'Slovakia_'
'Skype_'
'Sin'
'Should_'
'Ship'
'Senior_'
'Self_'
'Sciences_'
'Salvador_'
'SC'
'Rou'
'Repr'
'Reports_'
'Relations_'
'Recherche_'
'RC_'
'Quelle_'
'Puis_'
'Ps_'
'Programs_'
'Product_'
'Premièrement_'
'Pla'
'Peru_'
'Patrimoine_'
'Patent_'
'Past'
'Parliamentary_'
'Para'
'PU'
'PN'
'PL_'
'PL'
'PER'
'Off'
'OU'
'Numéro_'
'Newfoundland_'
'Name_'
'Min'
'Meanwhile_'
'Mart'
'Make_'
'MENT_'
'Libye_'
'Letter_'
'Len'
'Lar'
'Languages_'
'Kazakhstan_'
'Kan'
'Journée_'
'Jewish_'
'Int'
'Inf'
'Imp'
'Hai'
'Hague_'
'HST_'
'GL'
'Funding_'
'Fla'
'Firstly_'
'Film_'
'FO'
'Ethiopia_'
'EE_'
'Déc'
'Durant_'
'Donald_'
'Does_'
'DP_'
'Cro'
'Cour'
'Conte'
'Competition_'
'Catholic_'
'COMM'
'CL'
'CI_'
'Bus'
'Bur'
'Budgetary_'
'Bru'
'Bis'
'Bir'
'BS'
'BL'
'Assessment_'
'Articles_'
'Anti_'
'Angleterre_'
'Ale'
'ARC_'
';?_'
'97'
'85'
'82'
'74'
'60'
'360_'
'205_'
'1978_'
'19'
'1373_'
'115_'
'1000_'
'.  _'
') – _'
'%'
' ] _'
''
' '
'’'
'с'
'š'
'étiquetage_'
'én'
'émis_'
'élève_'
'édit'
'économistes_'
'échantillons_'
'éb'
'ât'
'â_'
'°_'
'~_'
'{_'
'zar'
'yo'
'withdrawal_'
'withdraw_'
'wise_'
'winning_'
'wave_'
'voient_'
'vesti'
'ven'
'varied_'
'valu'
'validation_'
'usual_'
'ussi'
'urre'
'ure'
'uranium_'
'uo'
'uis'
'uci'
'trou'
'tres_'
'tre'
'tou'
'tolerance_'
'ths_'
'thirty_'
'thirds_'
'therapy_'
'tenus_'
'taxi_'
'tarifs_'
'séparation_'
'séminaires_'
'symptômes_'
'swimming_'
'sustained_'
'survive_'
'sur'
'suppose_'
'super_'
'suggéré_'
'suggestion_'
'succession_'
'subvention_'
'subsidiarité_'
'subir_'
'subi'
'stro'
'spa'
'some'
'solde_'
'sold_'
'skin_'
'signing_'
'signalé_'
'shortly_'
'sg'
'serves_'
'serre_'
'segment_'
'secondaire_'
'seats_'
'sd'
'scrutin_'
'script_'
'sco'
'schedule_'
'sc_'
'saisi_'
'sai'
'résumé_'
'rép'
'réductions_'
'réalisations_'
'ron'
'rom'
'rog'
'rin'
'rh'
'reçoivent_'
'revêt_'
'reviewing_'
'revealed_'
'ressortissants_'
'responded_'
'respected_'
'repeat_'
'regardless_'
'refo'
'recou'
'realize_'
'rapides_'
'range'
'ralentissement_'
'raf'
'ract'
'quota_'
'quin'
'quantités_'
'préjudice_'
'préfér'
'précises_'
'provider_'
'prouvé_'
'profound_'
'printed_'
'prec'
'pour'
'portable_'
'plu'
'planet_'
'pick_'
'phrase_'
'phases_'
'pers'
'permission_'
'pel_'
'ped'
'part'
'parliaments_'
'paras_'
'pacte_'
'ova'
'ost'
'opi'
'one'
'onc'
'oi'
'oce'
'occurrence_'
'obliged_'
'nu_'
'nom'
'nic_'
'nettoyage_'
'nded_'
'nant_'
'named_'
'ms'
'mou'
'mora'
'montagne_'
'modest_'
'mit'
'metro_'
'meta'
'mere_'
'meets_'
'measured_'
'mandatory_'
'mand'
'malaria_'
'mad'
'lp'
'lor'
'looked_'
'loisirs_'
'livr'
'likelihood_'
'liberalisation_'
'leçons_'
'lawyers_'
'ks'
'knew_'
'kin_'
'ker'
'justify_'
'justified_'
'judgment_'
'jo'
'ités_'
'israélienne_'
'isa'
'invested_'
'intégrité_'
'intimidation_'
'intensive_'
'inhabitants_'
'informés_'
'inf'
'indépendants_'
'indiquant_'
'incont'
'incident_'
'impressive_'
'illicit_'
'if'
'hunger_'
'hoo'
'holiday_'
'hing_'
'highlight_'
'headed_'
'gross_'
'gratuit_'
'grandi'
'gouverneur_'
'gou'
'gent'
'ged_'
'gal'
'foyers_'
'forums_'
'fortes_'
'formulées_'
'fonctionnalités_'
'flag_'
'fix_'
'finished_'
'fat_'
'familiar_'
'faisait_'
'faim_'
'fails_'
'exporter_'
'exiger_'
'exchanges_'
'examining_'
'etr'
'estate_'
'envergure_'
'entrepren'
'entraîné_'
'enseignants_'
'enne_'
'ena_'
'emphasized_'
'ell'
'ek'
'ecti'
'détr'
'détaillées_'
'déplacement_'
'doutes_'
'domin'
'doctrine_'
'dispositifs_'
'displayed_'
'disparition_'
'dirigeant_'
'devi'
'describe_'
'deli'
'decides_'
'dat'
'damaging_'
'ct'
'crop_'
'critère_'
'couvrir_'
'cou'
'cope_'
'contra'
'contenus_'
'considerations_'
'conjointe_'
'cong'
'conducting_'
'conc'
'computers_'
'comportements_'
'compete_'
'combler_'
'colonies_'
'coi'
'co'
'classique_'
'claires_'
'cla'
'cke'
'civilisation_'
'cil'
'cien'
'check'
'cen'
'cellules_'
'cell_'
'catch_'
'cari'
'bénéfice_'
'buts_'
'brutal_'
'bord'
'booking_'
'blue_'
'bli'
'ble'
'blame_'
'bit'
'biological_'
'bet'
'belles_'
'beauty_'
'bas'
'ave'
'autorisé_'
'automatic_'
'auspices_'
'aurez_'
'attain'
'assessing_'
'ase'
'ascenseur_'
'arrest_'
'approve_'
'apport_'
'applying_'
'appartenance_'
'apartment_'
'ans'
'annuels_'
'ane_'
'amour_'
'ambitieux_'
'allemande_'
'align'
'aggregate_'
'agence_'
'accorde_'
'accompagné_'
'acceptation_'
'ac_'
'abuses_'
'abr'
'`_'
'Xbox_'
'Well_'
'Was'
'WHO_'
'Vienne_'
'Until_'
'UC'
'Type_'
'Tro'
'Tony_'
'Tha'
'Test'
'Terr'
'TR'
'T4'
'Syn'
'Sul'
'Studies_'
'Stu'
'Stor'
'Standard_'
'Solana_'
'Similarly_'
'Shu'
'She'
'Senate_'
'Seigneur_'
'SM'
'Roman_'
'Ret'
'Resolution_'
'Red'
'Rac'
'RS'
'RP'
'RES'
'RD'
'Quality_'
'Qatar_'
'Prot'
'Poutine_'
'Population_'
'Pan'
'PAR'
'Outre_'
'Out_'
'Ombudsman_'
'ORT'
'NR'
'ND'
'NA_'
'Movement_'
'Minutes_'
'Micro'
'Mexican_'
'Main_'
'Mah'
'MHz_'
'MB_'
'Long_'
'Located_'
'Lib'
'Lei'
'Land_'
'Kremlin_'
'Kirk_'
'Item_'
'Introduction_'
'Ibid_'
'IONS_'
'ICE'
'IBM_'
'Hol'
'Hau'
'Hand'
'Get_'
'GP'
'Fu'
'Fifth_'
'FS'
'Expe'
'Examen_'
'Ensuite_'
'Empire_'
'EX'
'Discrimination_'
'Directors_'
'DO_'
'DC'
'DAT'
'Consumer_'
'Conn'
'Conduct_'
'Compliance_'
'College_'
'Chan'
'Cabinet_'
'CEO_'
'Budapest_'
'Blue_'
'Bell_'
'BM'
'BER'
'Autre_'
'Audit_'
'And'
'Algérie_'
'Albania_'
'Ala'
'963_'
'89'
'84'
'81'
'1984_'
'1967_'
'125_'
'100'
'.  _'
'*'
''
'€'
'év'
'étage_'
'épreuve_'
'égi'
'écouter_'
'ève'
'ÉR'
'» (_'
' »'
'xy'
'wind_'
'whereby_'
'welcoming_'
'voulait_'
'vor'
'viva'
'vity_'
'vit_'
'visitors_'
'visites_'
'vies_'
'victim_'
'vessels_'
'van'
'utilité_'
'ut'
'upt'
'ups'
'unf'
'undertakings_'
'ulé'
'uel_'
'tz_'
'trouble_'
'tron'
'trillion_'
'tric'
'tree_'
'touchés_'
'top'
'title_'
'tiennent_'
'ti'
'tho'
'tendant_'
'tea_'
'taught_'
'tan_'
'séances_'
'surmonter_'
'surgi'
'styl'
'striking_'
'strai'
'stopped_'
'ssion_'
'spo'
'sphere_'
'spaces_'
'sour'
'souci_'
'sortes_'
'sondages_'
'son'
'sols_'
'socialiste_'
'slow_'
'sions_'
'simultanément_'
'sexuels_'
'sensitivity_'
'segments_'
'seconds_'
'secondaires_'
'scénarios_'
'screening_'
'score_'
'scen'
'sam'
'saison_'
'saine_'
'réunir_'
'rés_'
'réjouis_'
'régulation_'
'rég'
'réduisant_'
'ru'
'row_'
'roughly_'
'rod'
'rm'
'rivière_'
'rid_'
'richesse_'
'rich'
'ria_'
'revue_'
'revision_'
'restructuration_'
'ressi'
'ress'
'respectivement_'
'reso'
'reservations_'
'requises_'
'remo'
'remi'
'remarque_'
'remarquable_'
'relates_'
'rejection_'
'reductions_'
'redi'
'recruitment_'
'reasonably_'
'readily_'
'read'
'rds_'
'ranging_'
'pursuit_'
'purely_'
'purchasing_'
'purchases_'
'punishment_'
'ps'
'présidentielle_'
'préliminaire_'
'prohibited_'
'progressivement_'
'progressi'
'procédé_'
'pressing_'
'prenantes_'
'preferred_'
'ppe'
'power'
'poursuites_'
'poissons_'
'pleasure_'
'play'
'pl'
'pilot_'
'photo'
'phi'
'perceived_'
'pensée_'
'pauvre_'
'passa'
'partition_'
'pari'
'osi'
'ong_'
'ome'
'ological_'
'ol'
'oh'
'oe'
'occupa'
'objections_'
'ny'
'nutrition_'
'numériques_'
'nt'
'nne_'
'nn'
'nien'
'naturels_'
'médicale_'
'multinational_'
'mp_'
'moul'
'motif_'
'module_'
'mobiliser_'
'mix_'
'mistake_'
'ministerial_'
'mina'
'milieux_'
'meters_'
'measurement_'
'manifest'
'mang'
'légèrement_'
'ly'
'luxe_'
'lum'
'ls'
'lon'
'livraison_'
'listen_'
'liquidités_'
'limit'
'life'
'libération_'
'libres_'
'lesson_'
'lea'
'lac'
'kit_'
'justifi'
'journey_'
'ita'
'ional'
'intéressées_'
'interdire_'
'intensité_'
'integrate_'
'institutionnelle_'
'instability_'
'insister_'
'initially_'
'inh'
'infringement_'
'inex'
'individually_'
'incombe_'
'inclusive_'
'incertitude_'
'incentive_'
'inadequate_'
'inacceptable_'
'importer_'
'impliqués_'
'impe'
'impasse_'
'ides_'
'hôtels_'
'hôpital_'
'hyper'
'hiver_'
'has'
'handicapées_'
'ham'
'hair_'
'h30_'
'guerres_'
'gr'
'gge'
'gard'
'fé'
'fun_'
'fri'
'frequency_'
'frappe'
'foundations_'
'fortune_'
'formé_'
'forestry_'
'foods_'
'fixés_'
'firstly_'
'ferr'
'fau'
'fate_'
'faillite_'
'ey'
'extérieurs_'
'export'
'explosion_'
'exemplaire_'
'excuse_'
'excluded_'
'exciting_'
'evident_'
'evi'
'essentielles_'
'ere'
'epi'
'entrave'
'entr'
'endorsed_'
'ende'
'emission_'
'ema'
'em_'
'electro'
'edia'
'ecological_'
'earned_'
'dûment_'
'détaillée_'
'déséquilibres_'
'désir_'
'déroule'
'dépendance_'
'débatt'
'dy'
'duct'
'driver_'
'doubles_'
'douanes_'
'dominated_'
'discuter_'
'disclosure_'
'disabled_'
'dir'
'différente_'
'df'
'devoted_'
'devo'
'deci'
'deb'
'deals_'
'dea'
'dark_'
'créés_'
'cru'
'crossing_'
'croit_'
'credible_'
'courante_'
'cour_'
'coup'
'counselling_'
'cote_'
'correspond'
'converti'
'convenu_'
'contribuable_'
'contradiction_'
'continué_'
'contemporary_'
'considerably_'
'consacrée_'
'connections_'
'conformity_'
'commencement_'
'clauses_'
'classified_'
'clarification_'
'citer_'
'church_'
'cessation_'
'causé_'
'causing_'
'cargo_'
'capitalisme_'
'cab'
'buying_'
'bud'
'bref_'
'br'
'boat_'
'belonging_'
'batt'
'aval'
'avais_'
'auto_'
'austerity_'
'aurons_'
'augment'
'attract_'
'attendant_'
'assister_'
'assemblée_'
'array_'
'arm'
'arin'
'aria'
'approfondie_'
'appren'
'appliquées_'
'apparently_'
'aper'
'any'
'annoncer_'
'ang'
'allowance_'
'allo'
'alliances_'
'alla'
'ala'
'ajouté_'
'ais'
'ains_'
'affirmer_'
'adapted_'
'acknowledge_'
'accusé_'
'academic_'
'abandoned_'
']'
'Zu'
'YS'
'XXIe_'
'XI'
'Works_'
'Win'
'Wednesday_'
'WH'
'WE'
'Vienna_'
'VAT_'
'UNEP_'
'UM'
'Travail_'
'Thaïlande_'
'Terrorism_'
'TF'
'Système_'
'Symantec_'
'Study_'
'Spirit_'
'Southern_'
'Sol'
'Sir_'
'Series_'
'Sector_'
'Sales_'
'STAT'
'Round_'
'Rose'
'Right_'
'Rev_'
'Ressources_'
'Recent_'
'Rate_'
'RSS_'
'Proactive_'
'Priv'
'Prie_'
'Premières_'
'Paragraphe_'
'PSE_'
'PR'
'PES'
'PAC_'
'Ort'
'Original_'
'Opportunities_'
'Online_'
'Oil_'
'ONS_'
'Next_'
'Nation_'
'NPT_'
'NO_'
'Mugabe_'
'Mos'
'Mondiale_'
'Measures_'
'Me'
'Mari'
'Map'
'MONUC_'
'MM'
'MA_'
'Lé'
'Lor'
'LS_'
'LD'
'Ky'
'Kat'
'Jesus_'
'Jerusalem_'
'Inter_'
'Ing'
'IL_'
'Herzégovine_'
'Help_'
'Heads_'
'Gro'
'Gentoo_'
'Gaulle_'
'Full_'
'Fran'
'Forest_'
'Fer'
'Eu'
'Eng'
'Eco'
'EF'
'Dép'
'Dre'
'District_'
'Disclosure_'
'Der'
'Democracy_'
'Decides_'
'DIS'
'Copenhague_'
'Copenhagen_'
'Communist_'
'Ch'
'Can'
'CAN_'
'Burma_'
'Botswana_'
'Bon'
'Bol'
'Bla'
'Berlusconi_'
'Bene'
'Base_'
'Barcelone_'
'B5_'
'Arm'
'Ara'
'Analysis_'
'Ama'
'Ah'
'Abbas_'
'ASFC_'
'APP'
'AF_'
'72'
'58'
'1983_'
'1973_'
'1930_'
'170_'
'109_'
'...'
'() _'
' €_'
' -, _'
' $'
''
'œu'
'ó'
'équilibrée_'
'épargn'
'énoncés_'
'émo'
'élo'
'électriques_'
'éla'
'ès_'
'|_'
'zen_'
'writer_'
'workforce_'
'with'
'wished_'
'whi'
'wherever_'
'ward_'
'vérifi'
'vre_'
'volet_'
'volatile_'
'versus_'
'vastes_'
'vary_'
'utilization_'
'usa'
'urge_'
'unto_'
'unnecessary_'
'united_'
'uniques_'
'unc'
'udi'
'uct'
'ub'
'télécommunications_'
'té'
'typically_'
'twentieth_'
'twelve_'
'tt'
'troubl'
'transmitted_'
'trailer_'
'toxic_'
'tirés_'
'tiré_'
'timing_'
'timetable_'
'thé'
'threatened_'
'temp'
'tely_'
'tele'
'tard'
'tam'
'systématique_'
'swi'
'suspension_'
'surviv'
'suppliers_'
'sup'
'sucre_'
'successes_'
'succeeded_'
'stér'
'stuff_'
'structurels_'
'structurelles_'
'stre'
'stores_'
'stood_'
'stimuler_'
'spr'
'spot_'
'spoken_'
'spiritual_'
'speeches_'
'sp'
'soulevées_'
'solid_'
'sole_'
'soldiers_'
'solaire_'
'sna'
'sn'
'smi'
'short'
'sectoral_'
'sect'
'scénario_'
'sauvegarde_'
'saurait_'
'satisfait_'
'satisfactory_'
'salary_'
'rétablir_'
'réputation_'
'réconciliation_'
'rre'
'rop'
'roman'
'roll_'
'rock_'
'rn'
'rique_'
'ria'
'rge'
'retrouver_'
'restrictive_'
'resta'
'repeatedly_'
'renewal_'
'rendant_'
'remis_'
'remarkable_'
'registres_'
'registre_'
'regarded_'
'recueillir_'
'rechercher_'
'receipt_'
'ratifier_'
'rati'
'racisme_'
'quer'
'périodiques_'
'pull_'
'puissants_'
'publiés_'
'pt_'
'psycho'
'prés'
'préoccupé_'
'prudence_'
'protocoles_'
'protests_'
'propriétaires_'
'prop'
'preparations_'
'pregnant_'
'ppo'
'pourrions_'
'posted_'
'posed_'
'plantes_'
'pie'
'persuade'
'permettez_'
'peace'
'path'
'password_'
'parvenus_'
'parfait_'
'owe'
'ouvrage_'
'orientale_'
'organisées_'
'ordered_'
'orateurs_'
'ora'
'opposants_'
'ois_'
'ode'
'od_'
'occup'
'occidentaux_'
'obe'
'négocier_'
'négoci'
'nécessite_'
'normalement_'
'nomi'
'nne'
'nna'
'nis'
'nie_'
'nge_'
'nevertheless_'
'nettement_'
'neighbors_'
'neighbor'
'negotiation_'
'necessity_'
'nding_'
'nd'
'nche'
'nb'
'navi'
'nat'
'médical_'
'mène_'
'mus'
'mur'
'moves_'
'modeste_'
'mobilisation_'
'missing_'
'missile_'
'minorité_'
'minor_'
'meaningful_'
'mat'
'marqué_'
'manuel_'
'manager_'
'mainstreaming_'
'lè'
'lu_'
'losing_'
'lom'
'locally_'
'llo'
'liquid_'
'limitées_'
'lift_'
'lance_'
'lait_'
'laissant_'
'ladite_'
'label_'
'kinds_'
'kes_'
'kers_'
'japonaise_'
'ième_'
'ito'
'ission'
'ison_'
'isi'
'iranien_'
'inviter_'
'inu'
'intitulée_'
'interference_'
'intera'
'instaurer_'
'install'
'insist_'
'indu'
'individuelles_'
'incorporate_'
'impunité_'
'imper'
'ignorer_'
'ieth_'
'ideology_'
'iba'
'iant_'
'héritage_'
'hum'
'hostels_'
'hone'
'hn'
'hes_'
'hc_'
'harmful_'
'hall_'
'gé_'
'gènes_'
'gratuite_'
'gis'
'generating_'
'fu'
'fre'
'forthcoming_'
'formula_'
'forc'
'focuses_'
'flu'
'flights_'
'fiables_'
'feuilles_'
'fermeture_'
'faster_'
'faiblesse_'
'fai'
'factur'
'facilitating_'
'exprime_'
'expliqué_'
'exceptionnelle_'
'exceptionnel_'
'everyday_'
'euses_'
'escape_'
'ert_'
'eon'
'envisage_'
'enthousiasme_'
'enseignements_'
'ense'
'engine_'
'encourageant_'
'enca'
'eme'
'embargo_'
'emballage_'
'ela'
'eco'
'ec'
'détruire_'
'détaillé_'
'département_'
'définitions_'
'découverte_'
'dress'
'doter_'
'dos_'
'doors_'
'dons_'
'donn'
'diss'
'disque_'
'dis_'
'dge_'
'devienne_'
'detection_'
'demeurent_'
'demandons_'
'dele'
'defining_'
'decorated_'
'decisive_'
'debts_'
'dan'
'dai'
'cul'
'crew_'
'cour'
'costly_'
'corriger_'
'coordinating_'
'coordinate_'
'conçus_'
'convenient_'
'contribuables_'
'contr'
'consult'
'constamment_'
'considérations_'
'cond'
'concurrentiel_'
'compr'
'complexité_'
'complement_'
'competing_'
'compara'
'communicate_'
'commencent_'
'combiné'
'cohérence_'
'cip'
'chronic_'
'charming_'
'chal'
'cessé_'
'cease_'
'carrier_'
'caractères_'
'cana'
'calendar_'
'bénéficiaire_'
'bâtiment_'
'but'
'busy_'
'brief_'
'blis'
'billions_'
'bid_'
'bid'
'bee'
'beauté_'
'bateau_'
'bat'
'band_'
'ball'
'bail'
'aéronefs_'
'aériennes_'
'axe_'
'aver'
'autoroute_'
'autorisée_'
'autorise_'
'attendent_'
'attaqu'
'ator_'
'assorti'
'asiatiques_'
'arrivé_'
'arg'
'arbitrary_'
'appuyant_'
'apprécier_'
'appris_'
'appearance_'
'appar'
'apart_'
'anno'
'ange'
'anciennes_'
'ame'
'alo'
'allégations_'
'allu'
'allegations_'
'alike_'
'ajustements_'
'adulte_'
'adult_'
'adapt_'
'actualité_'
'acr'
'achèvement_'
'achats_'
'ace_'
'accumulation_'
'accounted_'
'accountable_'
'accompli'
'acce'
'abolition_'
'abandonner_'
'Zo'
'Woods_'
'Va'
'Using_'
'Use'
'Unlike_'
'Universal_'
'UND'
'Tokyo_'
'Thi'
'Thailand_'
'Th'
'Territory_'
'Territories_'
'Tch'
'Swedish_'
'Supp'
'Sunday_'
'Spi'
'Smith_'
'Session_'
'Senegal_'
'Schedule_'
'Sara'
'Sand'
'Rest'
'Resource_'
'Read_'
'Radio_'
'Rad'
'ROM_'
'RD_'
'Quelles_'
'Queen_'
'Proc'
'Privacy_'
'Planning_'
'Peut_'
'Perhaps_'
'PRE'
'PLA'
'Ouganda_'
'Ordre_'
'Operations_'
'OL_'
'OE'
'Nom_'
'NS'
'Music_'
'Moto'
'Mot'
'Monaco_'
'Mod'
'Military_'
'Mil'
'Mid'
'Mark_'
'Malta_'
'Malaysia_'
'MR'
'MON'
'MB'
'Leste_'
'Lab'
'LU'
'Koweït_'
'Ker'
'Infrastructure_'
'Informations_'
'IG'
'Hongrie_'
'Herzegovina_'
'Hen'
'Goals_'
'Gender_'
'G8_'
'Fro'
'Four_'
'Final_'
'FU'
'Extra'
'Exc'
'Eritrea_'
'Eli'
'Election_'
'Egyptian_'
'Edit'
'END'
'Dublin_'
'Die'
'Darfur_'
'DG'
'Croatie_'
'Compar'
'Cit'
'Chu'
'Choice_'
'Chirac_'
'Char'
'Chapitre_'
'Cat'
'Cap'
'Californie_'
'CW'
'CS_'
'COP_'
'COD_'
'CHA'
'CAMBRIDGE_'
'Brown_'
'Britannique_'
'Brazilian_'
'Blo'
'Bern'
'Belgique_'
'Azerbaijan_'
'Atlantique_'
'Ash'
'Armenia_'
'Annan_'
'Angela_'
'Ana'
'Amendments_'
'Allo'
'Ahmadinejad_'
'Agricultural_'
'Accueil_'
'88'
'201_'
'1976_'
'1968_'
'114_'
'102_'
'00'
'.” _'
'.&#_'
'!'
' `_'
' :'
' ("_'
' %) _'
'▪ _'
'™ _'
'ï_'
'éth'
'étati'
'établit_'
'éna'
'écrire_'
'échelon_'
'Équipe_'
'Él'
'º_'
'´ _'
'zon'
'yu'
'yp'
'yant'
'worthy_'
'wood'
'winter_'
'wine_'
'win'
'willingness_'
'weekly_'
'vulnerability_'
'voyage'
'von_'
'volontaires_'
'vivement_'
'vita'
'visibles_'
'vieillissement_'
'vide'
'vert'
'veness_'
'variation_'
'utilisez_'
'usine_'
'uro'
'urgently_'
'unp'
'uniform_'
'unanimité_'
'ulate'
'uer_'
'télécopie'
'télécharger_'
'translation_'
'transferred_'
'trans_'
'tow'
'touch_'
'tm'
'tle_'
'tiv'
'tis_'
'tin'
'tiendra_'
'tie_'
'tic'
'threatening_'
'thorough_'
'ther_'
'tenté_'
'tennis_'
'telecommunications_'
'tas'
'suspect_'
'supplement_'
'superior_'
'sun_'
'sul'
'suivent_'
'studio_'
'strat'
'stag'
'ssent_'
'spécialisés_'
'spécialisées_'
'souplesse_'
'soleil_'
'socialis'
'sma'
'ska'
'siècles_'
'shot_'
'sexuelles_'
'servant_'
'serons_'
'seminar_'
'semi_'
'selling_'
'secured_'
'secours_'
'scenario_'
'sca'
'sauver_'
'satisfied_'
'saoudite_'
'salariés_'
'salaries_'
'réussir_'
'rét'
'régissant_'
'rubrique_'
'rub'
'rte'
'rta'
'rp'
'rme'
'ris'
'rid'
'rica'
'rg'
'reçus_'
'retire_'
'restoration_'
'respectifs_'
'rese'
'requise_'
'repair_'
'renouvellement_'
'rendus_'
'rendez_'
'rendent_'
'rencontres_'
'removal_'
'rely_'
'relevé_'
'releases_'
'relaxation_'
'rel'
'rejeté_'
'rejet_'
'refusé_'
'recording_'
'recognizes_'
'rational_'
'ratifié_'
'rapprochement_'
'radiation_'
'quat'
'quarante_'
'quantitative_'
'pétrolières_'
'périphériques_'
'pushed_'
'publiée_'
'ptions_'
'préférable_'
'prédi'
'précédentes_'
'provoquer_'
'proud_'
'properties_'
'prom'
'profite_'
'procédés_'
'procurement_'
'privatisation_'
'pregnancy_'
'precious_'
'potable_'
'posé_'
'pos'
'porc'
'poisson_'
'planifi'
'plafond_'
'pictures_'
'phy'
'pha'
'personnellement_'
'perm'
'performing_'
'pc'
'pat'
'past'
'passe'
'partially_'
'parallel_'
'pa_'
'overview_'
'oversight_'
'ov_'
'ote'
'ota'
'ort'
'orr'
'organic_'
'opti'
'opportun_'
'onna'
'onde'
'oid'
'occupy_'
'oc'
'obtention_'
'oblige_'
'néo'
'nz'
'notified_'
'nk_'
'nez_'
'net'
'nes'
'nell'
'nationalism_'
'nal'
'médi'
'mutually_'
'museum_'
'munitions_'
'multitude_'
'mpl'
'monétaires_'
'montée_'
'mont'
'moni'
'momentum_'
'model'
'mobilis'
'ministry_'
'milli'
'mid'
'mesurer_'
'ment'
'mem'
'matic'
'male_'
'lé_'
'lux'
'lock'
'lle'
'lité_'
'lise'
'liquid'
'lin'
'lier_'
'lib'
'lei'
'lect'
'lan'
'lake_'
'lai'
'lacunes_'
'labelling_'
'kon'
'kilometres_'
'kha'
'joueur_'
'ix_'
'ivo'
'isti'
'isse_'
'isolated_'
'islamistes_'
'irement_'
'ique'
'invité_'
'investigate_'
'intégrante_'
'intra'
'intergouvernementale_'
'interactive_'
'institu'
'instabilité_'
'insolvency_'
'inquiétude_'
'inputs_'
'injured_'
'ini_'
'inherent_'
'inférieure_'
'info_'
'infer'
'industrialisés_'
'indienne_'
'ina_'
'immédiat_'
'immuni'
'immigrant_'
'imm'
'iller_'
'ille'
'ila'
'ig_'
'id'
'ible_'
'hr_'
'home'
'hir'
'hei'
'hed_'
'heavily_'
'headquarters_'
'guaranteeing_'
'graphique_'
'governed_'
'gne_'
'gna'
'gets_'
'gestionnaire_'
'ger'
'gel_'
'gaps_'
'fréquent'
'frères_'
'froide_'
'founding_'
'fitness_'
'firmly_'
'fibres_'
'feront_'
'fen'
'fashion_'
'fare_'
'familial_'
'fallen_'
'fal'
'fab'
'exécuter_'
'extending_'
'expressions_'
'expressing_'
'expresses_'
'expos'
'explosi'
'explore'
'existait_'
'exhaustive_'
'examens_'
'eti'
'estimons_'
'esa'
'erna'
'ep'
'entraîne_'
'entité_'
'ennemis_'
'enda'
'emp'
'emerge_'
'effondrement_'
'ease_'
'dév'
'déterminant_'
'déposée_'
'dépenser_'
'dépens'
'dépasser_'
'définis_'
'décideurs_'
'décide_'
'dues_'
'dramatically_'
'dramatic_'
'dr'
'douze_'
'domination_'
'divided_'
'disposons_'
'discretion_'
'disco'
'diriger_'
'directes_'
'dio'
'dinner_'
'die'
'dictatorship_'
'dge'
'detainees_'
'deployed_'
'dep'
'dens'
'denied_'
'demi'
'declining_'
'côtés_'
'créanciers_'
'cruel'
'counsel_'
'coordonner_'
'controlling_'
'conteste'
'contest_'
'contamination_'
'consultative_'
'consolidated_'
'consistant_'
'connue_'
'conjoint_'
'confortables_'
'conform'
'condemned_'
'condamnés_'
'comprise_'
'compos'
'compli'
'compilation_'
'compa'
'commandant_'
'color_'
'collaborer_'
'clon'
'cite_'
'circle_'
'cia'
'choc_'
'ching_'
'cheveux_'
'cherche'
'chemicals_'
'chat_'
'charme_'
'cco'
'cca'
'capacities_'
'cant'
'cain'
'bénéficié_'
'bs_'
'bruit_'
'britanniques_'
'bris'
'boys_'
'bow'
'bouton_'
'boutique_'
'bonus_'
'blog'
'blocks_'
'blessures_'
'bis'
'biodiversity_'
'bibliothèque_'
'beau_'
'bea'
'bat_'
'basé_'
'barre'
'bala'
'bak'
'bab'
'aï'
'aye'
'awards_'
'awa'
'avère_'
'autorisés_'
'autoriser_'
'augmentant_'
'atténuation_'
'attribution_'
'attracti'
'atteints_'
'ata'
'assi'
'asp'
'ars_'
'aries_'
'archives_'
'aquaculture_'
'apparemment_'
'anywhere_'
'antérieure_'
'amples_'
'ami'
'ambitions_'
'ambi'
'allowances_'
'ala_'
'aine'
'aident_'
'advised_'
'adressées_'
'adjacent_'
'addresses_'
'acquire_'
'aco'
'ache'
'accused_'
'accusations_'
'accus'
'ably_'
'Zélande_'
'You'
'William_'
'Wikitravel_'
'WO'
'Ville_'
'Var'
'Van_'
'Valley_'
'USD_'
'Tunisie_'
'Transfer_'
'Town_'
'Tou'
'Together_'
'Thirdly_'
'Technologies_'
'TN'
'TE'
'TB_'
'Systems_'
'Sus'
'Stra'
'Sto'
'Socialist_'
'Situation_'
'Sco'
'Saturday_'
'Sat'
'SUR_'
'SAR'
'Réserve_'
'Réseau_'
'Roman'
'Ric'
'Rh'
'Revolution_'
'Rein'
'Reduc'
'Reb'
'Real'
'RG'
'Provide_'
'Prize_'
'Pri'
'Pres'
'Post_'
'Polish_'
'Player_'
'Plans_'
'Pir'
'Pear'
'Pap'
'Palace_'
'PT'
'POS'
'PM_'
'PAR_'
'Ora'
'Not'
'Norvège_'
'Netanyahu_'
'Namibia_'
'NN'
'Mur'
'Mubarak_'
'Mig'
'Mary_'
'Marine_'
'Mao_'
'Malawi_'
'Mai'
'Mac_'
'MP3_'
'Likewise_'
'Lev'
'Les'
'Latvia_'
'Lastly_'
'Lan'
'Labrador_'
'LS'
'LLE'
'Kur'
'Kra'
'Ken'
'Kara'
'Kam'
'Ju'
'Inte'
'Institutions_'
'Inspection_'
'Ins'
'Informal_'
'Independent_'
'IRSC_'
'IF_'
'ICA'
'IB'
'Her_'
'Hat'
'Halifax_'
'HTML_'
'HCR_'
'Gulf_'
'Gu'
'Glo'
'Gla'
'Gestionnaire_'
'Gau'
'Gate'
'GT'
'Forms_'
'Fle'
'Finnish_'
'Finlande_'
'Fai'
'FL'
'Euros'
'Europ'
'Estonia_'
'Egypte_'
'ENT_'
'EME'
'Dr'
'Dor'
'Den'
'Demande_'
'Dec'
'Currency_'
'Crown_'
'Continu'
'Content_'
'Cond'
'Cliquez_'
'Climate_'
'Chef_'
'Chairperson_'
'Catal'
'CU'
'CR'
'CONS'
'CNUCED_'
'Bé'
'Bulletin_'
'Bu'
'Border_'
'Book_'
'Bas'
'Barcelona_'
'Bah'
'Autorité_'
'Autochtones_'
'Auditors_'
'Ari'
'App'
'Ap'
'Anne_'
'Ambassador_'
'Alt'
'Ak'
'Abe'
'AT_'
'ASS'
'AO'
'A3'
'>'
'='
';&_'
'64'
'240_'
'1945_'
'186'
'125'
'%), _'
' )._'
' %, _'
' '
'û'
'ôme_'
'î'
'éventuelle_'
'étis'
'épidémie_'
'épi'
'énoncées_'
'émi'
'émergence_'
'éli'
'élevage_'
'écosystèmes_'
'éco'
'ão_'
'Ê'
'{'
'wishing_'
'wis'
'wireless_'
'weakness_'
'warned_'
'vo_'
'villa'
'viewed_'
'vidéos_'
'victime_'
'vici'
'ver'
'vent'
'vat'
'variable_'
'valent'
'usly_'
'uph'
'universitaire_'
'universel_'
'unfair_'
'ultimate_'
'ulated_'
'ual'
'tto'
'tted_'
'trouvera_'
'triggered_'
'trees_'
'treatments_'
'transmit_'
'transformé'
'transform_'
'transatlantic_'
'tram'
'trained_'
'towns_'
'tourists_'
'touristiques_'
'touchées_'
'totales_'
'tif_'
'thoroughly_'
'termina'
'tera'
'tar_'
'tant'
'tanks_'
'taires_'
'sûreté_'
'sûre_'
'sées_'
'swing'
'swe'
'surveiller_'
'surv'
'supposed_'
'superb_'
'suffisantes_'
'subi_'
'strain_'
'sten'
'stan'
'sportives_'
'sponsors_'
'specialists_'
'souvien'
'soulevé_'
'sondage_'
'solarium_'
'slowly_'
'slow'
'sli'
'signification_'
'signals_'
'sie_'
'sheet_'
'sha'
'sending_'
'sem'
'seekers_'
'seed_'
'seal'
'schéma_'
'sch_'
'scar'
'sauvetage_'
'sand'
'sake_'
'sag'
'révèle_'
'répondent_'
'régulière_'
'régi'
'réform'
'réclamations_'
'rÃ_'
'run'
'ron_'
'rk'
'riv'
'rim'
'rigid_'
'rib'
'rial_'
'reveal_'
'retail_'
'restored_'
'restera_'
'resolving_'
'resc'
'repeated_'
'renforçant_'
'renewable_'
'rendue_'
'rencontrer_'
'remplace'
'rembourser_'
'religieuse_'
'reliability_'
'reform'
'refine'
'referring_'
'reconnaissent_'
'receives_'
'rde'
'rats_'
'ramp'
'raisonnables_'
'rain'
'raci'
'quiconque_'
'quet_'
'quantity_'
'quai'
'pér'
'purement_'
'publier_'
'présente'
'prém'
'précédents_'
'proven_'
'prouver_'
'protest_'
'pros'
'proph'
'problématique_'
'preventive_'
'premi'
'ppi'
'poursuivi_'
'potentiels_'
'potentiellement_'
'possèdent_'
'positives_'
'portes_'
'pop_'
'polit'
'polio_'
'pillar_'
'pil'
'phenomenon_'
'pesticides_'
'perfectly_'
'perf'
'pension'
'penalties_'
'pen'
'payé_'
'passion_'
'passing_'
'partial_'
'partagent_'
'parrain'
'parcours_'
'parameters_'
'pad'
'packaging_'
'overt'
'outs'
'outbreak_'
'oun'
'origina'
'orienter_'
'ori'
'onis'
'omet'
'oiseaux_'
'officieuses_'
'odo'
'odi'
'oco'
'observé_'
'numér'
'noyau_'
'not'
'normalisation_'
'nominal_'
'nn_'
'nin'
'ners_'
'nde'
'nch'
'nationali'
'nage_'
'médic'
'musulman_'
'mpt'
'mpo'
'motor_'
'motivation_'
'mortalité_'
'modéré'
'modula'
'mining_'
'millénaire_'
'milita'
'mes'
'merci_'
'medicines_'
'medi'
'maîtrise_'
'mauvaises_'
'massage_'
'massacre_'
'mart'
'marr'
'manières_'
'mandates_'
'lon_'
'logic_'
'logements_'
'lit'
'linguistique_'
'lic'
'liberty_'
'lf'
'laundering_'
'laboratoires_'
'kw'
'kno'
'kh'
'jugé_'
'judg'
'joining_'
'jeter_'
'ive'
'iva'
'iu'
'ites_'
'irre'
'iron_'
'ionary_'
'inégalité_'
'invent'
'intervien'
'intensifier_'
'intend'
'integrating_'
'instauration_'
'instar_'
'inscri'
'inn'
'injuries_'
'iner_'
'indirect_'
'indicating_'
'incorporation_'
'incitation_'
'inaugur'
'impu'
'immigrés_'
'imbalances_'
'illus'
'ienc'
'identique_'
'ide'
'hè'
'hyp'
'huitième_'
'hostel_'
'hospitality_'
'hospitali'
'ho_'
'hme'
'his'
'hemi'
'help'
'hautement_'
'hard'
'hall'
'habituellement_'
'hab'
'géré_'
'géographiques_'
'génie_'
'gée_'
'guides_'
'ghe'
'genocide_'
'garçons_'
'gari'
'gained_'
'félicitons_'
'fréquemment_'
'frequent_'
'free'
'franc'
'fragment'
'fournies_'
'forty_'
'formulée_'
'formats_'
'forestières_'
'foremost_'
'fluctuations_'
'flou'
'financées_'
'file'
'fier'
'ff'
'fewer_'
'feu'
'ferme'
'fardeau_'
'fantas'
'extraction_'
'expuls'
'expose_'
'explicitement_'
'explicit_'
'expiration_'
'exemplaires_'
'excluding_'
'excite'
'exact_'
'eth'
'ete'
'estation_'
'espaces_'
'ers'
'ero_'
'eries_'
'envo'
'enn'
'engage'
'encr'
'encour'
'ences_'
'enb'
'embl'
'eliminating_'
'eld_'
'ej'
'educated_'
'eci'
'développe'
'détermine'
'dépense_'
'dépendent_'
'déf'
'dé'
'dure_'
'dure'
'duc'
'dront_'
'drink_'
'dream_'
'doubts_'
'doté_'
'dispara'
'discut'
'discriminatory_'
'discover_'
'directrice_'
'différend_'
'devrons_'
'detected_'
'detained_'
'destinations_'
'desk_'
'desired_'
'design'
'descriptions_'
'depression_'
'deposits_'
'denominat'
'declarations_'
'dece'
'debtor_'
'célébr'
'cui'
'ct_'
'criminels_'
'criminals_'
'couvert_'
'court'
'courrier_'
'coups_'
'correspondent_'
'cord'
'copie_'
'cooperative_'
'convincing_'
'convictions_'
'contract'
'continueront_'
'conten'
'cont'
'consultants_'
'console_'
'consistently_'
'consiste'
'consacrer_'
'congé_'
'conformer_'
'condamn'
'concessions_'
'compétente_'
'complaint_'
'compenser_'
'communiqué_'
'commodity_'
'come'
'combustibles_'
'combattants_'
'color'
'collect_'
'collat'
'coll'
'coin_'
'cohérente_'
'closure_'
'closing_'
'clear'
'clarifi'
'cited_'
'cid'
'cher'
'chaud'
'chas'
'chant_'
'challenging_'
'centers_'
'catholique_'
'cate'
'carr'
'bureaucratic_'
'bull'
'broken_'
'broadcasting_'
'brand_'
'boot_'
'boost'
'bond_'
'bomb'
'boards_'
'bless'
'bina'
'bin_'
'beaches_'
'barre_'
'baisser_'
'avoiding_'
'avi'
'averti'
'avancé_'
'austérité_'
'aus'
'attending_'
'assure'
'ascen'
'arti'
'appuy'
'appro'
'appreciated_'
'appr'
'appeals_'
'anonym'
'ane'
'ande'
'anc'
'analyser_'
'analy'
'allég'
'alcool_'
'ajustement_'
'agro'
'aggressive_'
'aged_'
'afficher_'
'ador'
'adjusted_'
'acute_'
'actives_'
'acqui'
'acides_'
'accuracy_'
'accueilli_'
'accro'
'absolue_'
'Yugoslav_'
'Young_'
'Xi'
'Welcome_'
'WS'
'Vis'
'Verheugen_'
'Vatican_'
'User_'
'Up'
'Unit'
'UNIDO_'
'Tourism_'
'Tour'
'Ton'
'TEN'
'Sy'
'Sui'
'Statut_'
'Stan'
'Spr'
'Sport_'
'Spa'
'Sn'
'Singapour_'
'Sche'
'Sca'
'SQL_'
'Rural_'
'Ros'
'Romney_'
'Rol'
'Ris'
'Response_'
'Release_'
'Refugees_'
'Recommandation_'
'Radi'
'RP_'
'RO_'
'Quoi_'
'Qui'
'Quels_'
'QUI'
'Pré'
'Près_'
'Provision'
'Protect'
'Progress_'
'Porta'
'Points_'
'Photocopying_'
'Phase_'
'Personal_'
'Peoples_'
'Pension_'
'Participation_'
'Paragraph_'
'Pack_'
'Overview_'
'Om'
'Offer'
'Ocean_'
'Oc'
'OM'
'OB'
'NP'
'Moo'
'Mobili'
'Mental_'
'Memorandum_'
'Mei'
'Mark'
'Marie_'
'Main'
'Mag'
'Made'
'MPO_'
'MI'
'Luggage_'
'Los_'
'Lit'
'Link'
'Learning_'
'Lang'
'LDCs_'
'Kon'
'Kit'
'Key_'
'Kad'
'KA'
'JA'
'It'
'Indigenous_'
'Inde'
'Ill'
'Ib'
'ISS'
'INTER'
'IMP'
'Hotels_'
'Hostelsclub_'
'Hill'
'Helsinki_'
'Heating_'
'Have_'
'Ham'
'HP'
'HC'
'Général_'
'Gordon_'
'Gam'
'Gal'
'GRA'
'GMOs_'
'Fred'
'Father_'
'FR'
'FF'
'Es_'
'England_'
'Encourage'
'Elimination_'
'EP_'
'EMENT_'
'EG'
'ECT'
'Doc'
'Dell_'
'Daw'
'DFO_'
'DD'
'Cross_'
'Corr'
'Corps_'
'Contract_'
'Consultations_'
'Coast_'
'Coalition_'
'Cla'
'Cinquième_'
'Champion'
'Carl'
'Cambodia_'
'Calderón_'
'Cadre_'
'CRI'
'Burkina_'
'Bot'
'Bissau_'
'Beaucoup_'
'Bat'
'Barr'
'Bangkok_'
'Back'
'Arthur_'
'Arch'
'Appro'
'Apple_'
'Alle'
'Address_'
'Activités_'
'ATI'
'ANT_'
'ANN'
'AM_'
'92'
'79'
'750_'
'235_'
'1st_'
'1977_'
'1972_'
'187'
'179'
'175'
'122'
'06'
'003'
'+ _'
''' _'
'! '
' »'
'  _'
' [[_'
' : "_'
' * _'
''
'— _'
'œ'
'ür'
'ú'
'êch'
'évoqu'
'évolutions_'
'évalu'
'étique_'
'établissant_'
'équipé_'
'émergentes_'
'émanant_'
'égale_'
'édu'
'échange'
'än'
'Â'
'®'
'zo_'
'zh'
'zes_'
'ym'
'yd'
'yan_'
'ws'
'worker_'
'wn_'
'wl'
'wisdom_'
'wines_'
'wheel'
'weather_'
'weaknesses_'
'wat'
'wards_'
'walls_'
'wa_'
'véritables_'
'volunteers_'
'voilà_'
'virtual_'
'vins_'
'vic'
'venue_'
'vau'
'variété_'
'variations_'
'vapeur_'
'uve'
'urbaine_'
'upgrade_'
'unsustainable_'
'unsu'
'uno'
'unlimited_'
'unilatérale'
'una_'
'ultra_'
'ultra'
'ule_'
'uf'
'turn'
'tude_'
'tting_'
'tter_'
'tt_'
'truc'
'transporte'
'translate_'
'transitional_'
'transformer_'
'tranche_'
'toxiques_'
'tourne'
'touristique_'
'toll_'
'tire'
'tien'
'tial_'
'théâtre_'
'thématiques_'
'theme_'
'thematic_'
'tha'
'tet'
'territoriale_'
'tendent_'
'temporaires_'
'tate'
'tall'
'tage_'
'tac'
'syst'
'syndrome_'
'swa'
'sustain_'
'supérieures_'
'supplément_'
'suppl'
'suit'
'sui'
'sugar_'
'suddenly_'
'successor_'
'subt'
'stipule_'
'stick_'
'sted_'
'squa'
'spécialisée_'
'spots_'
'spin'
'specify_'
'spatiales_'
'souhaitons_'
'souffrances_'
'socio'
'socially_'
'smoke'
'sme'
'sk_'
'signer_'
'shipping_'
'shame_'
'serveurs_'
'serv'
'seri'
'separation_'
'senti'
'sensor'
'semblait_'
'semblable_'
'sel_'
'sees_'
'sec'
'satisf'
'sar'
'sail'
'révisée_'
'réuni_'
'répondants_'
'référen'
'réelles_'
'récupérer_'
'réalisée_'
'réagi'
'royal_'
'rous'
'rot'
'roof'
'ronde_'
'rna'
'rn_'
'rl'
'rise'
'ris_'
'rip'
'richesses_'
'reviv'
'revers'
'reven'
'retiré'
'retards_'
'restrict_'
'responding_'
'reside'
'reserved_'
'représentés_'
'rep'
'rentabilité_'
'renforcée_'
'renforce_'
'remuneration_'
'remedy_'
'remedies_'
'relèvent_'
'relaxing_'
'refusal_'
'reflecting_'
'recover_'
'recognise_'
'rece'
'reb'
'reassur'
'rear'
'realities_'
'rationnelle_'
'ration'
'rarement_'
'rarely_'
'rapportant_'
'rang'
'ran_'
'rais_'
'radicale'
'quest_'
'quent_'
'quart_'
'pêches_'
'publiées_'
'publiquement_'
'publi'
'pse'
'prévalence_'
'préférences_'
'provoqué_'
'protégées_'
'prosecution_'
'propagation_'
'prononcer_'
'prominent_'
'prisons_'
'prevailing_'
'presenting_'
'premièrement_'
'precedence_'
'pratiqué'
'pourparlers_'
'porté_'
'portugais_'
'populaires_'
'politiquement_'
'point'
'poche'
'plages_'
'placés_'
'pipeline_'
'pharmaco'
'pes_'
'pert'
'personally_'
'persist'
'perd'
'pel'
'peer_'
'paysage_'
'pati'
'paroles_'
'pack_'
'oï'
'ove'
'outreach_'
'outer_'
'ours_'
'ound'
'otic'
'orthodox'
'opérationnels_'
'opposer_'
'operated_'
'oo_'
'ong'
'omm'
'omb'
'oin'
'ographi'
'officiers_'
'oct'
'oci'
'oche'
'occupent_'
'observ'
'obligatoires_'
'néglige'
'née_'
'nurse'
'nul_'
'ntin'
'nowadays_'
'notable_'
'noir_'
'nir'
'nder'
'nazi'
'navette_'
'nationalist_'
'mérit'
'ménage'
'mènent_'
'mutuel'
'municipalities_'
'mul'
'mour'
'montr'
'modernization_'
'mixed_'
'ministériel_'
'migrations_'
'methodology_'
'meter_'
'merc'
'mentionnés_'
'mentionner_'
'mechanical_'
'meals_'
'maybe_'
'marines_'
'marg'
'manifestement_'
'mandats_'
'majeures_'
'magnificent_'
'magic_'
'lés_'
'législative_'
'lue'
'lower'
'love'
'locked_'
'locations_'
'local'
'loan_'
'load'
'live'
'linking_'
'liked_'
'libérer_'
'librement_'
'libellé_'
'liable_'
'liabilities_'
'leu'
'lendemain_'
'legacy_'
'ld'
'last'
'kt'
'king'
'kill_'
'kat'
'jui'
'ivi'
'itu'
'istic_'
'israéliennes_'
'israélien_'
'ira'
'invisible_'
'invi'
'inverse_'
'interview_'
'interven'
'interpreted_'
'interna'
'intern'
'interdis'
'interact'
'intellectuel'
'installé_'
'insist'
'insert'
'inse'
'inquiry_'
'innocent_'
'injection_'
'influenza_'
'infi'
'infected_'
'individuel_'
'indirectly_'
'incomes_'
'inclut_'
'inciter_'
'inc'
'inal'
'inad'
'impunity_'
'impré'
'ime'
'ima'
'illé'
'illicite_'
'ile'
'ignor'
'iding_'
'ibles_'
'iP'
'hérit'
'hydrog'
'hus'
'house'
'hm'
'hire_'
'het_'
'hectares_'
'heart'
'harde'
'harassment_'
'habit'
'habilit'
'génétiques_'
'génocide_'
'guéri'
'guid'
'gs'
'grandement_'
'gran'
'grad'
'gno'
'globe_'
'gie'
'gene'
'gam'
'gagné_'
'gagn'
'fête_'
'fus'
'fulfilled_'
'fréquente'
'frustration_'
'fru'
'frein_'
'fought_'
'fortifi'
'formuler_'
'forming_'
'forment_'
'fondations_'
'fonctionnent_'
'flood'
'fixation_'
'fix'
'fire'
'fini'
'fest'
'fer'
'favorisant_'
'farms_'
'facilit'
'fabricant_'
'fa_'
'exécuté'
'externe_'
'exported_'
'explor'
'experimental_'
'exister_'
'execution_'
'exclusi'
'exclu'
'exceeding_'
'examinées_'
'examinée_'
'exacerb'
'evaluations_'
'eto'
'esta'
'esses_'
'ess'
'ero'
'ern'
'erm'
'ering_'
'ered_'
'equitable_'
'entertainment_'
'ensures_'
'enshrined_'
'engagée_'
'engaging_'
'enchant'
'elegant_'
'eff'
'edition_'
'eat_'
'développées_'
'dériv'
'dépôts_'
'dépression_'
'démocrate_'
'démi'
'délivré'
'délivrance_'
'défendu'
'découvert_'
'décisionnel_'
'dus_'
'dual_'
'drew_'
'drafting_'
'downs'
'doubl'
'dominance_'
'doc'
'dn'
'dm'
'dispens'
'discre'
'directors_'
'director_'
'dirai'
'din'
'deu'
'descend'
'deposit_'
'deposit'
'delivering_'
'decreased_'
'declare_'
'dec'
'db'
'dangereuses_'
'damages_'
'dam_'
'cz'
'cultiv'
'crédible_'
'cré'
'criminali'
'craintes_'
'cow'
'cove'
'couvre_'
'courants_'
'corr'
'conta'
'consult_'
'constitutionnel_'
'conservé'
'congrès_'
'confront'
'confortablement_'
'concludes_'
'conce'
'comptable_'
'composée_'
'composed_'
'compose_'
'composantes_'
'complémentaire_'
'complexity_'
'completing_'
'complementary_'
'complain'
'comparer_'
'comme'
'commander_'
'commandement_'
'combustion_'
'colonial_'
'cola'
'cof'
'cliniques_'
'clar'
'cit'
'cigarettes_'
'cibles_'
'chronique_'
'chlor'
'chimi'
'chil'
'cherchent_'
'chen'
'characters_'
'channel_'
'champs_'
'cf_'
'certificats_'
'cement_'
'cati'
'cat_'
'canada_'
'calculation_'
'bul'
'bugs_'
'briefly_'
'boy'
'boutiques_'
'bourses_'
'bour'
'blow'
'block'
'blessé'
'birds_'
'biotechnologie_'
'beneficiaries_'
'begins_'
'barrières_'
'balances_'
'baie_'
'bagagerie_'
'badly_'
'az'
'avancement_'
'aut'
'auberges_'
'attribué'
'attentivement_'
'attempting_'
'attempted_'
'attache'
'atif_'
'assurant_'
'associées_'
'asse'
'artistes_'
'arme_'
'architectural_'
'arbres_'
'approuver_'
'appropriately_'
'apportent_'
'appellant_'
'apartments_'
'ané'
'and'
'ancy_'
'amic'
'ami_'
'alism_'
'aimer'
'agisse_'
'affectées_'
'affaibli'
'adéquate_'
'advocates_'
'advances_'
'adr'
'admit_'
'administré'
'administrateurs_'
'ades_'
'adequately_'
'activists_'
'actionnaires_'
'ach'
'accréditation_'
'accomplish_'
'aborde'
']]'
'XXX'
'XP_'
'XL'
'Would_'
'Wild'
'Wiki'
'Walk'
'View_'
'View'
'Vie'
'Understanding_'
'Uganda_'
'UPS_'
'UNITAR_'
'UNI'
'UNC'
'Tun'
'Tuesday_'
'Transportation_'
'Trai'
'Torture_'
'Tim'
'Tar'
'TY_'
'TV'
'TPSGC_'
'TIC_'
'Sydney_'
'Supplément_'
'Sun'
'Strategic_'
'Stephen_'
'Statute_'
'Statements_'
'Standards_'
'Spring_'
'Speed_'
'Sor'
'Son'
'Somalie_'
'Somalia_'
'Slovénie_'
'Six_'
'Sea'
'Scr'
'Schröder_'
'STO'
'STE'
'STA'
'SS_'
'SR'
'SN'
'SIS_'
'Récemment_'
'Ross'
'Resort_'
'Regi'
'Reference_'
'Quelques_'
'Qu'
'Prev'
'Postes_'
'Physic'
'Performance_'
'Pas'
'Participants_'
'Part'
'Panama_'
'Pala'
'PP_'
'PNUE_'
'Ori'
'Offences_'
'ONT'
'OLAF_'
'OG'
'Nik'
'Nepal_'
'Nature_'
'NCE_'
'N1_'
'Méditerranée_'
'Much_'
'Morsi_'
'Modifi'
'Men'
'Medicine_'
'Medi'
'McM'
'Mas'
'Marin'
'MT'
'MDGs_'
'Liste_'
'Limit'
'Liechtenstein_'
'Liberia_'
'Leg'
'Ladies_'
'LCD_'
'Kor'
'Kofi_'
'KL'
'KI'
'Jun'
'Java_'
'Jamaica_'
'Istanbul_'
'Israéliens_'
'Islamist_'
'Inuit_'
'Industries_'
'IST'
'IA_'
'IAL'
'History_'
'Histoire_'
'Haïti_'
'Hal'
'Haiti_'
'Hab'
'HD'
'Gé'
'Gri'
'Golden_'
'Geno'
'GUE_'
'Fried'
'Français_'
'Francophone_'
'Former_'
'Format_'
'Florence_'
'Five_'
'Fit'
'Faso_'
'Far'
'Exi'
'Est'
'Esp'
'Engineering_'
'End_'
'Emp'
'Emil'
'Economics_'
'ESC'
'ECO'
'Décide_'
'Drag'
'Dou'
'Don_'
'Documentation_'
'Disp'
'Det'
'Def'
'Dea'
'Darfour_'
'Danish_'
'Customer_'
'Credit_'
'Core_'
'Cooper'
'Consequently_'
'Comme'
'Clos'
'Clar'
'Cher'
'Cau'
'Castro_'
'Capt'
'Cape_'
'CRP_'
'COMP'
'CK'
'CH_'
'CEP'
'CAP_'
'CAL'
'Britanniques_'
'Bolkestein_'
'Berg'
'Ban_'
'Bac'
'Australian_'
'Aur'
'Aug'
'Applications_'
'Applaudissements_'
'Airlines_'
'Airbus_'
'Aid_'
'Age_'
'Add'
'Activities_'
'Acc'
'Abo'
'Aba'
'ACT_'
'? '
'204_'
'1949_'
'132'
'107_'
'101_'
'0s_'
'* '
'% '
' ['
' : «'
' '
'č'
'ć_'
'évidente_'
'évalués_'
'évacuation_'
'éto'
'étiquet'
'étend'
'énoncé_'
'élites_'
'électrique_'
'élargie_'
'égal_'
'écologique_'
'éclat'
'éci'
'échecs_'
'écarts_'
'ètent_'
'ète_'
'èmes_'
'ço'
'án'
'yst'
'yla'
'yen_'
'wre'
'wound'
'wife_'
'whilst_'
'whatsoever_'
'well'
'wee'
'wear_'
'wal'
'végéta'
'vulnérabilité_'
'vre'
'vraie_'
'vole'
'voices_'
'vis'
'ving'
'view'
'vie'
'verte_'
'venture_'
'ven_'
'varient_'
'varie'
'vant_'
'validity_'
'vague_'
'vag'
'uté'
'ute_'
'ust'
'usi'
'urbains_'
'updates_'
'unwi'
'unstable_'
'universali'
'unfa'
'unes_'
'unemployed_'
'undi'
'unch'
'uncertain_'
'unb'
'unanimously_'
'uma'
'ull'
'ud_'
'tte'
'trust'
'trips_'
'transporteurs_'
'tranch'
'trait'
'tol'
'toires_'
'tk'
'tives_'
'tionnel'
'tiny_'
'till'
'tifs_'
'tier'
'tid'
'tics_'
'thre'
'thousand_'
'thon_'
'thereof_'
'text'
'termine'
'teri'
'tendency_'
'temporarily_'
'tem'
'tech_'
'teacher_'
'tast'
'tariff_'
'targeting_'
'sûrs_'
'sérieuses_'
'sèche_'
'systém'
'symptoms_'
'symboli'
'symbole_'
'sym'
'switch_'
'surveys_'
'supposé'
'suiv'
'substitution_'
'subsidy_'
'subp'
'submissions_'
'subm'
'stored_'
'stem'
'stayed_'
'statute_'
'statut'
'stati'
'stand'
'spéculati'
'spi'
'spell'
'souvenir_'
'souscrit_'
'sound'
'souhait'
'sol'
'soirée_'
'soi'
'smart_'
'sleep_'
'situ'
'sit_'
'sing'
'sin_'
'simul'
'signaux_'
'sign'
'sights_'
'sie'
'shel'
'shareholders_'
'seurs_'
'seuil_'
'settlements_'
'settle'
'servants_'
'sent'
'sensibilité_'
'securities_'
'secondly_'
'scre'
'scr'
'sco_'
'scholar'
'schi'
'scene_'
'sce'
'scandal'
'satisfaisant'
'sancti'
'saluer_'
'salue_'
'sad'
'sacrifi'
'sab'
'réso'
'réserv'
'références_'
'réformer_'
'réfléchi'
'réf'
'réclamation_'
'réalités_'
'réalisa'
'rurale_'
'ruc'
'routine_'
'round'
'rouge_'
'rooted_'
'roll'
'rive'
'risky_'
'rio'
'ril'
'rien'
'ridicul'
'ride_'
'rian_'
'retourne'
'retombées_'
'retailers_'
'restauration_'
'ressenti'
'respectés_'
'respectent_'
'respectant_'
'représenté_'
'repro'
'repos_'
'repe'
'rencontré_'
'remov'
'rembours'
'reliance_'
'regulators_'
'regulate_'
'regrette_'
'reflètent_'
'reduces_'
'recouvrement_'
'recommand'
'recom'
'rec'
'realization_'
'realis'
'readiness_'
'rdi'
'ray_'
'rappelé_'
'raph'
'rant'
'rach'
'rab'
'puni'
'pt'
'psychologique_'
'préparé_'
'préoccupe'
'préférence_'
'préa'
'provinciaux_'
'protéines_'
'propriétés_'
'proposons_'
'promo'
'prolongée_'
'projected_'
'prohibition_'
'progressé_'
'progresse'
'profondeur_'
'professeur_'
'productions_'
'procurer_'
'proclaim'
'proceeding_'
'prié_'
'pris'
'prendra_'
'prejudice_'
'predict_'
'pp'
'posée_'
'possess_'
'posent_'
'portfolio_'
'por'
'polonais_'
'polluants_'
'policiers_'
'pola'
'pioneer'
'pig'
'pieds_'
'picturesque_'
'pertinent_'
'persiste'
'pee'
'payant'
'patents_'
'passive_'
'passion'
'parvien'
'partisan_'
'parfaite_'
'parcs_'
'paraît_'
'parallèle_'
'papers_'
'ozone_'
'ouvertes_'
'ous'
'ourg_'
'oso'
'orphelins_'
'oris'
'orie'
'ordonnance_'
'orders_'
'orat'
'optique_'
'optimal_'
'opt'
'opposé_'
'oppos'
'onner_'
'oms_'
'ombre_'
'ologi'
'oint'
'oi_'
'od'
'océans_'
'occurs_'
'occ'
'obs'
'numéros_'
'num'
'nulle_'
'nqu'
'normale_'
'nonetheless_'
'noc'
'newspaper_'
'newsletter_'
'nest'
'neo'
'neighbours_'
'nee'
'nate'
'nas_'
'nac'
'mét'
'mélange_'
'médecin_'
'myst'
'mutuelle_'
'musical_'
'murder_'
'municipalités_'
'multinationales_'
'movie_'
'mount'
'mot'
'mont_'
'monopoly_'
'modules_'
'mmer'
'mistakes_'
'mira'
'minimize_'
'milk_'
'mili'
'mie'
'midi_'
'mers_'
'menus_'
'mentionnées_'
'mente'
'mentaux_'
'mentation_'
'mbo'
'mber'
'mau'
'maternelle_'
'mate'
'match'
'mas_'
'marke'
'marginalis'
'marc'
'mar_'
'manufacturer_'
'manual_'
'mans'
'manipul'
'malt'
'malaise_'
'majeurs_'
'maintenu_'
'magi'
'machinery_'
'législations_'
'lur'
'lovely_'
'longueur_'
'loading_'
'ller_'
'lk'
'lite'
'libéré'
'libéraux_'
'liberalization_'
'lem'
'lecteurs_'
'law'
'las'
'lar_'
'laissez_'
'lade'
'kr'
'kl'
'kitchen_'
'kit'
'keyword_'
'ken_'
'jury_'
'jam'
'iés_'
'iz'
'ively_'
'isses_'
'iss'
'ise'
'iors_'
'ior_'
'investi'
'inventory_'
'inutiles_'
'intérimaire_'
'intran'
'intolerance_'
'interior_'
'interactions_'
'insult'
'insulaires_'
'insuffisant_'
'inspiration_'
'insisté_'
'inscrits_'
'innov'
'init'
'infra'
'info'
'infa'
'industrielles_'
'industrialized_'
'incapable_'
'imé'
'imposée_'
'impartial_'
'immédiate_'
'immobiliers_'
'imb'
'imagin'
'ily_'
'illustre'
'illusion_'
'ification_'
'iew'
'ien'
'iel_'
'idrc_'
'ices_'
'ibu'
'ias'
'ial'
'hôtes_'
'hôpitaux_'
'hunt'
'hou'
'hot'
'horaires_'
'hidden_'
'hence_'
'hem'
'heating_'
'handle_'
'han'
'gérés_'
'généré'
'généralis'
'gé'
'guiding_'
'gua'
'grew_'
'greatly_'
'gravité_'
'gram'
'goût_'
'gouvernemental_'
'goo'
'globally_'
'globali'
'glass_'
'girl_'
'ghte'
'genres_'
'geno'
'generous_'
'gau'
'garde'
'gall'
'fédérales_'
'fusion_'
'frein'
'fra'
'fossiles_'
'formulated_'
'formel'
'fondés_'
'fonctionna'
'flotte_'
'fis'
'fires_'
'filtr'
'filter_'
'fig'
'fi_'
'fermé_'
'ferait_'
'females_'
'feeding_'
'favorite_'
'faun'
'faction_'
'ez'
'extraordinary_'
'exploité'
'explains_'
'exigeant'
'exercent_'
'exerce_'
'exerc'
'excursions_'
'exclure_'
'exceptionnels_'
'evaluating_'
'esse'
'essaie'
'espér'
'espion'
'erra'
'erne'
'erg_'
'eradication_'
'envisage'
'environnemental_'
'envie_'
'entes_'
'entend'
'entail_'
'enrichment_'
'enrichi'
'ennemi_'
'enlevé'
'enlarged_'
'englobe_'
'enforce_'
'endi'
'encourage'
'ence'
'employ'
'emic'
'elli'
'elderly_'
'effondr'
'effectif_'
'eenth_'
'développé_'
'déstabilis'
'désignés_'
'dés_'
'déra'
'déplor'
'dég'
'défenseurs_'
'défaite_'
'défa'
'décret_'
'débit_'
'dé_'
'dÃ_'
'dwell'
'dur_'
'dry_'
'dropped_'
'dreams_'
'draw'
'drag'
'doute'
'dot'
'documented_'
'divide_'
'divergences_'
'dits_'
'distribué_'
'distinguer_'
'distingue_'
'disse'
'dispose'
'disparu_'
'dismissed_'
'disappeared_'
'diplomatiques_'
'diplomatie_'
'digne_'
'diffus'
'diff'
'dg'
'desperate_'
'desp'
'deserve_'
'describes_'
'deprived_'
'dependence_'
'departmental_'
'denrées_'
'denial_'
'demographic_'
'demandant_'
'dem'
'deeper_'
'cus'
'crops_'
'creditors_'
'crati'
'craignent_'
'coupable_'
'count_'
'coordonn'
'coordinat'
'conviendrait_'
'convened_'
'contrôlée_'
'continuation_'
'contenir_'
'contemp'
'consume'
'construi'
'constructif_'
'constituée_'
'consommé'
'conservative_'
'conque'
'connecting_'
'confidentiality_'
'concluding_'
'concerted_'
'concernée_'
'compren'
'complainant_'
'communiqués_'
'collaborative_'
'coefficient_'
'coe'
'classiques_'
'clarity_'
'cl'
'cks_'
'cker_'
'civilisations_'
'chocolat_'
'chin'
'chaos_'
'chant'
'ces'
'certified_'
'ceremony_'
'cepti'
'cente'
'carries_'
'cara'
'capability_'
'camion'
'cade'
'button_'
'bulk_'
'brutale'
'brut_'
'broke_'
'bre_'
'brain_'
'brac'
'borrowing_'
'boli'
'bold_'
'blood'
'biodiversité_'
'billets_'
'bienn'
'bienfaisance_'
'bia'
'benefited_'
'belge_'
'bel_'
'battery_'
'bass'
'base'
'bandes_'
'band'
'ballot_'
'balcony_'
'bais'
'aéroports_'
'avocat_'
'autonomes_'
'automatique_'
'autodétermination_'
'aul'
'augmentent_'
'ature_'
'attribu'
'attractive_'
'atteintes_'
'atoire_'
'atlantique_'
'ational_'
'associer_'
'asso'
'assiste'
'aru'
'artistic_'
'arrêté_'
'arra'
'arr'
'arn'
'architect'
'arc'
'aquatic_'
'apt'
'apport'
'appelons_'
'appelant_'
'appel'
'appartement_'
'ape'
'antérieures_'
'antis'
'animation_'
'ang_'
'amin'
'amenities_'
'alter_'
'allocations_'
'allemandes_'
'allait_'
'albeit_'
'aj'
'ah'
'aging_'
'aggression_'
'age'
'afternoon_'
'affirmation_'
'af'
'advocate_'
'advisor'
'administrer_'
'administratifs_'
'adjust_'
'acted_'
'act'
'accusés_'
'accusation_'
'accompagn'
'absorbe'
'abo'
'Zh'
'Zealand_'
'XX_'
'Wilson_'
'Wie'
'WIN'
'WI'
'WA_'
'Vu_'
'Violence_'
'Vic'
'VII_'
'VEL'
'Up_'
'Unless_'
'UX_'
'URL_'
'UP'
'UD'
'UA'
'Téléphone_'
'Trop'
'Troisièmement_'
'Trent'
'Top'
'Tit'
'Tip_'
'Test_'
'Ter'
'Tampere_'
'TS'
'TI_'
'TER'
'T1'
'Subject_'
'Stat'
'Spending_'
'Sp'
'Soi'
'Ski'
'Sino'
'Shanghai_'
'Set_'
'Serb'
'Sahara_'
'Sad'
'Sach'
'SW'
'STI'
'SIDA_'
'SG'
'SCT_'
'Rép'
'Roth'
'Roc'
'Return_'
'Rend'
'Recommendations_'
'Recommendation_'
'Rece'
'Real_'
'Reagan_'
'Rail'
'Raf'
'RAL_'
'Qaeda_'
'QUES_'
'Proliferation_'
'Produits_'
'Presidents_'
'Pr'
'Pou'
'Por'
'Politique_'
'Pl'
'Persi'
'PR_'
'PRI'
'Objectifs_'
'OK_'
'Notice_'
'Niger_'
'News'
'New'
'Musharraf_'
'Moscow_'
'Monte'
'Model_'
'Mise_'
'Ministerial_'
'Milosevic_'
'Michel_'
'Meli'
'McG'
'May'
'Marshall_'
'Man_'
'Malte_'
'Malaisie_'
'Making_'
'Mae'
'Maastricht_'
'MM_'
'MIS'
'MEPs_'
'MC_'
'Loc'
'Livre_'
'Live'
'Lig'
'Leader_'
'Laundry_'
'Lakes_'
'LT'
'Kos'
'Korean_'
'Juli'
'Jou'
'Jane'
'Jac'
'JP'
'Integration_'
'Inn'
'Indiens_'
'Imm'
'ISP'
'IR_'
'INT'
'INS'
'IM_'
'Hu_'
'Hospital_'
'Horaires_'
'Heureusement_'
'Haz'
'Hall'
'HR'
'Gue'
'Grant'
'Governor_'
'Germans_'
'Gazette_'
'Game_'
'GS'
'GC_'
'Fuji'
'Fifty_'
'Feed'
'Fau'
'Fat'
'Fan'
'FP'
'FA_'
'Export_'
'Export'
'Europol_'
'Epi'
'End'
'Encore_'
'Enc'
'Employees_'
'Employe'
'Elevator_'
'Eglise_'
'Effect'
'Educational_'
'Edmonton_'
'Ecuador_'
'EB'
'Droit_'
'Down'
'Domini'
'Disabled_'
'Devi'
'Develop'
'Daniel_'
'DRAS_'
'DG_'
'Cur'
'Cup_'
'Cuban_'
'Creati'
'Coordinator_'
'Conventions_'
'Contra'
'Contents_'
'Consideration_'
'Conservation_'
'Confi'
'Concernant_'
'Complete_'
'Comple'
'Commonwealth_'
'Commissioners_'
'Coa'
'Classification_'
'Certificat'
'Cer'
'Cari'
'Capacity_'
'California_'
'COR'
'CIT'
'CAN'
'Brig'
'Bor'
'Boo'
'Bonn'
'Birmanie_'
'Between_'
'Back_'
'BC'
'Aut'
'Austrian_'
'Asse'
'Army_'
'Année_'
'Admi'
'Ade'
'Ad_'
'Abs'
'ARE'
'AIR_'
'ACT'
':] _'
': $_'
'96'
'211_'
'210_'
'1975_'
'169_'
'154'
'149'
'106_'
'/ '
'- '
') :_'
'& '
'$'
' \u'
' <_'
' *_'
' "'
'€™_'
'€_'
'” – _'
'ë_'
'évoqué_'
'évite'
'été'
'étal'
'éta'
'és'
'éré'
'érent'
'érable'
'équivalent'
'éma'
'élan_'
'élaborés_'
'égo'
'éducatif_'
'éde'
'écu'
'écr'
'écologiques_'
'éclairage_'
'échoué_'
'çant_'
'âch'
'µ'
' -, _'
'zer'
'zan'
'yt'
'you'
'yield_'
'yi'
'yea'
'yal'
'worried_'
'wonder_'
'witness'
'wildlife_'
'weekend_'
'wed_'
'web'
'watching_'
'wasn_'
'ward'
'wai'
'voyons_'
'voulaient_'
'voudr'
'vois_'
'vit'
'visibility_'
'violated_'
'vil'
'vigilan'
'vier'
'versé'
'versa'
'verra_'
'vern'
'verd'
'vention'
'vendeur_'
'veille_'
'veille'
'vas'
'vall'
'vagues_'
'utility_'
'usti'
'usr_'
'upcoming_'
'unilat'
'ume_'
'uler_'
'ulaire_'
'uan'
'témoigne'
'tw'
'troop_'
'tren'
'transnational_'
'traitées_'
'traces_'
'tourné'
'touchent_'
'tombé'
'tiss'
'til'
'tian_'
'throw'
'thro'
'threshold_'
'thought'
'tern'
'terminate_'
'tered_'
'tentent_'
'tene'
'températures_'
'temperatures_'
'taxpayers_'
'tat'
'taste_'
'tang'
'tale'
'symbols_'
'sy_'
'suspicious_'
'surrounded_'
'surge_'
'sure'
'supplier_'
'supplementary_'
'supervise'
'superbe_'
'suivie_'
'suggère_'
'subparagraph_'
'strip'
'strictly_'
'stran'
'straight_'
'sting_'
'stic'
'stepp'
'steel_'
'steady_'
'stam'
'stal_'
'stad'
'stables_'
'stabilis'
'ssions_'
'ssing_'
'spécialités_'
'spirituel'
'spill'
'spectacular_'
'spare_'
'soyons_'
'south'
'sonne'
'somm'
'som'
'solving_'
'soli'
'sole'
'socioéconomique'
'slo'
'sk'
'sièges_'
'sition_'
'sit'
'sim'
'silver_'
'signifi'
'side'
'sic'
'shortcomings_'
'sharply_'
'settled_'
'seize_'
'scann'
'scan_'
'sauv'
'samples_'
'sala'
'saisie_'
'safeguards_'
'rôles_'
'rêve'
'réé'
'révolutionnaire_'
'réviser_'
'réunis_'
'résidant_'
'républicain'
'référendum_'
'réexamen_'
'rée_'
'réciproque'
'réc'
'réalisées_'
'rvi'
'rum'
'rulers_'
'ruled_'
'rud'
'row'
'ropo'
'romantic_'
'roch'
'rma'
'rist'
'rion'
'rier_'
'revo'
'revisi'
'reve'
'retrouvent_'
'retenues_'
'resumed_'
'responsive_'
'respecte_'
'resist'
'représenta'
'reposa'
'renseignement_'
'relate_'
'rejoi'
'rejette_'
'reintegration_'
'rehabilitation_'
'reflection_'
'ref'
'redé'
'reconstitu'
'reconnue_'
'reconnaiss'
'recognizing_'
'rebo'
'reactions_'
'rci'
'rated_'
'rassemble'
'rapprocher_'
'rando'
'rag'
'quotidien_'
'quo'
'quitte'
'quisit'
'question'
'quen'
'qualités_'
'qualifié_'
'pétition'
'périodique_'
'péri'
'pénétr'
'pur_'
'préventive_'
'présidente_'
'préparés_'
'proximity_'
'provinciale_'
'protest'
'protect'
'promesses_'
'prohibit'
'profond_'
'professions_'
'prof'
'produites_'
'produces_'
'procure'
'prochains_'
'proactive_'
'privileged_'
'privat'
'prim'
'priest'
'preserving_'
'prescri'
'precedent_'
'pouss'
'pourv'
'poses_'
'portu'
'porta'
'porno_'
'poll_'
'polici'
'poli'
'pluri'
'plenty_'
'placée_'
'place'
'pid'
'philosophie_'
'pharmacie'
'ph_'
'pet'
'pes'
'pertinente_'
'pertinence_'
'perse'
'pers_'
'perpetrators_'
'permanents_'
'pente'
'pent'
'pens'
'pec'
'peau_'
'pattern_'
'patrioti'
'patri'
'passés_'
'passées_'
'partiel'
'partagée_'
'parlent_'
'parité_'
'parcour'
'panoram'
'pan_'
'painful_'
'paci'
'oya'
'ovi'
'overr'
'overh'
'outdoor_'
'oul'
'ots_'
'osp'
'orient'
'orc'
'ora_'
'opérationnelle_'
'opul'
'optimist'
'opt_'
'oppression_'
'opo'
'oph'
'operative_'
'operates_'
'ope'
'onie'
'oma_'
'olo'
'olic'
'oit'
'ogi'
'officially_'
'offerte_'
'offensive_'
'occupé_'
'occupational_'
'oca'
'obst'
'obscur'
'nois'
'nobody_'
'nnie'
'niz'
'nique'
'nf'
'neuro'
'neu'
'nds_'
'nder_'
'nda_'
'nct'
'nce'
'navigateur_'
'nau'
'nationalité_'
'nationaliste'
'nati'
'nap'
'naires_'
'nai'
'méditerranéenne_'
'mut'
'museums_'
'mur_'
'multip'
'moreover_'
'monopole_'
'monitored_'
'modify_'
'modifiant_'
'modi'
'mma'
'mixte_'
'mix'
'miss_'
'miss'
'minu'
'mini'
'midst_'
'menant_'
'mediat'
'measuring_'
'mbl'
'mbi'
'massif_'
'marking_'
'maritimes_'
'marin_'
'manual'
'manifesté_'
'manifeste_'
'manifeste'
'mana'
'mamm'
'magazine_'
'magasins_'
'macro_'
'légal_'
'luxueu'
'los_'
'logo_'
'log_'
'lis_'
'lior'
'linguistiques_'
'like'
'libéral_'
'lg'
'let'
'lection'
'lawful'
'lave_'
'latitude_'
'lance'
'laissent_'
'kto'
'kir'
'keys_'
'kets_'
'keen_'
'jo_'
'ject'
'isé_'
'issant'
'isolement_'
'ionne'
'invitons_'
'invites_'
'invente'
'invalidité_'
'invalid'
'intérim_'
'intégr'
'introduit_'
'intro'
'interviews_'
'interromp'
'interpr'
'interp'
'intermi'
'interco'
'intensity_'
'intensification_'
'intends_'
'insécurité_'
'insuffisante_'
'insuffisance_'
'insu'
'institutionnel_'
'installés_'
'inspire_'
'inscrites_'
'inon'
'innovat'
'inhal'
'inhabit'
'informa'
'inform'
'infecté'
'infant_'
'inexp'
'indépendamment_'
'indé'
'individuelle_'
'indien_'
'indemnités_'
'ind'
'incom'
'inclu'
'incite_'
'incitations_'
'inci'
'incarn'
'inability_'
'imposées_'
'imposing_'
'imposent_'
'imperative_'
'iment_'
'im'
'illicites_'
'iles_'
'ik_'
'ij'
'igu'
'igna'
'igh'
'ifi'
'hypothèse_'
'human'
'honnête'
'homolog'
'hma'
'height_'
'heat_'
'harmonisé'
'hang'
'hai'
'habitude_'
'habitant_'
'générer_'
'gun_'
'gru'
'grav'
'gratuit'
'grati'
'grass_'
'graphic_'
'gos'
'gor'
'gma'
'ght'
'gest'
'gera'
'genes_'
'gaining_'
'fui'
'front'
'frappé_'
'fraction_'
'fournissant_'
'forêt_'
'forcé_'
'floors_'
'finalis'
'fid'
'fica'
'fia'
'festivals_'
'fenêtre_'
'feedback_'
'fed'
'fear'
'façons_'
'fatigue_'
'fallu_'
'fallait_'
'faculté'
'factures_'
'extremism_'
'externes_'
'expédit'
'exprimées_'
'exprimée_'
'exploitations_'
'explicite_'
'explication_'
'expedit'
'exo'
'exe_'
'excès_'
'exclue'
'euv'
'estimé'
'essay'
'ese_'
'ese'
'ersa'
'eric'
'ept'
'enz'
'envoi_'
'entrées_'
'ention_'
'ensured_'
'ensi'
'ening_'
'enforced_'
'endettement_'
'endeavour_'
'encouragement_'
'encod'
'enco'
'ement'
'embe'
'emba'
'electric_'
'elan'
'egg'
'effr'
'effor'
'effectifs_'
'edo'
'edly_'
'ede'
'economist_'
'ech'
'earn_'
'détruis'
'détriment_'
'détaillés_'
'dét'
'désin'
'désigne_'
'déposer_'
'déposant_'
'dépos'
'déployer_'
'déplacées_'
'déplacements_'
'dénonc'
'délits_'
'délibérément_'
'dégradation_'
'défens'
'déduit'
'décrites_'
'décr'
'découlent_'
'débuté_'
'débo'
'dur'
'dui'
'dres_'
'dre'
'dramatique'
'drain'
'download'
'douleur_'
'douce_'
'doses_'
'dommage_'
'doigt'
'doctor_'
'dji'
'divine_'
'diversification_'
'disturbing_'
'distribute_'
'distribuer_'
'distinctive_'
'dissi'
'dishes_'
'disg'
'disent_'
'discriminatoire_'
'discovery_'
'disciplinary_'
'dirige_'
'dining_'
'diffusé_'
'differ_'
'dicta'
'dicat'
'diagnosis_'
'devis'
'deviennent_'
'developers_'
'detect_'
'det'
'desquelles_'
'deny_'
'demonstrations_'
'delighted_'
'delic'
'delete_'
'degradation_'
'definitely_'
'defect'
'def'
'dee'
'deducti'
'declined_'
'deadline_'
'das_'
'cé_'
'cyni'
'cure_'
'cule_'
'cts_'
'ctions_'
'cting_'
'créent_'
'crée'
'cry'
'croient_'
'craft_'
'cout'
'council_'
'correspondants_'
'corrected_'
'coordonnées_'
'coordonnée_'
'convey'
'conver'
'conven'
'contradict'
'contraception_'
'continu_'
'contextual_'
'contemporain_'
'consulté_'
'consulted_'
'consula'
'construit_'
'constitutionnelle_'
'constituen'
'consign'
'conserve_'
'conjug'
'confirm'
'confidentiel'
'conditioning_'
'concerné_'
'compétitif'
'compétentes_'
'comptent_'
'composés_'
'comportant_'
'compile'
'compat'
'comparative_'
'commises_'
'commence'
'comfortably_'
'colère_'
'collectif_'
'coherence_'
'cluster_'
'cler'
'classement_'
'circul'
'ché_'
'chron'
'chet'
'chemins_'
'ched_'
'chart'
'charity_'
'charit'
'charge'
'chaleur_'
'chairs_'
'cesse_'
'cess'
'certificates_'
'certificat_'
'cercle_'
'centr'
'cellule_'
'caution_'
'cater'
'careful_'
'cardi'
'caractéristique_'
'capture'
'capitals_'
'cano'
'candida'
'cancel'
'calm_'
'cali'
'build'
'bubble_'
'brig'
'breach_'
'bourse_'
'boundaries_'
'boucl'
'blé_'
'blend'
'biot'
'bi_'
'beat'
'battre_'
'banquiers_'
'bank'
'ball_'
'balcon_'
'bail_'
'backed_'
'axés_'
'axe'
'await'
'avoided_'
'av'
'autrefois_'
'autorisées_'
'autonome_'
'authori'
'audition'
'attendons_'
'attachement_'
'atr'
'atis'
'aster'
'ast_'
'assumption_'
'assembly_'
'assainissement_'
'aside_'
'arrive'
'arranged_'
'aro'
'arit'
'argues_'
'argentin'
'arde'
'archive_'
'arable_'
'aqu'
'appre'
'apportés_'
'apportée_'
'applicants_'
'appellent_'
'anticipated_'
'antag'
'annulé_'
'annuler_'
'ann'
'anat'
'améliorée_'
'ample_'
'amine'
'ament'
'altogether_'
'altitude_'
'alongside_'
'ality_'
'alist'
'alis'
'ake_'
'ajoute'
'aise_'
'airs'
'aille'
'agrees_'
'aga'
'affordable_'
'affiche'
'affectés_'
'affecté_'
'affecter_'
'adéquat'
'advise_'
'ads_'
'admitted_'
'administrateur_'
'admin'
'adhé'
'addict'
'adapté_'
'adapt'
'ada_'
'acquitt'
'achet'
'accommodate_'
'acceptent_'
'accentu'
'absurde_'
'absent_'
'abrog'
'aboutir_'
'abortion_'
'abordé_'
'aboli'
'abatt'
'] '
'\\'
'Wr'
'Workshop_'
'Wind'
'Will'
'Well'
'Welfare_'
'Weapons_'
'Wan'
'WW'
'WKH_'
'WD_'
'Voyage'
'Volume_'
'Villa_'
'VE_'
'VER'
'VAL'
'Us_'
'Under'
'UR'
'UNRWA_'
'UNIT'
'UNFPA_'
'Téléc'
'Tru'
'Trip'
'Treaties_'
'Trava'
'Transit'
'Tow'
'Thu'
'Thanks_'
'Terrace_'
'Termin'
'Tak'
'TRI'
'TRE'
'TRANS'
'TOU'
'TL'
'TES_'
'TEM'
'TC_'
'Swi'
'Sunni_'
'Subsection_'
'Subs'
'Structural_'
'Str'
'Stone'
'Steering_'
'Start_'
'Standing_'
'Sout'
'Sony_'
'Solo'
'Solid'
'Soci'
'Soc'
'Slo'
'Sl'
'Siège_'
'Sites_'
'Signature_'
'Sharon_'
'Seuls_'
'Seminar_'
'Securities_'
'Scott_'
'Scot'
'Santa_'
'Sab'
'SI_'
'SIN'
'SIM'
'SCO'
'SAT'
'S0'
'Région_'
'Rouge_'
'Rosa'
'Retr'
'Responsible_'
'Resp'
'Republican_'
'Reporting_'
'Rental_'
'Rem'
'Registry_'
'Registration_'
'Ref'
'Recognizing_'
'Ray'
'Rat'
'Rand'
'REA'
'RA_'
'Quarte'
'Qa'
'Prov'
'Proche_'
'Pro_'
'Priority_'
'Power'
'Pos'
'Pop'
'Poor_'
'Poly'
'Pol'
'Pic'
'Philipp'
'Phil'
'Personne_'
'PIC_'
'PF'
'Ow'
'Olympi'
'Oh'
'Noël_'
'Nokia_'
'Nikon_'
'Nicaragua_'
'Nia'
'Newspapers_'
'Nev'
'Neither_'
'Nam_'
'MÉ'
'Mountain'
'Moscou_'
'Morgan_'
'Montenegro_'
'Mir'
'Mich'
'Met'
'Mega'
'Mea'
'Marc_'
'Mara'
'Manuel_'
'Major_'
'MU'
'MAT'
'Ly'
'Lud'
'Licence_'
'Lia'
'Lee_'
'Lebanese_'
'Large_'
'Lac'
'LT_'
'LTD_'
'LP'
'LL'
'LG'
'Kir'
'KG'
'KD'
'K1A_'
'Justification_'
'Juan_'
'Javier_'
'JU'
'JO'
'JE'
'Iv'
'Issues_'
'Inv'
'Internationale_'
'Innovation_'
'Info'
'Industrie_'
'Id'
'IX_'
'IRU_'
'IND'
'ICT_'
'ICC_'
'How'
'Hous'
'Hou'
'Hold'
'Hitler_'
'Henry_'
'Hear'
'Haye_'
'Hara'
'Hamilton_'
'Hall_'
'HU'
'H1'
'Gui'
'Grenad'
'Green'
'Greater_'
'Grands_'
'Goods_'
'Golf_'
'Gold'
'Gat'
'Fé'
'Fun'
'Front'
'Frequen'
'Fourth_'
'Fore'
'Flo'
'Flash_'
'Finalement_'
'File'
'Fel'
'Faites_'
'FIN'
'FH'
'FDI_'
'FD'
'Expert_'
'Exp'
'Esc'
'Es'
'Electronic_'
'Economy_'
'Eb'
'EX_'
'EV'
'EST_'
'EL_'
'Dur'
'Dom'
'Doi'
'Dji'
'Disc'
'Departmental_'
'Davi'
'DPJ_'
'Coun'
'Coul'
'Cot'
'Cost'
'Coord'
'Coopération_'
'Consultation_'
'Consult'
'Conse'
'Competitive'
'Compagnie_'
'Committees_'
'Commercial_'
'Collaborati'
'Cod'
'Clo'
'Chancellor_'
'Chacun_'
'Certain_'
'Cent'
'Castle_'
'Carte'
'Cart'
'Card_'
'Cannes_'
'Cana'
'Cameron_'
'Call_'
'CRTC_'
'COM'
'CNRC_'
'CLE'
'CAS'
'Budgets_'
'Bridge_'
'Brid'
'Bretton_'
'Brand'
'Brad'
'Bos'
'Bolivia_'
'Boe'
'Bin'
'Big_'
'Ball'
'Baby'
'BY_'
'BB'
'BAS'
'Award_'
'Aviation_'
'Arafat_'
'Ang'
'Ami'
'Allah_'
'Aide_'
'Agi'
'Actuellement_'
'Academy_'
'ANC'
'ALE'
'AGE'
'ADR_'
': «_'
'83'
'720'
'260'
'215'
'208_'
'1966_'
'1948_'
'184'
'174'
'152_'
'140_'
'139'
'137_'
'136'
'134'
'128'
'117_'
'112_'
'09'
'07'
'002'
', «_'
', [_'
'))'
'# _'
' �_'
' …'
' ”'
' #_'
' ! _'
' !'
''
''
'ﬁc'
'…_'
'” '
'’, _'
'к'
'з'
'ŕ_'
'œuvre'
'ô'
'ïn'
'ín'
'ête_'
'éventuelles_'
'éventualité_'
'évalué_'
'étudie'
'étrange_'
'éti'
'équipage'
'équilibré_'
'épisode_'
'éol'
'énormément_'
'émis'
'émettre_'
'écras'
'éclate'
'écl'
'èle_'
'è_'
'Îles_'
'Éthiopie_'
'Élection'
'Éd'
'ÉC'
'}'
'zoo'
'ys'
'yb'
'xic'
'xenophobia_'
'wild_'
'widen'
'wick'
'wholly_'
'wellness_'
'washe'
'wash'
'warrant_'
'wait'
'vélo'
'vs_'
'voya'
'voué'
'vou'
'vot'
'vol'
'vocational_'
'visite'
'visit'
'viruses_'
'virtu'
'viole'
'vingtième_'
'vicinity_'
'viab'
'veu'
'verify_'
'verba'
'vel'
'varying_'
'varieties_'
'variant'
'valide'
'vaisse'
'vacation_'
'uée'
'utter'
'utmost_'
'ution_'
'utilisa'
'ute'
'usion'
'urne'
'uring_'
'urges_'
'urgente_'
'uple'
'upgrading_'
'unre'
'unm'
'unfor'
'umn'
'umin'
'ui'
'uge'
'uff'
'ude_'
'télévis'
'typ'
'twi'
'tués_'
'turque_'
'turcs_'
'tuberculose_'
'tub'
'tsunami_'
'tril'
'trie'
'travelling_'
'travel'
'transposition_'
'transporté'
'transp'
'transmis_'
'translated_'
'transcend'
'tranquille_'
'traits_'
'traduire_'
'trace_'
'toxic'
'touristes_'
'tough_'
'tortured_'
'ton'
'tombe'
'tolér'
'tisse'
'tisme_'
'tirées_'
'tine'
'tile_'
'tight'
'tige_'
'tied_'
'thérapeutique'
'théorique'
'thèque'
'thie'
'themes_'
'testi'
'terreur_'
'terra'
'teneur_'
'température_'
'tempt'
'teen'
'tec'
'tarif'
'tail'
'tactique_'
'tactics_'
'tackling_'
'séparés_'
'synergies_'
'suspendu'
'suspended_'
'suspend_'
'surroundings_'
'surprised_'
'surp'
'suppress'
'suppos'
'summ'
'successive'
'subsidiarity_'
'sty_'
'strikes_'
'strictes_'
'strengths_'
'storm_'
'ston'
'stimulati'
'stimulant'
'stem_'
'statu'
'starts_'
'sseur'
'ssan'
'ssai'
'square'
'spécifié'
'spécifiquement_'
'spécialiste_'
'split_'
'spectr'
'spectateurs_'
'specifications_'
'souverain'
'soutenu'
'souris_'
'soup'
'soumission_'
'soulève'
'soulevé'
'soul_'
'sorry_'
'sophisticated_'
'song_'
'solvab'
'solid'
'sold'
'socialistes_'
'snow_'
'sis'
'singer_'
'simultaneously_'
'shuttle_'
'sexy_'
'sexu'
'sew'
'settings_'
'sett'
'serez_'
'separately_'
'separated_'
'sentir_'
'seme'
'selective_'
'seized_'
'sed'
'scu'
'scrap'
'scores_'
'scenarios_'
'scandale'
'sc'
'savoirs_'
'saut'
'satisfy_'
'satisfaits_'
'satellites_'
'sand_'
'sampling_'
'salut'
'sah'
'sad_'
'rêve_'
'révolution'
'rétro'
'résult'
'résolu_'
'résidu'
'réservé_'
'rés'
'réin'
'référ'
'réalise'
'réaffirme'
'réactions_'
'rv'
'russes_'
'rus_'
'routier_'
'ritu'
'ring'
'ric'
'rhétorique_'
'rhetoric_'
'rge_'
'reverse_'
'retenus_'
'reta'
'resté'
'ressemble_'
'resse'
'ress_'
'responsabilisation_'
'respects_'
'respecting_'
'resist_'
'resi'
'reputation_'
'représentait_'
'repression_'
'reprendre_'
'repren'
'reportedly_'
'renv'
'renowned_'
'renouvelable_'
'renou'
'renminbi_'
'remar'
'reli'
'rela'
'regulat'
'registra'
'regarder_'
'redistribution_'
'recycling_'
'recul_'
'recourse_'
'recommandée'
'recherché'
'recept'
'recalled_'
'realized_'
'realise_'
'rdo'
'rch'
'rar'
'randonnée_'
'rain_'
'radical'
'race'
'quelqu_'
'quarters_'
'quant'
'qualifiée_'
'qa'
'pén'
'péd'
'publicit'
'prévoyant_'
'présumé'
'présidentielles_'
'prépare_'
'prépara'
'préf'
'proxy_'
'provo'
'provinciales_'
'protein'
'pron'
'promotes_'
'promising_'
'promesse_'
'projet'
'progression_'
'programm'
'produite_'
'privil'
'privatization_'
'priori'
'primauté_'
'prie_'
'prestataires_'
'presse'
'press'
'prend'
'preferences_'
'preferen'
'pratiqu'
'pragmati'
'posséder_'
'possesse'
'porté'
'portions_'
'porte'
'portait_'
'poke'
'poe'
'pod'
'pleas'
'platforms_'
'plastique_'
'plain'
'placements_'
'pill'
'pien'
'pieces_'
'perçoivent_'
'pertaining_'
'permitting_'
'permettraient_'
'permanence_'
'performant'
'perce'
'pensez_'
'peni'
'peak_'
'paye_'
'patience_'
'parviennent_'
'parvenu_'
'partiellement_'
'participe_'
'parity_'
'pandemic'
'palais_'
'pair_'
'oxyd'
'oxy'
'overwhelming_'
'outr'
'outputs_'
'osa'
'ort_'
'orphan'
'orm'
'organique'
'organ_'
'ordonné'
'oration'
'opérer_'
'opérationnelles_'
'operati'
'opens_'
'oon_'
'ood_'
'onnelle'
'onnel'
'oner'
'omo'
'oma'
'ologue'
'oligarch'
'oldest_'
'oires_'
'offset_'
'octroyé'
'obé'
'obtien'
'obten'
'obtaining_'
'observateur_'
'négociateur'
'négative_'
'néerlandais_'
'nst'
'noti'
'note'
'nommer_'
'nominations_'
'nomin'
'neige_'
'neglect'
'neat'
'navigate'
'naval'
'natal_'
'nan_'
'nable_'
'médiati'
'mé_'
'mètre_'
'myth'
'municipalit'
'multilingu'
'multilatérales_'
'mpa'
'mouth_'
'motive'
'mortgages_'
'mood_'
'modifi'
'mobilize_'
'mist'
'micros'
'mic_'
'meurtr'
'mettra_'
'merits_'
'mentionn'
'menta'
'mea'
'mb'
'matérielle'
'maturité_'
'maternal_'
'massive'
'mas'
'marqu'
'marins_'
'mara'
'manquer'
'mane'
'managerial_'
'malf'
'magn'
'légitimes_'
'légi'
'légaux_'
'lée_'
'lâ'
'lus'
'lun'
'luck'
'loy'
'low'
'lova'
'lounge_'
'loop'
'llé'
'liv'
'literature_'
'lip'
'lina'
'limiting_'
'liga'
'lif'
'libér'
'liberalis'
'leçon_'
'lesse'
'less'
'lent_'
'lend_'
'len_'
'legi'
'legali'
'leg'
'leak'
'lava'
'launching_'
'langage_'
'lane'
'lage_'
'lad'
'lacking_'
'kne'
'kis'
'kids_'
'key'
'juridiquement_'
'juridiction_'
'judgement_'
'jor'
'joindre_'
'jeudi_'
'jail'
'isée_'
'issus_'
'isse'
'issance_'
'isonn'
'islands_'
'islam_'
'irrigation_'
'iraniens_'
'ip_'
'intéressé_'
'intéressent_'
'intéressante_'
'intègre_'
'intim'
'interse'
'interinstitution'
'intergouvernemental_'
'insurg'
'instrumental'
'instru'
'institutionnelles_'
'institut'
'instantly_'
'inspired_'
'inspecteurs_'
'inondations_'
'ino_'
'injusti'
'injuste_'
'inhibit'
'inherit'
'inge'
'inevitably_'
'indispensables_'
'indirectement_'
'indigènes_'
'indig'
'indicative_'
'indicateur_'
'index'
'incredibl'
'incr'
'inconv'
'inco'
'incendi'
'impressionnant'
'imposé_'
'importé'
'impliquent_'
'implication_'
'impartialit'
'imo'
'immunité_'
'immunity_'
'imagination_'
'illégal_'
'illustrate'
'illon'
'ilit'
'ih'
'igne'
'ieux_'
'ient'
'idéologique_'
'identifia'
'idat'
'ich'
'ican'
'iation_'
'ian'
'hér'
'hém'
'hypothécaire'
'hyper_'
'hybrid'
'hre'
'hostile_'
'hosted_'
'hos'
'horizontal_'
'horizon_'
'honest_'
'homog'
'homel'
'hom'
'hole'
'hil'
'hid'
'hia'
'heurte'
'heureuse'
'health'
'hazardous_'
'hau'
'hate_'
'habituelle'
'habitation'
'généreuse'
'génom'
'gère_'
'gène_'
'gula'
'grossi'
'grecque'
'gog'
'gluc'
'glori'
'glob'
'glace'
'gl'
'gh'
'get'
'gers_'
'gem'
'gee'
'gea'
'gd'
'gate'
'gas'
'gale'
'félicita'
'functionality_'
'fulfill'
'fuels_'
'fth'
'fré'
'french_'
'footing_'
'fondateurs_'
'fonctionnalité_'
'foi'
'focal_'
'fluid_'
'flower'
'flash_'
'flag'
'fitt'
'financés_'
'fiducie_'
'ffre'
'festival_'
'fermer_'
'feasible_'
'fassent_'
'famine_'
'faisaient_'
'fais_'
'faille_'
'fad'
'extract_'
'exposées_'
'exporters_'
'expect'
'exigent_'
'exig'
'exi'
'exhaust'
'exemptions_'
'executives_'
'excess'
'ew_'
'evil_'
'everybody_'
'even'
'eut'
'etic'
'este'
'essor_'
'essaye'
'esca'
'erons_'
'erge'
'erc'
'eraient_'
'equi'
'episode_'
'envoie_'
'envisagées_'
'environs_'
'entrusted_'
'entraîn'
'entrance_'
'entertain'
'ententes_'
'entamer_'
'engagées_'
'enforc'
'eness_'
'ener'
'enemies_'
'enci'
'emploie_'
'emit'
'emergencies_'
'eman'
'ellement_'
'eligibility_'
'elect_'
'eil_'
'ege'
'ega'
'eer'
'editor_'
'ection_'
'eck'
'earnings_'
'ean'
'développeurs_'
'détérior'
'détruit_'
'détruit'
'détente_'
'désaccord_'
'déposés_'
'dépistage_'
'dépasse'
'dénom'
'démontrer_'
'démocratisation_'
'démarrage_'
'démarches_'
'délo'
'délic'
'définitif_'
'définie_'
'décri'
'découp'
'débr'
'débouché'
'dw'
'dozens_'
'dow'
'douanière'
'dotées_'
'dom_'
'dol'
'dle'
'divisé'
'diversi'
'dition'
'disturb'
'dispers'
'disparités_'
'disappear_'
'dirigé_'
'directory_'
'dipl'
'dina'
'differ'
'diet_'
'dien'
'dictature_'
'diamond_'
'diam'
'devastating_'
'deta'
'dessin'
'desert'
'depo'
'depart'
'denounce'
'delayed_'
'deg'
'defines_'
'defi'
'dealer'
'dal'
'céde'
'cyber'
'cultivation_'
'cula'
'cuis'
'cubain'
'ctri'
'créées_'
'croître_'
'crit'
'creditor_'
'credit'
'crainte_'
'coûte_'
'coupables_'
'cost'
'corrompu'
'correlat'
'corrections_'
'corde'
'coop'
'convert_'
'contributes_'
'contribu'
'contraven'
'contrairement_'
'contiennent_'
'contextuelle_'
'content'
'contaminé'
'containment_'
'contacter_'
'contact'
'consultant_'
'constructed_'
'consomm'
'conso'
'conservat'
'conscients_'
'consacre_'
'conjointes_'
'conj'
'congratulati'
'confuse'
'confront_'
'confine'
'confier_'
'confident_'
'condemn_'
'concert'
'concentrate_'
'compétition_'
'comput'
'comptabilité_'
'compréhensible_'
'compounds_'
'compensat'
'compatibles_'
'communique'
'commercial'
'commentaire_'
'commend_'
'commend'
'combining_'
'column_'
'coloni'
'college_'
'collaborat'
'coerci'
'cocktail_'
'coc'
'clothing_'
'clock_'
'cliquez_'
'clinique_'
'clicking_'
'classic_'
'clandestine_'
'clairs_'
'cket_'
'cite'
'château_'
'chute'
'choisisse'
'chauss'
'charmant'
'chargées_'
'challenged_'
'chaleureuse_'
'cesser_'
'certifié'
'centa'
'cens'
'celebrati'
'cei'
'caste'
'cap_'
'cancellation_'
'cancell'
'campaign'
'calibre_'
'calculated_'
'caisses_'
'cache_'
'cache'
'cac'
'bét'
'bâti'
'burg_'
'bt'
'brûl'
'brun'
'browse'
'brothers_'
'brochure'
'breeding_'
'branche_'
'branch_'
'boun'
'bot_'
'bod'
'boa'
'blind_'
'blind'
'bird_'
'biomé'
'biog'
'bilatéral_'
'bigger_'
'bicycle'
'belong_'
'bed'
'battu'
'batterie'
'bath'
'bassin_'
'basse_'
'bankers_'
'bands_'
'bancaires_'
'bana'
'bags_'
'bag'
'backs_'
'aéro'
'azo'
'ays_'
'axé_'
'ax'
'avoirs_'
'avenue_'
'authentic_'
'augmentations_'
'atur'
'attra'
'atteste'
'ation'
'ath_'
'assuré_'
'assured_'
'asser'
'assassinat_'
'ass_'
'ass'
'asp_'
'asks_'
'ash'
'arte'
'arro'
'arose_'
'armements_'
'arm_'
'aris'
'arb'
'apprécie'
'approximate_'
'approuve_'
'approch'
'appliqu'
'applaud'
'appela'
'appart'
'apparente_'
'apparatus_'
'apparaissent_'
'antimi'
'antic'
'ante'
'anol_'
'annonce'
'anes'
'anda_'
'ancie'
'amo'
'amitié_'
'ament_'
'amener_'
'amba'
'amazing_'
'amateurs_'
'alphabétisation_'
'allegedly_'
'alive_'
'alit'
'alin'
'alien_'
'ald_'
'alarme'
'aka_'
'ait'
'aigu'
'aidé_'
'agrég'
'aftermath_'
'africain_'
'affirme_'
'affiliée_'
'affiche_'
'affection'
'affect'
'ae_'
'adéquates_'
'advancing_'
'adopte'
'admettre_'
'adaptés_'
'adapti'
'actua'
'acknowledges_'
'acier_'
'acheteur_'
'accé'
'accru'
'accordent_'
'accomplished_'
'accompagnés_'
'accompagnée_'
'accom'
'accessoires_'
'accelerati'
'ac'
'absten'
'abst'
'abri_'
'abolish'
'abe'
'abd'
'abandon'
'], _'
'] . . _'
'Yas'
'YH'
'XVII'
'XML_'
'Word_'
'Whi'
'Whe'
'Watch_'
'Wat'
'WL'
'Vé'
'Vista_'
'Visit_'
'Vin'
'Vil'
'Victoria_'
'Verts_'
'Veg'
'VIII_'
'VA_'
'Uzbekistan_'
'Utilise'
'Um'
'Ultimate'
'USS'
'URE'
'ULA'
'TÉ_'
'Twi'
'Turn'
'Très_'
'Trust_'
'Troisième_'
'Trinit'
'Trib'
'Trek_'
'Treatment_'
'Trac'
'Torre'
'Tim_'
'Tho'
'Terms_'
'Term_'
'Telephone_'
'Tea'
'Tarif'
'Target'
'Tanzania_'
'Tajikistan_'
'Tai'
'TW'
'TUR'
'TTE'
'TOR'
'TM_'
'TAL'
'Sup'
'Summer'
'Subcommittee_'
'Ster'
'Sr'
'Spo'
'Souven'
'Sol_'
'Sil'
'Shari'
'Share_'
'Sex'
'Seve'
'Sel'
'See'
'Saskatoon_'
'Santos_'
'Saharan_'
'SUR'
'SP_'
'SIT'
'SG_'
'SAN'
'SADC_'
'Résumé_'
'Résultats_'
'Rog'
'Rin'
'Rich'
'Revised_'
'Reve'
'Rememb'
'Regions_'
'Refugee_'
'Receiv'
'Rea'
'RAI'
'Que'
'QUE'
'Pros'
'Projets_'
'Projects_'
'Progr'
'Profess'
'Procedures_'
'Pricing_'
'Prese'
'Prec'
'Pont'
'Peri'
'Pere'
'Peni'
'Patr'
'Parent'
'Parallèlement_'
'Pal'
'PMA_'
'PI_'
'PHA'
'Ont'
'Od'
'OV'
'OP_'
'OM_'
'OGM_'
'Né'
'Nothing_'
'Nero_'
'National'
'NOR'
'NL_'
'NGL_'
'MySQL_'
'Municipal'
'Mov'
'Mol'
'Mira'
'Miami_'
'Mesures_'
'Mau'
'Massa'
'Markets_'
'Marketing_'
'Marina_'
'Marco_'
'Mani'
'Mainten'
'MIT'
'MINU'
'MIN'
'MIL'
'Lyon_'
'Louis_'
'Loa'
'Liv'
'Liu_'
'Libéria_'
'Libyan_'
'Liberal_'
'Level_'
'Let'
'Lav'
'Late'
'Laeken_'
'Laden_'
'Lac_'
'LQ'
'LONDON_'
'Knowledge_'
'Kn'
'Kie'
'Kho'
'Kh'
'Kai'
'Jésus_'
'Jos'
'Jones_'
'Jin'
'Jews_'
'Jeux_'
'Jer'
'Jen'
'Jan_'
'Israelis_'
'Ironing_'
'Intelligence_'
'Integrated_'
'Institutes_'
'Individuals_'
'Ind'
'Impr'
'Il'
'IGC_'
'Hy'
'Hostel_'
'Honourable_'
'Heav'
'Hay'
'Has_'
'Harvard_'
'Had_'
'Guan'
'Governance_'
'Golfe_'
'Goe'
'Gil'
'Gabon_'
'GM_'
'GA_'
'Fuku'
'Friendly_'
'Forestry_'
'Foo'
'Fol'
'Flor'
'Fish_'
'Financement_'
'Fiji_'
'Field_'
'Fatah_'
'Fal'
'Fair_'
'FM_'
'Expos'
'Explorer_'
'Exe'
'Excise_'
'Excellency_'
'Ever_'
'Events_'
'Evan'
'Ev'
'Eurostat_'
'Essa'
'Eric'
'Equal_'
'Environ'
'Edward_'
'EO'
'ENT'
'ECE_'
'Dém'
'Décision_'
'Duc'
'Dry_'
'Don'
'Dj'
'Distribution_'
'Disney_'
'Discipline_'
'Direct_'
'Dev'
'Database_'
'DIN'
'DF'
'DB'
'DANS_'
'Cé'
'Currently_'
'Cru'
'Cres'
'Court'
'Corr_'
'Consider_'
'Consid'
'Concern'
'Conce'
'Communis'
'Comments_'
'Clean_'
'Citi'
'Cin'
'Choose_'
'Centr'
'Catherine_'
'Carlo'
'Cara'
'Canon_'
'Cameroon_'
'CUL'
'CT_'
'CHE'
'CER'
'CBSA_'
'CAD_'
'Bug'
'Brit'
'Boston_'
'Bond'
'Bon_'
'Boa'
'Bil'
'Bhutan_'
'Belle'
'Bay'
'Baltique_'
'Bai'
'BIT'
'Available_'
'Assad_'
'Arti'
'Arms_'
'Arc'
'Arabes_'
'Alte'
'Alli'
'Alcohol_'
'Albert_'
'Active_'
'Acting_'
'Acce'
'Abdul'
'AW'
'AIEA_'
'AD_'
'??'
'; - _'
'237'
'199'
'185'
'181'
'123_'
'120'
'118_'
'000'
'.»'
'.(_'
'. &'
'- (_'
'))_'
'") _'
' –'
' ´ '
' . . . _'
' - $_'
' ($_'
' %'
' $, _'
''
' '
'−_'
'–'
'те'
'и_'
'ó_'
'ña'
'évoquer_'
'évolué_'
'évité'
'éve'
'étr'
'étonnant_'
'étiques_'
'étions_'
'étendue_'
'érielle'
'éran'
'éradiquer_'
'ér'
'équipée_'
'équilibr'
'épou'
'ép'
'ément'
'ém'
'élégante'
'élabor'
'égal'
'éen'
'éduqu'
'écrivai'
'économiquement_'
'écologi'
'éclairée'
'èse'
'èle'
'ça'
'är'
'ß'
'Évaluation_'
'Éla'
'Éc'
'ÉE'
'¿_'
'·'
' – _'
'zy_'
'zy'
'zn'
'zion'
'zens'
'zb'
'yé'
'yw'
'yste'
'yri'
'yours'
'yon'
'yle_'
'yle'
'ycl'
'yad'
'xte'
'xe_'
'wrong'
'writers_'
'wr'
'worsen'
'worry_'
'worries_'
'wording_'
'wor'
'withdrawn_'
'wid'
'wi_'
'whole'
'who'
'whenever_'
'wer_'
'weight'
'wei'
'warnings_'
'warm'
'warfare_'
'walks_'
'wag'
'vé_'
'vulnérable_'
'vul'
'vu'
'vraisemblablement_'
'vra'
'voyager_'
'voter'
'volunteer'
'volumes_'
'voisinage_'
'viv'
'vitale_'
'visé_'
'visual'
'vision'
'viens_'
'vid'
'vessel_'
'vertical_'
'versements_'
'versement_'
'vera'
'venus_'
'ventil'
'venai'
'veil'
'vegeta'
'variées_'
'vain_'
'vain'
'vaccin_'
'vacant_'
'uzz'
'utilize'
'ustr'
'use'
'ups_'
'unresolved_'
'unpre'
'unn'
'unjust'
'universe_'
'univers_'
'uniforme_'
'unifi'
'underscore'
'underground_'
'uncon'
'uncom'
'ulation_'
'ular_'
'ular'
'uce'
'ube'
'ua_'
'tée_'
'tué_'
'turns_'
'tuberculosis_'
'tter'
'trouver'
'trouv'
'tro_'
'triumph'
'trimestre_'
'trick'
'tria'
'tream_'
'traumati'
'transplant'
'transparente_'
'transmises_'
'transmet'
'translati'
'transit'
'transférer_'
'transformed_'
'transformat'
'transferring_'
'traitent_'
'traders_'
'trade'
'trac'
'toxicoman'
'tos'
'tortur'
'toria'
'toni'
'tomber_'
'toi'
'toc'
'tiz'
'titulaires_'
'tira'
'tir_'
'tip'
'tings_'
'tina'
'tighten'
'tig'
'tif'
'tici'
'tibétain'
'throw_'
'threatens_'
'textiles_'
'terrains_'
'termination_'
'tenues_'
'tends_'
'tells_'
'tee'
'techno'
'technici'
'taxable_'
'tarifaires_'
'tape'
'talked_'
'talents_'
'tailored_'
'tai'
'séc'
'sz'
'syrienne_'
'syrien'
'synergi'
'suspects_'
'surr'
'surprisingly_'
'surpr'
'surpluses_'
'surge'
'supprim'
'superp'
'supermar'
'summits_'
'sum'
'suffisants_'
'sue'
'subventionn'
'subse'
'subscribe_'
'string_'
'stresses_'
'stipulate'
'stimulate_'
'stick'
'steam'
'stating_'
'ssy_'
'ssl'
'sq'
'spéc'
'spouse_'
'spor'
'sponsored_'
'spectrum_'
'spectre_'
'spacieuses_'
'soum'
'soulève_'
'souhaitable_'
'souhait_'
'souffert_'
'soucieu'
'soucie'
'song'
'soigneusement_'
'soign'
'soci'
'smooth_'
'sman'
'sm'
'slowdown_'
'slip'
'sité_'
'sister'
'simplifie'
'simplif'
'sight_'
'sick_'
'sia'
'shore_'
'shop_'
'shin'
'shifts_'
'shee'
'shal'
'shad'
'sexualit'
'severely_'
'servicing_'
'sequence_'
'sentier'
'semestre_'
'sembler'
'semblables_'
'sels_'
'securing_'
'secular_'
'secrets_'
'seasonal_'
'sava'
'sauvegarder_'
'sau'
'satur'
'sat_'
'sanitaire_'
'salva'
'salons_'
'saint'
'safely_'
'safeguarding_'
'sacr'
'rê'
'réunit_'
'résolue_'
'réservés_'
'répéter_'
'répondant_'
'répertoire_'
'répartis_'
'réjoui'
'réglé'
'récolte_'
'réco'
'réclame_'
'réciprocité_'
'réaliste_'
'réalis'
'ru_'
'rth'
'rsi'
'rse'
'rsa'
'royale_'
'routière_'
'roi_'
'road'
'rne'
'rival_'
'revête'
'rev'
'reu'
'retrouv'
'retraites_'
'rete'
'restr'
'restoring_'
'restitu'
'restart'
'resign'
'repris_'
'repos'
'repair'
'reo'
'rentable_'
'renouvel'
'renonc'
'renommé'
'renew'
'rendra'
'rendered_'
'remplis'
'remonte_'
'remarquable'
'rema'
'rejoint_'
'reinforcing_'
'reinforced_'
'reh'
'regarde'
'rega'
'refund'
'refr'
'redress'
'recyclage_'
'recueillies_'
'recommen'
'recommandons_'
'rech'
'recensement_'
'rebell'
'react_'
'rding_'
'rd'
'rce'
'ratios_'
'rassembler_'
'rap'
'ramener_'
'rali'
'raj'
'raffin'
'rad'
'quête_'
'qué_'
'quote_'
'quil'
'quasiment_'
'quart'
'qualification_'
'quadr'
'pô'
'pétrolière_'
'pénurie_'
'put'
'pushing_'
'publishing_'
'publish_'
'ptu'
'pton'
'pto'
'prêt'
'prévoient_'
'préval'
'prétendre_'
'prétend_'
'présidé'
'préserv'
'préparée'
'préparati'
'préoccupée_'
'prédire_'
'précis'
'préca'
'provoke'
'provocation'
'prov'
'protectionism_'
'prospère_'
'prosecute'
'proposent_'
'propo'
'propag'
'promotions_'
'promotional_'
'promis_'
'promen'
'projections_'
'projection_'
'profoundly_'
'procède_'
'probabilité_'
'probability_'
'privilégiée_'
'privilégie'
'privilege'
'privatis'
'prevail'
'presentations_'
'prem'
'preceding_'
'prai'
'pousse_'
'poursuiv'
'potenti'
'posées_'
'postal_'
'portray'
'port'
'pornographi'
'populist_'
'populari'
'popul'
'poorer_'
'pon_'
'polls_'
'pole'
'pm'
'plum'
'plug'
'plat'
'plaisan'
'plafon'
'pivot'
'pistes_'
'pis'
'pin_'
'piano_'
'physio'
'physicians_'
'photographe'
'phobi'
'pho'
'pher'
'personali'
'percev'
'perc'
'pement_'
'peacefully_'
'patron'
'passif_'
'passes_'
'passai'
'particles_'
'parental_'
'parallèlement_'
'pap'
'pane'
'panc'
'panac'
'paludisme_'
'palestiniens_'
'pakistanais'
'paint'
'pack'
'pacifiques_'
'oversee'
'overlap_'
'outlook_'
'outl'
'ourne'
'osité_'
'originating_'
'oria'
'ordres_'
'orchestr'
'orati'
'orateur_'
'oran'
'optimism_'
'optim'
'opol'
'opium_'
'onnées_'
'onné_'
'onne_'
'onist'
'onary_'
'olympique'
'oll'
'oise_'
'offense'
'offenders_'
'offen'
'oda'
'océan_'
'occupés_'
'occidentales_'
'nutritionnel'
'nutriti'
'nuis'
'nter'
'nov'
'nouveauté'
'notifi'
'nota'
'nost'
'normalisé'
'normali'
'noir'
'nod'
'nnes_'
'nm'
'nineteenth_'
'night'
'nen_'
'ndr'
'ndo'
'ndais'
'naï'
'nat_'
'nami'
'naire_'
'nage'
'métha'
'mémo'
'médicales_'
'médiateur_'
'mutuellement_'
'musée_'
'musicale'
'murs_'
'murder'
'mun'
'multiplie'
'multilatéral_'
'mpe'
'motivations_'
'mothers_'
'morte'
'monter_'
'montagnes_'
'mond_'
'mona'
'modestes_'
'modernité_'
'modernis'
'moderate'
'mme'
'mitigation_'
'mirror'
'mineral_'
'miner'
'minds_'
'mille'
'mile_'
'migrate'
'migra'
'microbi'
'mettr'
'mesurée'
'messager'
'mess'
'merger_'
'merge'
'mens'
'menacent_'
'medieval_'
'meantime_'
'mean'
'mbu'
'mba'
'max'
'mation_'
'matches_'
'mask'
'margin_'
'marb'
'malades_'
'major'
'main'
'maigre'
'macroéconomiques_'
'macro'
'législatifs_'
'légales_'
'lve'
'luxurious_'
'lusi'
'lung'
'lumineu'
'lude'
'lourde_'
'lourd_'
'long'
'logistic'
'logiques_'
'lled_'
'lize'
'licite'
'licensed_'
'lic_'
'liat'
'lia'
'letters_'
'lerat'
'ler'
'lentement_'
'lent'
'learn'
'lança'
'lamp'
'lain'
'km'
'kle'
'kilometers_'
'kie'
'kid'
'keywords_'
'kel'
'justifié_'
'justifie_'
'just'
'judicieux_'
'jouit_'
'joli'
'joie_'
'jets_'
'jeopardi'
'itte'
'itis_'
'itan'
'italien'
'iste'
'israélo_'
'israéliens_'
'irlandais_'
'ior'
'inévitable_'
'invoqué'
'investisse'
'investigated_'
'investigat'
'inverse'
'inutile_'
'intérieurs_'
'intéresser_'
'intrusi'
'intersection_'
'interrogé'
'intention'
'intensify_'
'insure'
'instituts_'
'insti'
'instalment'
'insensi'
'ink'
'injustice_'
'inférieurs_'
'informée_'
'influencer_'
'influen'
'inflat'
'inequalities_'
'inefficace'
'induced_'
'individu_'
'indifféren'
'indict'
'indicator_'
'incite'
'inappropriate_'
'impér'
'imprimé'
'imply_'
'implied_'
'implant'
'imparti'
'immédiat'
'immuno'
'illégales_'
'ill'
'iff'
'iennes_'
'idéale_'
'ideological_'
'identifié_'
'icul'
'iction'
'ico'
'iations_'
'iar'
'hétéro'
'héros_'
'hydra'
'husband_'
'ht_'
'hs_'
'horri'
'honor'
'highlights_'
'hierarch'
'hide_'
'herbe'
'hement_'
'hell_'
'heli'
'hel'
'hazard_'
'haz'
'hast'
'harmony_'
'harmonie_'
'harge'
'harcèlement_'
'har_'
'handicap'
'haine_'
'hac'
'habitats_'
'généralisée_'
'gym_'
'gy'
'guitar'
'grid_'
'green'
'grass'
'gras_'
'graphy_'
'graphie_'
'gori'
'glad_'
'gho'
'geographic_'
'genom'
'gen_'
'gel'
'gathering_'
'gardien'
'gara'
'gameplay_'
'fér'
'fur_'
'fundamental'
'fumeur_'
'fti'
'freeze_'
'fraud'
'francophones_'
'franchise_'
'frameworks_'
'frag'
'fourniss'
'forwarded_'
'formidable_'
'form'
'forge_'
'foresti'
'foll'
'folk'
'foli'
'fixes_'
'fiscalité_'
'fired_'
'finir_'
'finir'
'finance'
'fille_'
'figurer_'
'fighter'
'fie'
'fiction_'
'ffect'
'ferm'
'favourable_'
'faute_'
'fault_'
'fast'
'fashion'
'fall'
'faithful_'
'failures_'
'factory_'
'fact'
'exécute'
'extrait'
'extends_'
'exprimés_'
'expressly_'
'expr'
'expositions_'
'exploitants_'
'explications_'
'explic'
'expir'
'expe'
'exempt'
'excessif_'
'exact'
'ettes_'
'estima'
'ester'
'ession'
'essi'
'eso'
'escort'
'escalade_'
'eren'
'erect'
'erate'
'eras'
'eran'
'eral'
'eous_'
'envisaged_'
'envelop'
'envahi'
'entré_'
'entretenu_'
'entretenir_'
'entrent_'
'entremise_'
'entraver_'
'ential'
'ente_'
'ensui'
'enrich'
'enregistrements_'
'enracin'
'enl'
'enjoys_'
'engra'
'englob'
'enemy_'
'ene_'
'endless_'
'endanger'
'ency_'
'encouragé_'
'ems_'
'empti'
'empower'
'empo'
'emploient_'
'emphasize_'
'emm'
'elde'
'elaborate'
'eil'
'eight'
'eh_'
'eful_'
'efficiently_'
'efficience_'
'efficien'
'effectue'
'ectu'
'ecosystems_'
'ecl'
'eating_'
'easi'
'détien'
'déterminés_'
'détaillants_'
'déséquilibre_'
'désign'
'déré'
'dér'
'dépr'
'dépo'
'déploie'
'dépassé_'
'déme'
'démarr'
'délit_'
'dél'
'dégu'
'défor'
'déficience'
'dédo'
'découle_'
'décor_'
'déclenché'
'déclarée_'
'décharge'
'début'
'dz'
'drafted_'
'downturn_'
'down'
'doux_'
'dotée_'
'dorm'
'dop'
'donations_'
'donation_'
'doctrin'
'dite_'
'distribués_'
'distribut'
'distribu'
'distract'
'distances_'
'dissidents_'
'disqu'
'disposant_'
'dish'
'discute'
'discourag'
'disciplines_'
'disciplin'
'disappoint'
'disadvantaged_'
'dire'
'dign'
'diffuser_'
'differentiat'
'did'
'dev'
'deteriorat'
'detect'
'desktop_'
'dera'
'demonstration_'
'delta_'
'deliver'
'del'
'defend'
'defe'
'deem'
'dc'
'databases_'
'dant'
'damaged_'
'dam'
'célébrer_'
'câble_'
'cyclical_'
'cyber_'
'cus_'
'curi'
'ctor'
'créati'
'créat'
'crus'
'crois'
'critiqué'
'critics_'
'cris'
'cree'
'cred'
'coûter'
'couronne'
'coura'
'coupe'
'countryside_'
'counterparts_'
'coul'
'coté_'
'cotton_'
'cosm'
'correcti'
'corp'
'copr'
'copi'
'cooperating_'
'cool'
'cooking_'
'convo'
'converge'
'contrôlé_'
'contreba'
'contracté'
'contracting_'
'continually_'
'contingents_'
'contin'
'contentio'
'contaminated_'
'containers_'
'consulting_'
'constitution'
'consi'
'conserv'
'conscious'
'conscient_'
'connect_'
'confiscat'
'confidential_'
'conditioned_'
'concret_'
'concr'
'conclut_'
'conci'
'concernai'
'conceptu'
'compétent_'
'compulsory_'
'comptant_'
'compose'
'composante_'
'comportent_'
'comparative'
'compact_'
'communistes_'
'communisme_'
'communion_'
'communica'
'commits_'
'commissione'
'commercialis'
'combines_'
'combina'
'combatt'
'colo'
'coins_'
'cn'
'clôture_'
'clinics_'
'cleaning_'
'classi'
'clai'
'cked_'
'cito'
'cites_'
'circulat'
'cinéma_'
'ciel'
'chuté_'
'chrom'
'chr'
'choosing_'
'chol'
'chirurgi'
'chiffre_'
'chev'
'chest'
'chape'
'chante'
'champion'
'chairman_'
'chai'
'cents_'
'centré'
'cenc'
'cellula'
'cell'
'cease'
'cea'
'cd'
'caus'
'catastrophi'
'catalogue_'
'casse'
'cartridge_'
'cart'
'carpet'
'caractérisé'
'capti'
'capteur'
'canal'
'cale_'
'calculs_'
'cala'
'bureaucratique_'
'bureaucracy_'
'bun'
'bulle_'
'bubbles_'
'bs'
'broker'
'bres_'
'brav'
'branches_'
'boîtes_'
'boug'
'book'
'bonn'
'bombs_'
'bomb_'
'boi'
'boasts_'
'bloquer_'
'bloc_'
'bleu'
'blanchiment_'
'bio_'
'bic'
'bes'
'bau'
'basées_'
'banned_'
'ballo'
'baissé_'
'bailout_'
'bai'
'aya'
'ay'
'ava'
'autorisa'
'autonomy_'
'automne_'
'automatisé'
'autoc'
'audiences_'
'audi'
'attracted_'
'attendance_'
'attend'
'ators_'
'astro'
'assuming_'
'assujetti'
'assisted_'
'asion'
'ase_'
'asa'
'arrêtée'
'arrestation_'
'arrange_'
'arien'
'ari'
'aqua'
'aptitude_'
'appuient_'
'apprécié_'
'approximative'
'approfondir_'
'apprais'
'appos'
'appelés_'
'appauvri'
'apparu_'
'aph'
'antir'
'anthrop'
'ant'
'answered_'
'angulaire_'
'analyze'
'améliorant_'
'amount'
'amor'
'amn'
'amm'
'amid'
'ambassade_'
'allou'
'alli'
'allerg'
'aliz'
'alcool'
'alc'
'ajust'
'aisé'
'airline'
'aha'
'agréable'
'agressi'
'agra'
'ago'
'ageing_'
'afghan_'
'affluen'
'affirmative_'
'affaiblir_'
'aff'
'aer'
'adve'
'adoptant_'
'admis'
'adjust'
'adj'
'additionnels_'
'add'
'adaptée_'
'acu'
'activ'
'acti'
'acqu'
'achè'
'accumule'
'accrues_'
'accreditation_'
'accou'
'accordées_'
'accompagne_'
'acco'
'absurd'
'absorption_'
'abonn'
'abi'
'ab_'
'[ _'
'ZA'
'XXI'
'XX'
'Writ'
'Wor'
'Wolf'
'Wis'
'WiFi_'
'Where'
'Wen'
'Week'
'Website_'
'Way'
'Water'
'WP'
'Volunt'
'Vladimir_'
'Vita'
'Via_'
'Vene'
'Vend'
'Vehicle_'
'Van'
'Value_'
'VENT'
'Us'
'Uribe_'
'Upon_'
'Ul'
'UTI'
'UH'
'Té'
'Typ'
'Turkmenistan_'
'Tul'
'Trouver_'
'Tom_'
'Tir'
'Though_'
'Ther'
'The'
'Text'
'Tel'
'Tat'
'Take_'
'TM'
'TER_'
'TCI_'
'Sénégal_'
'São_'
'Supplement_'
'Super_'
'Stre'
'Stea'
'Sound_'
'Some'
'Soleil_'
'Sky'
'Situated_'
'Shr'
'Show'
'Short_'
'Settlement'
'Set'
'Serge'
'Sem'
'Schw'
'Savi'
'Sainte_'
'Safe'
'SK'
'SER'
'SEA'
'SCR'
'SCI'
'Résolution_'
'Russ'
'Rui'
'Roosevelt_'
'Ron'
'Roberts'
'Riv'
'Reserv'
'Rei'
'RY_'
'RM'
'REG'
'RATION_'
'Quali'
'Pér'
'Py'
'Pur'
'Pul'
'Prév'
'Prosecutor_'
'Prop'
'Programmes_'
'Produ'
'Principal'
'Prince'
'Previous_'
'Prend'
'Premi'
'Pot'
'Porte'
'Pool_'
'Pollut'
'Polit'
'Policies_'
'Ple'
'Plasma_'
'Photo'
'Phone_'
'Pent'
'Peacekeeping_'
'Paul'
'Parks_'
'Park'
'Pag'
'PWGSC_'
'PRST_'
'PROVI'
'PROP'
'PAS_'
'Others_'
'Oslo_'
'Orl'
'Organis'
'Organ'
'Opera'
'Oceans_'
'OU_'
'ONUDI_'
'OH'
'Nunavut_'
'Noting_'
'Norman'
'Nonetheless_'
'Need'
'Near'
'Nazi_'
'Natura_'
'Nam'
'Nag'
'NTS_'
'NOTE_'
'NOTA'
'NGO_'
'Mét'
'Mémo'
'Mut'
'Munich_'
'Mouvement_'
'Morales_'
'Monténégro_'
'Mont_'
'Monde_'
'Mitchell_'
'Mind'
'Mille'
'Mill'
'Mike_'
'Mik'
'Method'
'McL'
'Mb'
'Mauritius_'
'Matt'
'Materi'
'Mass_'
'Mano'
'Mall'
'Maj'
'Magi'
'Magazine_'
'MD_'
'Lyn'
'Lun'
'Lum'
'Lituanie_'
'Lis'
'Lim'
'Libera'
'Legislative_'
'League_'
'Lama'
'LV'
'Kurdis'
'Kr'
'Kou'
'Khan_'
'Khamenei_'
'Kerry_'
'Issue_'
'Investi'
'Inu'
'Interim_'
'Intell'
'Institutional_'
'Install'
'Initiatives_'
'Identif'
'Ibis_'
'IV'
'IU'
'ITE'
'INST'
'IDB_'
'IAEA_'
'Hyper'
'Hydro'
'Hostel'
'Hop'
'Hom'
'High'
'Herb'
'Hamb'
'HOM'
'Général'
'Gus'
'Guid'
'Gua'
'Gru'
'Gren'
'Gran_'
'Grad'
'Gold_'
'Golan_'
'Gee'
'Gallery_'
'GRE'
'GRC_'
'GP_'
'GM'
'GAT'
'Freedom_'
'Franklin_'
'Francis_'
'Fort_'
'Fix'
'Fire_'
'Finding'
'Feature'
'Fall'
'Fait'
'Fact'
'FORM'
'FM'
'FI_'
'Experience_'
'Expenditures_'
'Exam'
'Evi'
'Everything_'
'Ethics_'
'Estimates_'
'Este'
'Espa'
'Equi'
'Equality_'
'Ep'
'Entr'
'Enquête_'
'Eg'
'Ecol'
'Ec'
'EUR'
'EEC_'
'Défini'
'Dy'
'Dut'
'Dura'
'Dub'
'Dos'
'Discussion'
'Dialogue_'
'Deng_'
'Decade_'
'Day'
'Damas'
'Dam'
'DW'
'DT'
'DOCUMENT'
'DL'
'DIA'
'DELHI_'
'Cypriot'
'Cycl'
'Cry'
'Create'
'Coup'
'County_'
'Consulta'
'Cons'
'Composite_'
'Comor'
'Commun'
'Color'
'Coc'
'Cleaning_'
'Claude_'
'Cl'
'Cirque_'
'Cinquante_'
'Churchill_'
'Christ'
'Chris_'
'Chemi'
'Charge_'
'Champ'
'Ces'
'Cav'
'Cath'
'Cast'
'Calgary_'
'Cairo_'
'CONF_'
'COL'
'CIS'
'CIP'
'CIC'
'CCA'
'Bâle_'
'By'
'But'
'Burn'
'Burg'
'Bun'
'Brief'
'Bour'
'Bolivie_'
'Blu'
'Benin_'
'Belgrade_'
'Belgian_'
'Basel_'
'Barn'
'Baltic_'
'BT_'
'BN'
'BEI'
'Ava'
'Autrement_'
'Attach'
'Assu'
'Assi'
'Aru'
'Arctic_'
'Archi'
'Arb'
'Arabs_'
'Applause_'
'Appea'
'Any'
'Announce'
'Anna_'
'Angel'
'Ande'
'Alternative_'
'Alpes_'
'Almost_'
'Alm'
'Alla'
'Ali_'
'Alger'
'Alexandr'
'Albanian_'
'Agencies_'
'Aff'
'Advi'
'Adobe_'
'Administrator_'
'Activ'
'Acad'
'Abdel'
'Abd'
'AUX_'
'ATTENDU_'
'AR_'
'ARI'
'APE'
'ALE_'
': '_'
'93'
'500'
'300'
'230_'
'2050_'
'19th_'
'1980s_'
'188'
'178_'
'165_'
'161'
'146'
'134_'
'126'
'121'
'119_'
'113_'
'108_'
'104_'
'020'
'014'
'011'
'007'
'001_'
', '_'
', $_'
'** _'
'); '
')  _'
'( '
'& _'
'% (_'
'!!_'
' € _'
' »)'
' °_'
' ?'
' . . . . '
' +_'
' )'
' («'
' # _'
' ", _'
' !!!_'
''
' '
'− _'
'  [ _'
'…………'
'“(_'
'‘_'
'у'
'м'
'д'
'ör'
'ôn'
'ôm'
'ñ'
'îtr'
'í_'
'êt_'
'évènements_'
'évoluer_'
'évolue'
'évolu'
'évi'
'étie'
'éternel'
'étend_'
'éte'
'étatiques_'
'ét'
'érit'
'ération_'
'éral'
'équival'
'époux_'
'épid'
'émique_'
'émergeant'
'éman'
'élé'
'électorales_'
'élargi_'
'égide_'
'édé'
'écoute_'
'écoul'
'écosyst'
'échapp'
'çu_'
'çons_'
'çai'
'âte'
'án_'
'ál'
'Éta'
'§'
'}}'
'} '
'| _'
'zio'
'zin'
'zi_'
'yé_'
'yy'
'yuan_'
'yss'
'ysi'
'yc'
'ybo'
'yard_'
'yan'
'xis'
'xim'
'xie'
'wm'
'wle'
'witnessed_'
'winds'
'whe'
'wet'
'walk'
'vérifie'
'vri'
'votreliste_'
'volontairement_'
'voisin_'
'vocation_'
'vivons_'
'vitamin_'
'visuel'
'visual_'
'viser'
'virtuelle'
'virtue_'
'viol'
'vigor'
'verti'
'versées_'
'versé_'
'verifi'
'ventilation_'
'vede'
'vani'
'validité_'
'vail'
'vaga'
'vaccines_'
'uvr'
'utions_'
'utes_'
'uste'
'usc'
'urgents_'
'urban'
'urbain_'
'uphold_'
'updating_'
'unwilling_'
'unte'
'unis'
'unh'
'unfo'
'uner'
'understandable_'
'underpin'
'undeniable_'
'unci'
'unchanged_'
'unbe'
'umber'
'ultérieur'
'ult_'
'ulou'
'uleu'
'ule'
'ui_'
'ueu'
'uelles_'
'ueil'
'ued_'
'u0027s_'
'tém'
'téléphon'
'turc_'
'tune'
'trésorerie_'
'tromp'
'triste'
'trich'
'trices_'
'trib'
'tremendous_'
'traçabilité_'
'travers'
'travailleur_'
'travaillant_'
'trap'
'transporter_'
'transitoire_'
'transfrontalier'
'tran'
'trail_'
'traduise'
'tradui'
'trademark_'
'trace'
'tra_'
'tourn'
'touchée_'
'toucher'
'tori'
'tolerate'
'tolera'
'tli'
'tle'
'tlan'
'tirent_'
'tion'
'théori'
'thu'
'threaten_'
'thinks_'
'there'
'teu'
'tester_'
'tes'
'terroriste_'
'territoriales_'
'terminée_'
'terminé_'
'tenth_'
'tendr'
'tein'
'tche'
'tch'
'taxpayer_'
'tati'
'tate_'
'tas_'
'tary_'
'tank'
'tana'
'sévères_'
'sévi'
'sérieuse_'
'sér'
'séparément_'
'séparée'
'sépar'
'sécuritaire_'
'sécuri'
'synthèse_'
'synth'
'syndicat_'
'syn'
'sympathi'
'sv'
'suédois_'
'suspend'
'suscité_'
'surveill'
'surpris_'
'surfaces_'
'surf'
'surc'
'supprimé_'
'supervisory_'
'superf'
'sulf'
'suivi'
'suffi'
'substanti'
'subsistance_'
'subsidiz'
'subsidia'
'subregional_'
'subjected_'
'stylish_'
'styles_'
'stunning_'
'studying_'
'studied_'
'stringent_'
'streaming_'
'stream_'
'stl'
'stipul'
'stee'
'steadily_'
'stea'
'standardized_'
'stabiliz'
'ssé'
'sser_'
'sr'
'spécifications_'
'spécifi'
'sporti'
'sponsor_'
'spokes'
'spite_'
'spiritualit'
'specialist_'
'speciali'
'special'
'spark'
'spacieu'
'souveraine_'
'soutenant_'
'souple_'
'soulever_'
'souhaité_'
'souhaité'
'souhaiter_'
'souhaitai'
'souffrent_'
'soudain'
'sommets_'
'sombre_'
'solar_'
'sod'
'soar'
'smokers_'
'smallest_'
'slot'
'sixt'
'sive'
'situent_'
'sincèrement_'
'simplicit'
'sili'
'significatif_'
'signataire'
'signalé'
'signale'
'sig'
'sif'
'sibility_'
'sian_'
'shri'
'shr'
'shortage_'
'shoot'
'shocks_'
'shock_'
'shelter_'
'shak'
'shadow_'
'sha_'
'sey_'
'sexuel_'
'service'
'serbe_'
'sequen'
'sentences_'
'sentenced_'
'sensi'
'sends_'
'seeds_'
'sec_'
'searching_'
'scrutin'
'scou'
'scop'
'sceptic'
'saved_'
'sav'
'saura'
'sanitation_'
'sanction_'
'sance'
'samedi_'
'sais'
'safer_'
'sacrifice_'
'sable_'
'réveil'
'réuni'
'rétroacti'
'résume'
'résister_'
'résident_'
'répét'
'répondr'
'réor'
'réinsertion_'
'réhabilitation_'
'réguliers_'
'régulier_'
'régie'
'réfléchir_'
'réduits_'
'récupération_'
'récu'
'réclam'
'rvat'
'rum_'
'rov'
'rouges_'
'rocket'
'robust_'
'rns_'
'rmin'
'rla'
'riz_'
'risation_'
'riques_'
'rig'
'ride'
'ridd'
'richer_'
'rgi'
'rgani'
'rg_'
'reçu'
'revol'
'reviendrait_'
'revendications_'
'retro'
'retraités_'
'retourner_'
'retou'
'retire'
'rethink'
'retenue_'
'restructure'
'restri'
'restreindre_'
'resteront_'
'respectées_'
'republic'
'repu'
'représentera'
'reproduced_'
'repay'
'repatriation_'
'rentr'
'renti'
'rente_'
'rent'
'renc'
'remporte'
'remplacé'
'remerciements_'
'remarqué_'
'rele'
'reiterated_'
'reint'
'reinforce_'
'reimbursement_'
'rei'
'regrettable_'
'regrett'
'refusing_'
'refuge_'
'refle'
'refinance'
'referend'
'references_'
'reel_'
'redon'
'recueille_'
'rectifi'
'recruté'
'recru'
'recreation'
'recover'
'record'
'reconsid'
'reconnues_'
'reconnaissant_'
'recommander_'
'recognis'
'reci'
'recevra_'
'receiv'
'recapitali'
'rebelles_'
'rda'
'ray'
'ravage'
'rationaliser_'
'rat_'
'ras_'
'rapporte'
'rappel'
'rapp'
'rand'
'rall'
'raisonnablement_'
'railways_'
'radar_'
'qué'
'quotidienne'
'quoted_'
'quinze_'
'quiet'
'queue'
'questionnaires_'
'quest'
'quent'
'qualitative_'
'qualify_'
'qualifier_'
'pêche'
'pénalités_'
'pénales_'
'pé_'
'pèlerin'
'pât'
'py'
'purs'
'puiss'
'publishe'
'pta'
'psychologi'
'psychiatri'
'prête'
'prév'
'préten'
'présu'
'préservatif'
'présentera_'
'prépa'
'préjudiciables_'
'préjudic'
'préférer'
'précédé'
'précaution_'
'préalables_'
'prostitu'
'proposing_'
'proportions_'
'promulgué'
'promptly_'
'promi'
'prolonge'
'prolong'
'profiles_'
'productif_'
'producteur_'
'proclam'
'prize_'
'priver_'
'princ'
'preservation_'
'prescribe_'
'prer'
'prep'
'prena'
'premium_'
'predi'
'precision_'
'practic'
'pp_'
'poursuivra'
'potassium_'
'postpone'
'possédant_'
'poss'
'positive'
'position'
'posi'
'portage_'
'pont_'
'pont'
'ponctu'
'pommes_'
'pollutants_'
'polis'
'poison'
'pneu'
'pléni'
'pledged_'
'pledge'
'plateforme_'
'plas'
'plante'
'plantation'
'plai'
'placing_'
'pié'
'pixels_'
'pira'
'pipelines_'
'piles_'
'pile'
'pi_'
'php'
'photographie_'
'phoni'
'phon'
'philosoph'
'phe'
'phased_'
'phas'
'perçu_'
'perç'
'perturb'
'persua'
'personnalité_'
'permissi'
'permette_'
'permettait_'
'permanently_'
'periphery_'
'perfectionnement_'
'perdent_'
'penche'
'peint'
'payée_'
'paths_'
'patent'
'passports_'
'passport_'
'parvenue'
'partielle_'
'partag'
'parlons_'
'parle'
'parl'
'paraître_'
'panoramic_'
'paisible_'
'pai'
'pag'
'ox'
'ows_'
'ow'
'overseas_'
'overlook'
'ova_'
'ouvriers_'
'ouvrages_'
'ouver'
'outweigh'
'outs_'
'ousness_'
'ousi'
'ouse'
'ourag'
'oul_'
'oubli'
'ost_'
'ospher'
'orth'
'oro'
'orma'
'origins_'
'origines_'
'oriental_'
'orienta'
'organisés_'
'organisms_'
'organisation'
'organis'
'order'
'optical_'
'opponents_'
'operator_'
'ony_'
'ono'
'onais'
'omission_'
'ome_'
'ole_'
'ograph'
'offici'
'oeuvres_'
'odd'
'och'
'oceans_'
'occupying_'
'occupant_'
'observé'
'obligés_'
'obligé_'
'obligat'
'obli'
'obi'
'oba'
'négatives_'
'nécessiter'
'néa'
'nya_'
'nun'
'nue'
'nua'
'nté'
'ntra'
'ntl'
'ntal'
'nsé'
'nsula_'
'novel_'
'novat'
'notori'
'normales_'
'norm_'
'nome'
'noi'
'nnel'
'nke'
'nj'
'nitrogen_'
'nism'
'nid'
'nhe'
'nger_'
'newspapers_'
'nerve'
'neri'
'neck'
'nde_'
'naît'
'navigable'
'nation'
'natal'
'nant'
'nano'
'name'
'météorologique'
'métaux_'
'mères_'
'mutilation'
'mutati'
'multipli'
'multinational'
'multilatéraux_'
'multilatéralisme_'
'multilateralism_'
'multiculturel'
'mph'
'mout'
'mous'
'mounted_'
'motivé_'
'moratoire_'
'montrant_'
'montage_'
'monast'
'modélisation_'
'modifiés_'
'moderni'
'modalities_'
'mobiles_'
'mixtes_'
'mit_'
'misunderstanding'
'miser'
'mique_'
'minimi'
'minimales_'
'minim'
'mination'
'mille_'
'mile'
'mie_'
'mettons_'
'mette_'
'met'
'mesuré'
'meri'
'menacés_'
'menacé_'
'menacer_'
'memorandum_'
'melt'
'medication'
'measur'
'masses_'
'masque'
'masc'
'marketplace_'
'mark'
'marginal_'
'maps_'
'map'
'mann_'
'manipulation_'
'manger_'
'mandated_'
'maltrait'
'malnutrition_'
'males_'
'magnitude_'
'mage_'
'magazines_'
'magasin_'
'mab'
'légères_'
'légère_'
'lut'
'lus_'
'lunch_'
'lts'
'lst'
'looming_'
'loo'
'longe'
'loi'
'logie_'
'lod'
'localiz'
'litigation_'
'lisation_'
'liquide'
'lique_'
'linkages_'
'lining_'
'lights_'
'lighting_'
'lieutenant'
'licensing_'
'license'
'liberal'
'lia_'
'lett'
'lenge'
'lender'
'lementa'
'leather_'
'leas'
'lb'
'lav'
'lauréat'
'lant_'
'landing_'
'lande'
'laissé'
'laisser'
'laire_'
'lable'
'kovsk'
'kma'
'kind'
'kilo'
'justificative'
'justement_'
'jugée_'
'journaliste_'
'jouets_'
'joua'
'jon_'
'join'
'jk'
'jett'
'jacent'
'ié_'
'ivité'
'ition'
'itinéraire'
'isés_'
'ista'
'issa'
'isolée'
'isolat'
'isc'
'irres'
'irlandaise_'
'irat'
'iraquien'
'iranienne'
'irakiens_'
'ionn'
'invol'
'invo'
'inviting_'
'investi_'
'intégralement_'
'interop'
'international'
'intermédiaires_'
'intermediate_'
'interdépendan'
'interc'
'intent_'
'intensifie'
'intensif'
'insuffisant'
'institutionnalis'
'instaur'
'instant'
'insolvabilité_'
'inscrive'
'insa'
'inquiet'
'inoubliable'
'innocent'
'inner_'
'inj'
'ining_'
'inhumains_'
'ingénie'
'ington_'
'infringe'
'informelle'
'informatiques_'
'informati'
'influenced_'
'infest'
'infectieuses_'
'inent'
'ineffective_'
'indo'
'individuellement_'
'indice_'
'independently_'
'indemni'
'incumbent_'
'inconsistent_'
'incendies_'
'inate'
'inance'
'imprisonment_'
'impliquant_'
'implic'
'impede'
'impar'
'immune_'
'imminent_'
'ima_'
'illet'
'ige'
'ifying_'
'ieuses_'
'idéologie_'
'ido'
'identifies_'
'identical_'
'ibilit'
'héroï'
'hypothè'
'hyperlien_'
'hygiène_'
'huile_'
'hs'
'hosting_'
'hostage'
'horizontale'
'hori'
'homologues_'
'holisti'
'hly_'
'hle'
'hinder'
'hib'
'hes'
'herself_'
'herein_'
'hedge_'
'hed'
'hebdomadaire'
'hd'
'hasard_'
'harvest_'
'harvest'
'handled_'
'habitu'
'gên'
'gés_'
'généra'
'génér'
'guise_'
'guin'
'guerri'
'gt'
'groupe'
'grief'
'gren'
'gratuits_'
'graphique'
'graph'
'grandeur_'
'gramme'
'grains_'
'gradual_'
'governor_'
'govern_'
'gouverneur'
'gourm'
'gold'
'goc'
'glyc'
'globales_'
'gle_'
'gil'
'giga'
'gible_'
'gi_'
'gh_'
'ggi'
'geopolitical_'
'genuinely_'
'genero'
'generat'
'general'
'gati'
'gat'
'gardens_'
'garanti_'
'galleries_'
'gage_'
'gab'
'fête'
'fusil'
'fur'
'fundamentally_'
'fum'
'frustrat'
'fronts_'
'frie'
'fran'
'frames_'
'fragilit'
'fossé_'
'fortun'
'forts_'
'formulé_'
'formerly_'
'formally_'
'forma'
'forecasts_'
'forecast_'
'forecast'
'fora'
'foodstuffs_'
'font'
'fondation_'
'fondamentalement_'
'fond'
'fonctionnel'
'flying_'
'fly_'
'fluor'
'fli'
'fleuve_'
'flamm'
'fixée_'
'firm'
'finali'
'fin'
'filter'
'film'
'filiales_'
'figura'
'figur'
'fic'
'ffs_'
'feux_'
'fertilit'
'ferai'
'feld'
'fect'
'fears_'
'fd'
'favorisé'
'favorise_'
'favorise'
'fausse_'
'fausse'
'fastest_'
'familiari'
'fame'
'falsifi'
'false_'
'fais'
'facture'
'facilite_'
'fabrique'
'fabric_'
'eys_'
'exu'
'extrémistes_'
'extrajudicia'
'extinction_'
'extensions_'
'expérimenté'
'expérimental'
'exprima'
'exportateurs_'
'expansion'
'exonér'
'exhausti'
'exercises_'
'exer'
'exempte'
'executed_'
'excessive'
'exceeded_'
'exceed'
'examinés_'
'exacerbate'
'eve'
'euro'
'eté'
'eth_'
'eter_'
'estimer_'
'estimati'
'essions_'
'esse_'
'espagnole_'
'espagnol'
'escompté'
'erosion_'
'erb'
'erates_'
'eral_'
'equat'
'epidemic_'
'eo_'
'envisagé_'
'enveloppe_'
'env'
'entries_'
'entrevue_'
'entrepreneur_'
'entraînent_'
'entraînement_'
'entour'
'entitlement'
'entamé_'
'enrichissement_'
'enregistrées_'
'enor'
'enjoyment_'
'enjoying_'
'english_'
'engineer'
'engendré'
'engagent_'
'endure'
'endr'
'encycl'
'encountered_'
'enceintes_'
'encadre'
'enact'
'empêche_'
'emprunte'
'emprunt'
'empris'
'empir'
'emotional_'
'emmen'
'emergence_'
'embou'
'embarrass'
'eke'
'ehe'
'ego'
'egi'
'eg'
'efforcer_'
'effectue_'
'ees_'
'eed'
'educate_'
'ect_'
'ecc'
'ec_'
'ebo'
'dévoil'
'développements_'
'détour'
'déterminées_'
'déter'
'désiré'
'désactiv'
'déroulé'
'dérogation'
'dérivés_'
'déplacer_'
'déplacent_'
'dépendante'
'départements_'
'délégué'
'déli'
'dégagé'
'définiss'
'défende'
'décédé'
'décrire_'
'découvertes_'
'déclarés_'
'décisive_'
'débute'
'débiteur_'
'débattu_'
'débarrass'
'durer'
'dum'
'drought_'
'dron'
'douz'
'douanier'
'douane_'
'dos'
'dors'
'doom'
'domine'
'dominate_'
'doctors_'
'dock'
'dle_'
'dj'
'divi'
'dive'
'dition_'
'distributions_'
'distress'
'distinctes_'
'dist'
'disproportionate'
'disposé_'
'displacement_'
'displa'
'dismissal_'
'disi'
'discrétion'
'discr'
'discount_'
'discou'
'disai'
'disagree_'
'disadvantage_'
'dirigé'
'dict'
'dial'
'diabète_'
'devrez_'
'devote_'
'devin'
'deviendra_'
'developer_'
'devaluation_'
'deuxièmement_'
'deterren'
'determinant'
'deterioration_'
'destroying_'
'dest'
'desse'
'ders_'
'derni'
'derm'
'deri'
'depress'
'departure_'
'dental_'
'dent'
'densité_'
'demonstrating_'
'demonstrates_'
'demandée_'
'demanded_'
'della_'
'dell'
'delight'
'delegates_'
'defensive_'
'defenders_'
'decree'
'decoration'
'decentraliz'
'decent'
'debating_'
'dealings_'
'danois'
'dak'
'dag'
'céréales_'
'cé'
'cute'
'custom_'
'custody_'
'custo'
'curriculum_'
'cun'
'cumulati'
'cultivate'
'cult'
'cule'
'cue'
'cu'
'ctueu'
'cto'
'cted_'
'cte'
'crédit'
'crypt'
'cruciale_'
'croyan'
'critiqu'
'cribe'
'creativity_'
'crates_'
'coutume'
'courte'
'coupe_'
'couche'
'cos'
'corri'
'correspondance_'
'copie'
'conçue_'
'conviennent_'
'convien'
'convena'
'contrôlés_'
'contribuerai'
'contrainte_'
'contraction_'
'contractante'
'continuously_'
'contextes_'
'context'
'contenues_'
'contemporaine'
'constrained_'
'constitutionnelles_'
'constatation'
'consist_'
'consid'
'conservateur_'
'conseille'
'consciente_'
'consacrés_'
'consacrées_'
'connaissez_'
'congés_'
'conflict'
'confié'
'configure'
'concurrent'
'concord'
'concertée'
'compress'
'compositeur'
'composants_'
'compliqué'
'compla'
'compar'
'communist_'
'communiquées_'
'commodities_'
'commenta'
'commencera'
'combustible_'
'combl'
'collecting_'
'coca'
'cliquer_'
'climati'
'clearer_'
'cleane'
'class'
'circon'
'cio_'
'cine'
'ciblée_'
'ché'
'choisis'
'chocs_'
'childhood_'
'chic'
'chia'
'chi_'
'chevau'
'cherché_'
'chel'
'cheese_'
'chauffe'
'charter_'
'charte_'
'chair'
'cessent_'
'cerveau_'
'certitude_'
'cella'
'cav'
'caught_'
'cateurs_'
'cataly'
'casi'
'carn'
'cardiovascula'
'caméra_'
'camping_'
'calo'
'calis'
'calculé_'
'cafés_'
'cafe'
'bénévol'
'bâ'
'butt'
'burst_'
'burs'
'burn_'
'bureaucratie_'
'brutalité'
'brother_'
'briefing_'
'bree'
'breaking_'
'break'
'boîte_'
'bout'
'boursier'
'bours'
'bourg_'
'boulevers'
'bought_'
'bot'
'bore'
'booked_'
'bone_'
'bombarde'
'bois'
'boat'
'birth'
'biotechnology_'
'bioc'
'bine'
'bills_'
'bilatérale_'
'bienvenue_'
'beside'
'bert_'
'bers_'
'beneficial_'
'belongs_'
'believ'
'beliefs_'
'behavio'
'beau'
'bbl'
'basti'
'basically_'
'barbe'
'banqu'
'banni'
'bagages_'
'bactérie'
'avérée'
'avérer_'
'avè'
'avocats_'
'aveu'
'avertissement_'
'aventure_'
'avantageu'
'auxilia'
'autochtone_'
'auti'
'authorization_'
'aur'
'augmentera_'
'audited_'
'attribue_'
'attire'
'attentat_'
'attacked_'
'attache_'
'attach_'
'atrocit'
'atrice'
'atout'
'asserti'
'ashe'
'ash_'
'articul'
'arsenal_'
'arménien'
'armement_'
'arma'
'aren_'
'appréciation_'
'appréci'
'approuvées_'
'approuvée_'
'apportant_'
'appointments_'
'appear'
'appartiennent_'
'apparaître_'
'apparaitra_'
'aperçu_'
'apa'
'ao_'
'ao'
'antid'
'antenn'
'announce_'
'annoncée_'
'annexed_'
'anne'
'ann_'
'ance'
'analytical_'
'amélioré_'
'amène'
'ampli'
'amma'
'amené'
'amending_'
'amende_'
'ambigu'
'allé'
'allouée'
'allocat'
'allie'
'allaient_'
'all'
'alimenter_'
'aki'
'aiss'
'aima'
'aill'
'aidant_'
'agré'
'agression_'
'agit'
'aggravé'
'aggravate'
'afi'
'afghane'
'affronte'
'affirme'
'affiliate'
'affichage_'
'affaibli_'
'advocated_'
'advocacy_'
'advise'
'advi'
'adressé_'
'adhérer_'
'additionnel_'
'acé'
'acy_'
'activate'
'acquisitions_'
'acquise_'
'acid'
'aci'
'achetée'
'achemin'
'acement'
'accuse'
'accurately_'
'accueilli'
'accordés_'
'accompanying_'
'accident'
'accessibilité_'
'acceptée_'
'accepting_'
'aca'
'abstention'
'abouti_'
'abilities_'
'abb'
'Yemen_'
'YOU_'
'Xiao'
'XP'
'XI_'
'XII'
'Windsor_'
'Wen_'
'Welcomes_'
'Web'
'Wea'
'Waste_'
'Wag'
'WM'
'Vu'
'Vot'
'Villa'
'Victor_'
'Vers'
'Veni'
'Vac'
'VT'
'VIS'
'VIP_'
'VH'
'Utilisateur_'
'Unix_'
'Une'
'USA'
'UR_'
'URS'
'URI'
'Télécopieur_'
'Tunis'
'Trial_'
'Transf'
'Tradi'
'Tool'
'Tol'
'Title_'
'Theatre_'
'Text_'
'Texas_'
'Territo'
'Temp'
'Taxes_'
'Tant_'
'Tandis_'
'Tadjikistan_'
'Tab'
'TU'
'TOPIC_'
'TIONS_'
'Symp'
'Surveillance_'
'Supply_'
'Suivant_'
'Stock'
'Still_'
'Statistique'
'Statistical_'
'Spock_'
'Specific_'
'Solution'
'Solidarity_'
'Smart'
'Sk'
'Situ'
'Sid'
'Share'
'Seri'
'Senator_'
'Selection_'
'Select_'
'Scotland_'
'Schum'
'School'
'Sav'
'Samoa_'
'Sah'
'SYST'
'SV_'
'SV'
'SOU'
'SB'
'Réservez_'
'Réf'
'Réa'
'RÉS'
'Roo'
'Roms_'
'Rod'
'Roche'
'Requirements_'
'Republicans_'
'Renforce'
'Related_'
'Regarding_'
'Recommandations_'
'Reco'
'Reader_'
'Rational'
'Ran'
'Rai'
'RN'
'RM_'
'RIS'
'RIC'
'RELATI'
'REC'
'Quatre_'
'Quark'
'Qaddafi_'
'Pun'
'Puerto_'
'Publi'
'Présidence_'
'Préc'
'Promo'
'Production_'
'Procurement_'
'Print_'
'Prepare'
'Prejudice_'
'Practic'
'Position_'
'Politic'
'Plu'
'Plant'
'Perm'
'Perc'
'Ped'
'Parti'
'PRES'
'POL'
'PB'
'PARA'
'Outlook_'
'Oua'
'Orde'
'Opéra'
'Offices_'
'Obviously_'
'Observ'
'Objet_'
'Oa'
'OUT'
'OMD_'
'Num'
'Nou'
'Norm'
'Non'
'Nintendo_'
'Nick'
'Nau'
'Nata'
'Nass'
'Nar'
'Nancy_'
'Namibi'
'NU'
'NS_'
'NOT_'
'NON_'
'NL'
'NI_'
'NF'
'NCI'
'Mul'
'Mous'
'Motor_'
'Moni'
'Moder'
'Mode'
'Minist'
'Mini'
'Million'
'Miles_'
'Methods_'
'Men_'
'Me_'
'McCain_'
'Max_'
'Master_'
'Maria_'
'Manu'
'Mandat'
'Manag'
'Make'
'Macédoine_'
'MAN'
'Loss'
'Loren'
'Loi'
'Ll'
'Ligue_'
'Light'
'Liens_'
'License'
'Libert'
'Leurs_'
'Less'
'Left_'
'Latine_'
'Lag'
'LOS'
'Kru'
'Kenne'
'Keep_'
'Kas'
'KH'
'KB_'
'Juni'
'Jui'
'Jud'
'Jordanie_'
'Jonathan_'
'Johnson_'
'Jeu'
'JavaScript_'
'Jama'
'Jack_'
'Iraqis_'
'Invites_'
'Investigation_'
'Investigat'
'Intr'
'Innovati'
'Indicators_'
'Indians_'
'Impact_'
'Immigration_'
'Image'
'Ici_'
'ITU'
'IRE_'
'INM'
'INI_'
'INE_'
'INC_'
'IMA'
'IH'
'IFI'
'IE_'
'IES_'
'ICI'
'Hôtels_'
'Humanitarian_'
'Hugh'
'Hollande_'
'Holiday_'
'Hoc_'
'Hillary_'
'Highl'
'Hence_'
'Haa'
'HD_'
'HA_'
'Guantánamo_'
'Groups_'
'Grou'
'Gouverneur_'
'Goth'
'Goo'
'Gift_'
'Gerhard_'
'Genetic'
'Gas_'
'Gand'
'Galle'
'Galic'
'GS_'
'GRP'
'GPS_'
'GNU_'
'GEN'
'GEF_'
'GCA_'
'GB'
'G2'
'Future_'
'Fri'
'Fraser_'
[...]
