'<pad>'
'<START>'
'<EOS>'
', _'
'._'
'the_'
'_'
'in_'
'of_'
'and_'
'to_'
'die_'
'der_'
'und_'
'a_'
's_'
'-_'
'is_'
'that_'
'zu_'
'den_'
'for_'
'von_'
'on_'
'n_'
'ist_'
'. _'
'für_'
'an_'
'be_'
'en_'
'The_'
'with_'
'are_'
'es_'
'das_'
'as_'
'e_'
'des_'
'auf_'
'mit_'
'eine_'
'dass_'
'it_'
'nicht_'
'im_'
'this_'
'I_'
'by_'
'not_'
'have_'
' (_'
'sich_'
'was_'
'ein_'
'Die_'
'will_'
'werden_'
'from_'
' – _'
'dem_'
'we_'
': _'
'’_'
't_'
'which_'
'has_'
'Sie_'
'or_'
'at_'
'er_'
'r_'
'als_'
'auch_'
'wir_'
'you_'
'In_'
'sind_'
'wird_'
'um_'
'ing_'
'so_'
''_'
') _'
'all_'
'can_'
' - _'
'sie_'
'also_'
'einer_'
'haben_'
'd_'
'wie_'
'hat_'
'European_'
'their_'
'oder_'
'more_'
'its_'
'über_'
'would_'
'but_'
'?_'
'einen_'
'ed_'
'y_'
'ich_'
'zur_'
'our_'
'aus_'
'they_'
'Das_'
'one_'
'bei_'
'been_'
'einem_'
'Union_'
'It_'
'should_'
'nur_'
'; _'
'This_'
'nach_'
'/_'
'diese_'
'können_'
'only_'
'am_'
'durch_'
'ung_'
'zum_'
'countries_'
'do_'
'other_'
'dieser_'
'war_'
'EU_'
'1_'
' , _'
'new_'
'kann_'
'We_'
'de_'
'your_'
'Der_'
'noch_'
'than_'
'were_'
'o_'
'man_'
'there_'
'must_'
'no_'
'Mr_'
' "_'
'like_'
'vor_'
'about_'
'wenn_'
'2_'
'Ich_'
'Europe_'
'time_'
'US_'
'if_'
'who_'
'Es_'
'wurde_'
'us_'
'President_'
'up_'
'these_'
'- _'
'very_'
'world_'
'uns_'
'sein_'
'Hotel_'
'A_'
'aber_'
'Wir_'
'ten_'
'such_'
' ._'
'm_'
'Commission_'
'his_'
'But_'
'people_'
'China_'
'müssen_'
'te_'
'mehr_'
'out_'
'most_'
'5_'
'into_'
'ihre_'
'3_'
'when_'
' “_'
'sehr_'
'many_'
'some_'
'now_'
'any_'
'Kommission_'
'ng_'
'!_'
'what_'
'he_'
'well_'
'them_'
'l_'
'eines_'
'had_'
'% _'
'" _'
'political_'
' „_'
'4_'
',_'
'), _'
'States_'
'years_'
'even_'
'Herr_'
'over_'
')._'
'ly_'
'muss_'
'alle_'
'first_'
'between_'
'because_'
'diesem_'
'two_'
'make_'
'need_'
'bis_'
'work_'
'hotel_'
'unter_'
'use_'
'economic_'
'could_'
'Parliament_'
'zwischen_'
'way_'
'may_'
'keine_'
'those_'
'policy_'
'Präsident_'
'my_'
'gibt_'
'system_'
'Council_'
'i_'
'If_'
'gegen_'
'report_'
'anderen_'
'country_'
'al_'
'government_'
'important_'
'just_'
'Europäischen_'
'Europa_'
'support_'
'much_'
'0_'
'sowie_'
' _'
'ungen_'
'vom_'
'möchte_'
'market_'
'able_'
'USA_'
'” _'
'dieses_'
'take_'
'being_'
'Member_'
'made_'
'seine_'
'year_'
'Jahr_'
'how_'
'Menschen_'
'Wenn_'
'' _'
'both_'
'Zeit_'
'“ _'
'where_'
'sondern_'
'after_'
'Welt_'
'immer_'
'public_'
'Länder_'
'wurden_'
'right_'
'diesen_'
'Diese_'
'last_'
'good_'
'g_'
'(_'
'andere_'
'part_'
'international_'
'dies_'
'own_'
'da_'
':_'
'through_'
'financial_'
'Im_'
'Jahren_'
'same_'
'long_'
'jedoch_'
'For_'
'10_'
'against_'
'würde_'
'unsere_'
're_'
'hier_'
'end_'
'ihrer_'
'As_'
'le_'
'k_'
'dann_'
'then_'
'There_'
'information_'
'S_'
'global_'
'Bericht_'
'too_'
'power_'
'rights_'
'h_'
'damit_'
'z_'
'does_'
'Regierung_'
'6_'
'see_'
'ohne_'
'high_'
'7_'
'weil_'
'social_'
'c_'
'heute_'
'under_'
'sollte_'
'national_'
'growth_'
'course_'
'place_'
'United_'
'still_'
'area_'
'ion_'
'want_'
'denen_'
'before_'
'Parlament_'
'point_'
'Mitgliedstaaten_'
'So_'
'order_'
'seiner_'
'europäischen_'
'free_'
'8_'
'future_'
'within_'
'development_'
'possible_'
'me_'
'20_'
'used_'
'ihren_'
'Entwicklung_'
'room_'
'Land_'
'Europäische_'
'That_'
'set_'
'sollten_'
'number_'
'neue_'
'far_'
'ation_'
'while_'
'less_'
'fact_'
'today_'
'human_'
'bereits_'
'Ein_'
' [[_'
'since_'
'ihr_'
'already_'
'without_'
'selbst_'
'9_'
'wieder_'
'se_'
'la_'
'cannot_'
'zwei_'
'great_'
'America_'
'viele_'
'You_'
'Frage_'
'’ _'
'example_'
'say_'
'large_'
' | _'
'real_'
'neuen_'
'viel_'
'believe_'
'view_'
'here_'
'few_'
'! _'
'dazu_'
'Und_'
'economy_'
'wäre_'
'während_'
'state_'
'dafür_'
'therefore_'
'And_'
'st_'
'rs_'
'her_'
'darauf_'
'means_'
' '_'
'C_'
'machen_'
'change_'
'..._'
'waren_'
'könnte_'
'denn_'
'Lage_'
'000_'
'level_'
'down_'
'problem_'
'different_'
'become_'
'Jahre_'
'case_'
'liegt_'
'help_'
'bar_'
'Eine_'
'30_'
'process_'
'find_'
'They_'
'wo_'
'three_'
'jetzt_'
'next_'
'ers_'
'available_'
'get_'
'Ländern_'
'go_'
'unserer_'
'issue_'
'et_'
'Politik_'
'current_'
'problems_'
'best_'
'einige_'
'Staaten_'
'know_'
'services_'
'geht_'
'Ihnen_'
'el_'
'Unternehmen_'
'mich_'
'including_'
'doch_'
'Israel_'
'Dies_'
'00_'
'15_'
'politische_'
'clear_'
'E_'
'why_'
'city_'
'allen_'
'Mit_'
'Frau_'
'finden_'
'When_'
'Maßnahmen_'
'however_'
'day_'
'D_'
'B_'
'per_'
'ganz_'
'crisis_'
'To_'
'seit_'
'question_'
'gut_'
'areas_'
'2009_'
'American_'
'u_'
'energy_'
'lassen_'
'Iran_'
'Committee_'
'x_'
'trade_'
'during_'
'daß_'
'allem_'
'politischen_'
'making_'
'Aber_'
'result_'
'ob_'
'ns_'
'back_'
'Wie_'
've_'
'small_'
'nun_'
'access_'
'common_'
'com_'
'Doch_'
'markets_'
'ge_'
'each_'
'Rat_'
'etwas_'
'did_'
'better_'
'habe_'
'Japan_'
'offers_'
'These_'
'bietet_'
'50_'
'situation_'
'action_'
'Commissioner_'
'tion_'
'particular_'
'letzten_'
'law_'
'debate_'
'business_'
'Bush_'
'2000_'
'service_'
'non_'
'ne_'
'Zimmer_'
'Russia_'
'Germany_'
'whether_'
'said_'
'Bereich_'
'term_'
'seinen_'
'schon_'
'ch_'
'security_'
'put_'
'every_'
'based_'
'At_'
'11_'
'come_'
'wollen_'
'again_'
'Problem_'
'Euro_'
'worden_'
'p_'
'geben_'
'New_'
'Internet_'
'stay_'
'rate_'
'think_'
'military_'
'around_'
'Ihre_'
'sten_'
'provide_'
'main_'
'health_'
'drei_'
'ts_'
'measures_'
'little_'
'given_'
'besteht_'
'Probleme_'
'Ende_'
'All_'
'12_'
'großen_'
'might_'
'große_'
'ce_'
'tun_'
'ter_'
'page_'
'group_'
'|_'
'stellen_'
'soll_'
'que_'
'private_'
'major_'
'interest_'
'continue_'
'beim_'
'money_'
'called_'
'Ziel_'
'House_'
'full_'
'Herrn_'
'He_'
'Fall_'
'zwar_'
'rooms_'
'give_'
'citizens_'
'Sicherheit_'
'steht_'
'needs_'
'einfach_'
'sagen_'
'old_'
'issues_'
'gen_'
'form_'
'eigenen_'
'away_'
'On_'
'systems_'
'hatte_'
'gegenüber_'
'Unterstützung_'
'System_'
'weniger_'
'weiter_'
'further_'
'einmal_'
'World_'
'Bürger_'
'proposal_'
'möglich_'
'du_'
'deren_'
'another_'
'Namen_'
'2008_'
'women_'
'open_'
'members_'
'life_'
'lich_'
'itself_'
'Informationen_'
'ment_'
'ies_'
'hope_'
'erhalten_'
'always_'
'T_'
'Arbeit_'
'Als_'
'position_'
'nt_'
'debt_'
'Nach_'
'institutions_'
'foreign_'
'bin_'
' $_'
'million_'
'insbesondere_'
'especially_'
'budget_'
'basis_'
'Teil_'
'Rahmen_'
'France_'
'Auch_'
'Art_'
'2005_'
'weitere_'
'os_'
'leaders_'
'conditions_'
'P_'
'öffentlichen_'
'rather_'
'quality_'
'past_'
'mir_'
'located_'
'Zukunft_'
'second_'
'recent_'
'low_'
'line_'
'kein_'
'davon_'
'Wirtschaft_'
'What_'
'taken_'
'risk_'
'ihnen_'
'governments_'
'Rolle_'
'Bedeutung_'
'2006_'
'legal_'
'led_'
'kommen_'
'century_'
'ab_'
']] _'
'With_'
'short_'
'sehen_'
'off_'
'local_'
'f_'
'create_'
'using_'
'least_'
'close_'
'certain_'
'allerdings_'
'German_'
'Für_'
'100_'
'meisten_'
'him_'
'etwa_'
'ern_'
'O_'
'Bei_'
'wissen_'
'terms_'
'region_'
'others_'
'ons_'
'nd_'
'könnten_'
'going_'
'ago_'
'\u_'
'2007_'
'.”_'
' _'
'whole_'
'unseren_'
'together_'
'pro_'
'necessary_'
'increase_'
'ersten_'
'central_'
'Zusammenarbeit_'
'One_'
'M_'
';_'
'stehen_'
'modern_'
'2004_'
'policies_'
'particularly_'
'innerhalb_'
'data_'
'Was_'
'Millionen_'
'Europas_'
'Community_'
'würden_'
'vote_'
'rules_'
'role_'
'once_'
'often_'
' & _'
'ensure_'
'dort_'
'done_'
'agreement_'
'sector_'
'capital_'
'ble_'
'Fragen_'
'2001_'
'staff_'
'nden_'
'fully_'
'yet_'
'price_'
'needed_'
'Weise_'
'Obama_'
'Er_'
'25_'
'ted_'
'tax_'
'start_'
'sowohl_'
'key_'
'children_'
'aller_'
'Recht_'
'Bank_'
'Auf_'
'single_'
'location_'
'darüber_'
'alles_'
'Chinese_'
'europäische_'
'dabei_'
'However_'
'Beispiel_'
'water_'
'really_'
'internationalen_'
'ins_'
'home_'
'erreichen_'
'among_'
'wirklich_'
'stellt_'
'rates_'
'meine_'
'longer_'
'keit_'
'Weg_'
'Vorschlag_'
'India_'
'16_'
'ieren_'
'bringen_'
'September_'
'Region_'
'sogar_'
'fiscal_'
'b_'
'account_'
'Indeed_'
'East_'
' ..._'
'until_'
'special_'
'sei_'
'schen_'
'reform_'
'present_'
'ischen_'
'investment_'
'greater_'
'führen_'
'banks_'
'Leben_'
'working_'
'reason_'
'production_'
'em_'
'companies_'
'Seite_'
'2003_'
'though_'
'third_'
'society_'
'protection_'
'excellent_'
'difficult_'
'billion_'
'Stadt_'
'something_'
'research_'
'never_'
'men_'
'food_'
'early_'
'besonders_'
'2002_'
'th_'
'likely_'
'left_'
'democracy_'
'control_'
'aid_'
'No_'
'Dollar_'
'look_'
'indem_'
'force_'
'environment_'
'centre_'
'Demokratie_'
' % _'
'states_'
'resources_'
'Um_'
'value_'
'ty_'
'rn_'
'möchten_'
'meiner_'
'matter_'
'ihm_'
'decision_'
'cooperation_'
'G_'
'After_'
'kommt_'
'ja_'
'Deutschland_'
'weiterhin_'
'vielen_'
'peace_'
'ity_'
'following_'
'costs_'
'almost_'
'un_'
'things_'
'side_'
'shall_'
'several_'
'ren_'
'prices_'
'ihrem_'
'having_'
'fast_'
'bieten_'
'Frauen_'
' '
'period_'
'nuclear_'
'nen_'
'N_'
'Mrs_'
'hinaus_'
'darin_'
'daher_'
'chen_'
'age_'
'South_'
'Mittel_'
'Grund_'
'welche_'
'thus_'
'play_'
'ous_'
'nichts_'
'land_'
'iert_'
'history_'
'dessen_'
'Zusammenhang_'
'Seiten_'
'By_'
'products_'
'gentlemen_'
'ever_'
'building_'
'approach_'
'State_'
'Parlaments_'
'Group_'
'unterstützen_'
'regard_'
'name_'
'known_'
'interests_'
'industry_'
'UN_'
'R_'
'Man_'
'Iraq_'
'Central_'
'wichtig_'
'show_'
'ry_'
'resolution_'
'poor_'
'ihn_'
'hand_'
'experience_'
'entfernt_'
'efforts_'
'developing_'
'created_'
'beiden_'
'Thema_'
'L_'
'24_'
'themselves_'
'standards_'
'results_'
'respect_'
'include_'
'feel_'
'easy_'
'offer_'
'list_'
'hin_'
'enough_'
'democratic_'
'breakfast_'
'Kinder_'
'18_'
'towards_'
'demand_'
'Möglichkeit_'
'Kosten_'
'Asia_'
'wish_'
'proposals_'
'nationalen_'
'management_'
'keinen_'
'family_'
'euro_'
'etc_'
'cost_'
'aufgrund_'
'French_'
'Fraktion_'
'programme_'
'personal_'
'ische_'
'befindet_'
'Verfügung_'
'Schutz_'
'Richtlinie_'
'Regierungen_'
'Of_'
'International_'
'160_'
'seen_'
'sche_'
'remain_'
'questions_'
'progress_'
'macht_'
'huge_'
'hen_'
'groups_'
'general_'
'found_'
'besser_'
'West_'
'Wachstum_'
'U_'
'Situation_'
'views_'
'verschiedenen_'
'true_'
'site_'
'regional_'
'll_'
'hard_'
'halten_'
'half_'
'gute_'
'amerikanischen_'
'Treaty_'
'November_'
'40_'
'version_'
'various_'
'simply_'
'plan_'
'nehmen_'
'majority_'
'lead_'
'freedom_'
'due_'
'Russland_'
'Milliarden_'
'Landes_'
'Krise_'
'Gesellschaft_'
'Africa_'
'workers_'
'sch_'
'let_'
'agree_'
'Vereinigten_'
'Some_'
'Service_'
'Macht_'
'Geschichte_'
'Form_'
'2010_'
'wirtschaftlichen_'
'specific_'
'positive_'
'parties_'
'ls_'
'ask_'
'Gemeinschaft_'
'GDP_'
'An_'
'21_'
'vielleicht_'
'taking_'
'sen_'
'remains_'
'months_'
'income_'
'cultural_'
'bleiben_'
'Kommissar_'
'young_'
'wenig_'
'seinem_'
'schnell_'
'member_'
'hatten_'
'economies_'
'directive_'
'concerned_'
'Geld_'
'F_'
'14_'
'welcome_'
'w_'
'times_'
'sollen_'
'software_'
'serious_'
'seems_'
'related_'
'party_'
'ner_'
'higher_'
'call_'
'London_'
'Daten_'
'words_'
'solution_'
'run_'
'points_'
'levels_'
'internationale_'
'che_'
'changes_'
'big_'
'allow_'
'weit_'
'transport_'
'rapporteur_'
'near_'
'kind_'
'ic_'
'clearly_'
'behalf_'
'ar_'
'adopted_'
'Western_'
'Dieses_'
'wichtige_'
'provided_'
'les_'
'ladies_'
'gilt_'
'erste_'
'elections_'
'Restaurant_'
'Our_'
'Mitglieder_'
'à_'
'wirtschaftliche_'
'user_'
'traditional_'
'sure_'
'setzen_'
'sense_'
'population_'
'nächsten_'
'makes_'
'field_'
'direkt_'
'deal_'
'concerns_'
'cases_'
'beispielsweise_'
'Ziele_'
'X_'
'Programm_'
'Kollegen_'
'Beziehungen_'
'19_'
'upon_'
'top_'
'stand_'
'she_'
'online_'
'light_'
'later_'
'language_'
'km_'
'exchange_'
'either_'
'amendments_'
'across_'
'Menschenrechte_'
'Krieg_'
'Grundlage_'
'Da_'
'60_'
'– _'
'town_'
'son_'
'proposed_'
'lediglich_'
'ia_'
'gehen_'
'forward_'
'environmental_'
'ebenfalls_'
'bedeutet_'
'Tag_'
'Madam_'
'Lösung_'
'Irak_'
'Ihr_'
'Dieser_'
'Auswirkungen_'
'Ansicht_'
'total_'
'ste_'
'solche_'
'schaffen_'
'safety_'
'rt_'
'pages_'
'opportunity_'
'natürlich_'
'improve_'
'idea_'
'hätte_'
'heart_'
'ens_'
'daran_'
'above_'
'TV_'
'Hilfe_'
'Alle_'
'significant_'
'rule_'
'rise_'
'required_'
'relations_'
'lichen_'
'jeder_'
'house_'
'genau_'
'gemacht_'
'führt_'
'fundamental_'
'content_'
'company_'
'comes_'
'climate_'
'ca_'
'address_'
'Party_'
'"._'
'é_'
'success_'
'subject_'
'range_'
'quite_'
'projects_'
'opinion_'
'oil_'
'legislation_'
'impact_'
'globalen_'
'framework_'
'fall_'
'face_'
'erreicht_'
'effect_'
'days_'
'currently_'
'co_'
'ben_'
'alten_'
'Meinung_'
'EUR_'
'wahrscheinlich_'
'technology_'
'station_'
'rich_'
'rest_'
'program_'
'person_'
'los_'
'enjoy_'
'effective_'
'ebenso_'
'community_'
'bekannt_'
'North_'
'Moreover_'
'Hotels_'
'strategy_'
'ness_'
'klar_'
'jobs_'
'gerade_'
'gab_'
'center_'
'bzw_'
'authorities_'
'V_'
'Minister_'
'Members_'
' . _'
'whose_'
'unserem_'
'strong_'
'statt_'
'nämlich_'
'lot_'
'leading_'
'developed_'
'conflict_'
'appropriate_'
'air_'
'addition_'
'Bevölkerung_'
'Afghanistan_'
'17_'
'zurück_'
'thank_'
'size_'
'sea_'
'regime_'
'reforms_'
'ra_'
'pay_'
'outside_'
'minutes_'
'liche_'
'ions_'
'indeed_'
'funds_'
'doing_'
'deshalb_'
'competition_'
'attention_'
'Strategie_'
'Institutionen_'
'Chinas_'
'April_'
'1999_'
'understand_'
'sprechen_'
'sicher_'
'share_'
'restaurant_'
'meeting_'
'live_'
'hours_'
'heit_'
'facilities_'
'education_'
'directly_'
'deutlich_'
'consider_'
'ary_'
'administration_'
'T'
'Jahres_'
'Indien_'
'text_'
'regulation_'
'recently_'
'neu_'
'media_'
'living_'
'individual_'
'gesagt_'
'credit_'
'beautiful_'
'balance_'
'arbeiten_'
'Rates_'
'Liste_'
'Interessen_'
'Ebene_'
'Berlin_'
'Aus_'
')_'
'politik_'
'perhaps_'
'nde_'
'model_'
'jeden_'
'involved_'
'ging_'
'game_'
'five_'
'date_'
'cy_'
'came_'
'bring_'
'ate_'
'Windows_'
'Ukraine_'
'Paris_'
'Office_'
'Nähe_'
'Government_'
'Even_'
'"_'
'weltweit_'
'values_'
'spending_'
'scheint_'
'na_'
'keyword_'
'ive_'
'four_'
'ende_'
'achieve_'
'W_'
'National_'
'Ergebnis_'
'Bedingungen_'
' : _'
'via_'
'verfügt_'
'ting_'
'space_'
'popular_'
'nature_'
'natural_'
'lange_'
'keep_'
'held_'
'former_'
'enden_'
'application_'
'War_'
'Ihrer_'
'Haus_'
'13_'
'ur_'
'soon_'
'internal_'
'inflation_'
'importance_'
'ie_'
'handelt_'
'ert_'
'actually_'
'Zugang_'
'Tatsächlich_'
'January_'
'Investitionen_'
'Frankreich_'
'ss_'
'regions_'
'reduce_'
'red_'
'product_'
'principle_'
'prevent_'
'nutzen_'
'increased_'
'ierung_'
'eurozone_'
'employment_'
'Von_'
'Personen_'
'Interesse_'
'Gruppe_'
'Deshalb_'
'&_'
'weiteren_'
'unterstützt_'
'stark_'
'poverty_'
'image_'
'ig_'
'growing_'
'gleichzeitig_'
'gemeinsame_'
'features_'
'eren_'
'certainly_'
'care_'
'car_'
'bleibt_'
'York_'
'Umsetzung_'
'Turkey_'
'San_'
'Preis_'
'M'
'La_'
'II_'
'Dienstleistungen_'
'Debatte_'
'British_'
'Bereichen_'
'Außerdem_'
'ze_'
'wide_'
'v_'
'thing_'
'strategic_'
'stability_'
'pool_'
'parts_'
'official_'
'nie_'
'ke_'
'increasingly_'
'included_'
'ideal_'
'focus_'
'einigen_'
'ds_'
'del_'
'dar_'
'check_'
'ces_'
'art_'
'Verantwortung_'
'Türkei_'
'Spain_'
'Regionen_'
'Middle_'
'Kampf_'
'Italy_'
'weiß_'
'ways_'
'sozialen_'
'self_'
'nothing_'
'ht_'
'extremely_'
'computer_'
'bereit_'
'along_'
'Z'
'Wert_'
'Wahl_'
'Tatsache_'
'Security_'
'Punkt_'
'Park_'
'Pakistan_'
'NATO_'
'Armut_'
'week_'
'table_'
'simple_'
'responsibility_'
'project_'
'ors_'
'night_'
'ken_'
'ings_'
'il_'
'everything_'
'dürfen_'
'despite_'
'complex_'
'benefits_'
'anti_'
'add_'
'Erfolg_'
'Bezug_'
' ( _'
'violence_'
'verhindern_'
'type_'
'stop_'
'step_'
'reasons_'
'nbsp_'
'geführt_'
'file_'
'decisions_'
'currency_'
'ck_'
'cause_'
'besten_'
'befinden_'
'answer_'
'More_'
'Bemühungen_'
'Aussprache_'
'Ausschuss_'
'Aufgabe_'
'23_'
'", _'
'zusammen_'
'unser_'
'risks_'
'response_'
'recht_'
'mean_'
'lässt_'
'len_'
'largest_'
'je_'
'fight_'
'darf_'
'culture_'
'capacity_'
'amount_'
'Während_'
'Richtung_'
'Markt_'
'Kontrolle_'
'Entscheidung_'
'B'
',” _'
' -_'
' ''_'
'wären_'
'verstehen_'
'verschiedene_'
'turn_'
'try_'
'sub_'
'status_'
'reviews_'
'pressure_'
'option_'
'ments_'
'konnte_'
'integration_'
'highly_'
'größten_'
'erst_'
'direct_'
'decades_'
'clean_'
'civil_'
'betrifft_'
'bad_'
'accept_'
'Verfassung_'
'Mal_'
'General_'
'Booking_'
' ‘_'
'�_'
'ziehen_'
'wichtigen_'
'verwendet_'
'unternehmen_'
'tragen_'
'took_'
'tes_'
'similar_'
'post_'
'lost_'
'ling_'
'friendly_'
'events_'
'event_'
'develop_'
'customers_'
'contains_'
'coming_'
'comfortable_'
'below_'
'bed_'
'Zu_'
'Reformen_'
'Ihren_'
'Hier_'
'Banken_'
'Amerika_'
'1990_'
'zehn_'
'training_'
'return_'
'provides_'
'president_'
'notwendig_'
'nor_'
'negotiations_'
'moment_'
'mal_'
'late_'
'job_'
'fünf_'
'forces_'
'favour_'
'einzelnen_'
'effort_'
'domestic_'
'cally_'
'body_'
'beach_'
'Vorschläge_'
'Verfahren_'
'Software_'
'Präsidenten_'
'Kosovo_'
'How_'
'BIP_'
'Allerdings_'
'visit_'
'require_'
'potential_'
'move_'
'lives_'
'liegen_'
'kleinen_'
'hätten_'
'election_'
'eher_'
'complete_'
'board_'
'bank_'
'asked_'
'ally_'
'Yet_'
'While_'
'V'
'Tage_'
'Russian_'
'Ort_'
'Court_'
'Antwort_'
'Amerikas_'
'wichtigsten_'
'walk_'
'vergangenen_'
'terrorism_'
'ta_'
'standard_'
'sometimes_'
'responsible_'
'opposition_'
'opportunities_'
'leben_'
'heißt_'
'existing_'
'ent_'
'double_'
'although_'
'ability_'
'] _'
'Wahlen_'
'Vor_'
'Staat_'
'Schritt_'
'Rechte_'
'Möglichkeiten_'
'My_'
'Führung_'
'First_'
'F'
'Druck_'
'City_'
'. - (_'
' / _'
'road_'
'rising_'
'politics_'
'police_'
'obwohl_'
'nice_'
'igen_'
'hold_'
'glaube_'
'failure_'
'dollar_'
'di_'
'design_'
'death_'
'context_'
'consumption_'
'bekommen_'
'basic_'
'Presidency_'
'Platz_'
'Palestinian_'
'Korea_'
'Gewalt_'
'Bekämpfung_'
'August_'
'Although_'
'80_'
'ändern_'
'x'
'vier_'
'soziale_'
'places_'
'oft_'
'network_'
'ma_'
'helfen_'
'gs_'
'ger_'
'gemeinsamen_'
'famous_'
'essential_'
'darum_'
'card_'
'behind_'
'beginning_'
'became_'
'anderer_'
'agenda_'
'additional_'
'activities_'
'Website_'
'Verhandlungen_'
'Obwohl_'
'L'
'G'
'Förderung_'
'Entscheidungen_'
'Enterprise_'
'Arab_'
'Anfang_'
'Abstimmung_'
'90_'
'wegen_'
'video_'
'tatsächlich_'
'successful_'
'style_'
'sorgen_'
'six_'
'shown_'
'previous_'
'lower_'
'limited_'
'ler_'
'lack_'
'guests_'
'ful_'
'findet_'
'ermöglichen_'
'designed_'
'consequences_'
'brauchen_'
'began_'
'annual_'
'alone_'
'Zum_'
'WTO_'
'Verbindung_'
'Partei_'
'Mehrheit_'
'June_'
'Hand_'
'Eurozone_'
'Bar_'
'Americans_'
'-, _'
'Öffentlichkeit_'
'zen_'
'zeigen_'
'weapons_'
'verbunden_'
'tell_'
'schaft_'
'purpose_'
'music_'
'instead_'
'häufig_'
'hoch_'
'goods_'
'globale_'
'gehört_'
'gebracht_'
'fen_'
'entwickeln_'
'don_'
'creating_'
'choice_'
'Produkte_'
'Damit_'
'D'
'Behörden_'
'45_'
'zeigt_'
'wohl_'
'thought_'
'sound_'
'receive_'
'probably_'
'lose_'
'latest_'
'internet_'
'industrial_'
'gegeben_'
'emerging_'
'committee_'
'commitment_'
'built_'
'average_'
'ant_'
'advanced_'
'act_'
'Zahl_'
'Version_'
'Uhr_'
'Seit_'
'Nations_'
'Kunden_'
'K_'
'Europeans_'
'Artikel_'
'22_'
'..." _'
'zeit_'
'started_'
'secure_'
'protect_'
'prepared_'
'practice_'
'plans_'
'performance_'
'looking_'
'independent_'
'implementation_'
'guarantee_'
'gas_'
'ganzen_'
'enable_'
'emissions_'
'decided_'
'considered_'
'benefit_'
'avoid_'
'attack_'
'agreements_'
'Zudem_'
'Since_'
'Schaffung_'
'Politiker_'
'Nationen_'
'Initiative_'
'Grenzen_'
'Am_'
'throughout_'
'test_'
'speech_'
'speak_'
'schließlich_'
'reduction_'
'reality_'
'principles_'
'politischer_'
'package_'
'objective_'
'note_'
'kaum_'
'guest_'
'gleichen_'
'geschaffen_'
'funding_'
'front_'
'follow_'
'est_'
'deficit_'
'closed_'
'categories_'
'cal_'
'according_'
'University_'
'Spanien_'
'Programme_'
'N'
'Italian_'
'From_'
'English_'
'Darüber_'
'Dank_'
'Berichterstatter_'
'Barcelona_'
'Abgeordneten_'
'200_'
'wobei_'
'voll_'
'ut_'
'unique_'
'tions_'
'takes_'
'send_'
'seem_'
'net_'
'mind_'
'meet_'
'jedes_'
'initiative_'
'ihres_'
'gestellt_'
'gemeinsam_'
'final_'
'equal_'
'enlargement_'
'con_'
'completely_'
'bus_'
'ations_'
'agricultural_'
'actions_'
'Zentrum_'
'Viele_'
'St_'
'O'
'Nur_'
'May_'
'Islam_'
'Hinblick_'
'Hamas_'
'Freiheit_'
' " _'
'übernehmen_'
'zed_'
'ying_'
'works_'
'werde_'
'submitted_'
'study_'
'steps_'
'später_'
'request_'
'reach_'
'programmes_'
'presented_'
'please_'
'partner_'
'p'
'nahe_'
'mentioned_'
'knowledge_'
'jede_'
'increasing_'
'i'
'gesamten_'
'evidence_'
'established_'
'einzige_'
'danken_'
'creation_'
'bevor_'
'bestehen_'
'aware_'
'alternative_'
'Wann_'
'Spiel_'
'Schlusselwortern_'
'Reihe_'
'Prozess_'
'Parteien_'
'Osten_'
'Latin_'
'Handel_'
'George_'
'Gebiet_'
'Funktion_'
'Fortschritte_'
'Ergebnisse_'
'Datei_'
'500_'
'27_'
'web_'
'v'
'stage_'
'shows_'
'setzt_'
'reached_'
'möglicherweise_'
'mail_'
'lines_'
'influence_'
'hohen_'
'guten_'
'glauben_'
'gehören_'
'gar_'
'finance_'
'derzeit_'
'concerning_'
'concern_'
'chinesischen_'
'X'
'Wort_'
'Terrorismus_'
'Organisation_'
'Now_'
'His_'
'Herren_'
'Gesundheit_'
'Gelegenheit_'
'Durch_'
'Daher_'
'CD_'
'Blick_'
'Abkommen_'
'--_'
'äußerst_'
'verwenden_'
'ums_'
'technical_'
'sustainable_'
'speed_'
'solutions_'
'setting_'
'quickly_'
'promote_'
'produce_'
'original_'
'ngen_'
'movement_'
'leader_'
'includes_'
'ideas_'
'falls_'
'external_'
'entire_'
'enthalten_'
'effects_'
'doubt_'
'distribution_'
'd'
'cs_'
'caused_'
'beyond_'
'angesichts_'
'allowed_'
'agreed_'
'UK_'
'Reform_'
'Only_'
'I'
'Here_'
'Erklärung_'
'Debian_'
'Damen_'
'Ausgaben_'
'Anwendung_'
' [_'
'übernachten_'
'öffentliche_'
'zudem_'
'wichtiger_'
'weder_'
'treatment_'
'spielen_'
'restaurants_'
'programs_'
'procedure_'
'perfect_'
'news_'
'massive_'
'leicht_'
'kosten_'
'insgesamt_'
'hoffe_'
'ground_'
'gleich_'
'fragen_'
'fair_'
'erwarten_'
'erster_'
'ermöglicht_'
'erforderlich_'
'entwickelt_'
'enthält_'
'eben_'
'damage_'
'charge_'
'bisher_'
'becoming_'
'attacks_'
'Wettbewerb_'
'Services_'
'Mitglied_'
'Its_'
'Israeli_'
'H_'
'Finally_'
'Familie_'
'Egypt_'
'During_'
'Dabei_'
'zone_'
'versuchen_'
'trotz_'
'ton_'
'threat_'
'team_'
'situated_'
'scientific_'
'sagte_'
'received_'
'options_'
'offered_'
'negative_'
'kleine_'
'jedem_'
'illegal_'
'ier_'
'hinsichtlich_'
'gewährleisten_'
'geworden_'
'getting_'
'function_'
'files_'
'degree_'
'consumer_'
'commercial_'
'challenges_'
'carried_'
'campaign_'
'build_'
'book_'
'aspects_'
'amerikanische_'
'aim_'
'Y_'
'Verwendung_'
'Stelle_'
'S'
'Rights_'
'Minuten_'
'K'
'H'
'Einführung_'
'Bild_'
'Ansatz_'
'70_'
'1791_'
'. _'
'Änderungsantrag_'
'Änderungen_'
'zweite_'
'won_'
'ves_'
'verfügen_'
'ue_'
'toward_'
'ses_'
'safe_'
'ring_'
'richtig_'
'res_'
'produced_'
'path_'
'partners_'
'paid_'
'mehrere_'
'm'
'jene_'
'investors_'
'gives_'
'generation_'
'fest_'
'confidence_'
'cht_'
'choose_'
'chinesische_'
'cher_'
'beide_'
'allows_'
'aktuellen_'
'accommodation_'
'Themen_'
'So'
'Ressourcen_'
'P'
'Natürlich_'
'Mediterranean_'
'March_'
'July_'
'Jahrhundert_'
'Gefahr_'
'Frieden_'
'Fehler_'
'Einsatz_'
'Dialog_'
'DE_'
'Convention_'
'völlig_'
'tic_'
'talk_'
'seines_'
'rten_'
'nimmt_'
'month_'
'material_'
'implemented_'
'ien_'
'hohe_'
'ft_'
'forms_'
'fear_'
'erklären_'
'eigene_'
'critical_'
'contact_'
'challenge_'
'border_'
'bitte_'
'apartment_'
'Zeiten_'
'Vertrag_'
'Unsere_'
'Umwelt_'
'Text_'
'Schließlich_'
'Märkte_'
'Meer_'
'Kraft_'
'Gästebewertungen_'
'Beginn_'
'Ausschusses_'
'Asian_'
'Angesichts_'
'African_'
'28_'
'1781_'
'“, _'
'voted_'
'usually_'
'uses_'
'somit_'
'server_'
'privaten_'
'nations_'
'mobile_'
'matters_'
'leadership_'
'j'
'item_'
'helpful_'
'getan_'
'failed_'
'e'
'dialogue_'
'demokratischen_'
'dadurch_'
'consumers_'
'buy_'
'brought_'
'au_'
'ated_'
'added_'
'Server_'
'Schulden_'
'Regeln_'
'Qualität_'
'Putin_'
'Nutzung_'
'Markt'
'Lissabon_'
'Just_'
'Japanese_'
'Industrie_'
'Gaza_'
'EN_'
'December_'
'Dazu_'
'C'
'Asien_'
'Affairs_'
'? _'
'., _'
'%._'
'“._'
'worked_'
'website_'
'statement_'
'stable_'
'source_'
'sign_'
'scale_'
'saying_'
'officials_'
'ms_'
'minister_'
'links_'
'larger_'
'konnten_'
'join_'
'hinter_'
'größte_'
'großer_'
'giving_'
'gewesen_'
'gefunden_'
'farmers_'
'fallen_'
'efficient_'
'drive_'
'difference_'
'changed_'
'außerhalb_'
'anything_'
'ance_'
'Unter_'
'Unter'
'Today_'
'Opfer_'
'Not_'
'Linux_'
'Let_'
'IMF_'
'Fällen_'
'Forschung_'
'Erweiterung_'
'Afrika_'
': "_'
'4'
'.'
'Änderung_'
'warum_'
'wants_'
'stärker_'
'sed_'
'search_'
'reichen_'
'raise_'
'property_'
'press_'
'players_'
'ones_'
'labor_'
'ism_'
'instruments_'
'ierten_'
'head_'
'folgt_'
'fishing_'
'f'
'easily_'
'distance_'
'discussion_'
'compromise_'
'cities_'
'authority_'
'airport_'
'Zeitpunkt_'
'Westen_'
'Technologien_'
'Raum_'
'Präsidentin_'
'Position_'
'Portugal_'
'Notwendigkeit_'
'Most_'
'Monaten_'
'Kultur_'
'Integration_'
'Greece_'
'Folgen_'
'DVD_'
'Constitution_'
'Beitrag_'
'Ausdruck_'
'Aktivitäten_'
'300_'
' ) _'
'zweiten_'
'wenige_'
'weltweiten_'
'weise_'
'versucht_'
'verbessern_'
'ver_'
'users_'
'ure_'
'trust_'
'supported_'
'students_'
'story_'
'solchen_'
'schwierig_'
'save_'
'rund_'
'reports_'
'relationship_'
'read_'
'quiet_'
'powerful_'
'parking_'
'office_'
'lichkeit_'
'ks_'
'justice_'
'isch_'
'ine_'
'genug_'
'folgen_'
'erneut_'
'ding_'
'construction_'
'borders_'
'base_'
'angenommen_'
'active_'
'achieved_'
'Werte_'
'Web_'
'W'
'Verbesserung_'
'Room_'
'Prozent_'
'Mexico_'
'Many_'
'Ihrem_'
'IT_'
'Herzen_'
'Globalisierung_'
'Frühstück_'
'Flughafen_'
'Energie_'
'Dinge_'
'Center_'
'29_'
'Änderungsanträge_'
' % _'
'zahlreiche_'
'ys_'
'vor'
'union_'
'sufficient_'
'structural_'
'solidarity_'
'sieht_'
'sides_'
'served_'
'schützen_'
'requires_'
'outcome_'
'n'
'morning_'
'legislative_'
'island_'
'improving_'
'haus_'
'gewinnen_'
'genommen_'
'genießen_'
'financing_'
'extra_'
'export_'
'expected_'
'einschließlich_'
'direction_'
'digital_'
'cut_'
'concept_'
'communication_'
'ch'
'begin_'
'applications_'
'allein_'
'Why_'
'Vorteile_'
'Verbraucher_'
'Technologie_'
'Stabilität_'
'Risiken_'
'Rechts'
'Please_'
'Plan_'
'Lisbon_'
'Jahrhunderts_'
'Information_'
'Großbritannien_'
'Furthermore_'
'Einfluss_'
'Dezember_'
'Bildung_'
'Bestimmungen_'
', '
' "..._'
'writing_'
'wanted_'
'stock_'
'ssen_'
'sm_'
'shared_'
'requirements_'
'relativ_'
'regards_'
'reducing_'
'providing_'
'professional_'
'paar_'
'neben_'
'moral_'
'monetary_'
'mission_'
'message_'
'meinem_'
'lt_'
'leave_'
'ja'
'ige_'
'gesamte_'
'extent_'
'everyone_'
'equipment_'
'effectively_'
'durchgeführt_'
'demands_'
'connection_'
'competitive_'
'class_'
'chance_'
'carry_'
'bewusst_'
'b'
'ausgestattet_'
'appear_'
'acht_'
'Wasser_'
'Tagen_'
'Station_'
'Republic_'
'Personal_'
'People_'
'PC_'
'März_'
'Ko'
'John_'
'J'
'Folge_'
'Einige_'
'Bad_'
'Aufmerksamkeit_'
'3'
'. '
'überall_'
'ß_'
'wrong_'
'train_'
'technologies_'
'sts_'
'star_'
'ready_'
'organisation_'
'nachdem_'
'method_'
'ker_'
'kam_'
'infrastructure_'
'helped_'
'heard_'
'geschlossen_'
'expressed_'
'committed_'
'code_'
'circumstances_'
'bringt_'
'beitragen_'
'associated_'
'appears_'
'aimed_'
'Woche_'
'Waffen_'
'Vergangenheit_'
'Tagesordnung_'
'Stunden_'
'Social_'
'She_'
'Privat'
'Preise_'
'Poland_'
'Oktober_'
'Nachfrage_'
'Microsoft_'
'Mai_'
'Ku'
'Herausforderung_'
'Grand_'
'Einkommen_'
'Design_'
'Britain_'
'Bitte_'
'31_'
'“_'
'zahlen_'
'written_'
'unemployment_'
'transparent_'
'suggest_'
'si_'
'schwer_'
'round_'
'rapid_'
'presence_'
'pre_'
'plus_'
'pass_'
'offen_'
'nts_'
'mus_'
'multi_'
'meinen_'
'lang_'
'innen_'
'impossible_'
'immediately_'
'holiday_'
'happen_'
'gt_'
'genannten_'
'g'
'freien_'
'expect_'
'establish_'
'erung_'
'erklärt_'
'eindeutig_'
'durchaus_'
'draw_'
'diejenigen_'
'default_'
'dangerous_'
'child_'
'businesses_'
'bit_'
'banking_'
'apply_'
'[_'
'Zweitens_'
'Veränderungen_'
'Street_'
'Selbst_'
'Prime_'
'Person_'
'Mail_'
'Juni_'
'Italien_'
'Höhe_'
'Human_'
'Financial_'
'Federal_'
'Do_'
'Directive_'
'Conference_'
'Chance_'
'Centre_'
': „_'
': '
'). _'
')'
''' _'
'zumindest_'
'types_'
'treffen_'
'travel_'
'taxes_'
'talks_'
't'
'sectors_'
'saw_'
'respond_'
'relevant_'
'recovery_'
'provisions_'
'procedures_'
'priority_'
'possibility_'
'participation_'
'park_'
'ourselves_'
'objectives_'
'nationale_'
'moderne_'
'met_'
'leider_'
'instrument_'
'immigration_'
'ical_'
'größere_'
'goal_'
'geschehen_'
'friends_'
'followed_'
'fahren_'
'expensive_'
'erwartet_'
'erfolgreich_'
'equipped_'
'elements_'
'disease_'
'deine_'
'conclusion_'
'britischen_'
'aufgenommen_'
'ad_'
'Wettbewerbsfähigkeit_'
'Washington_'
'Vorschriften_'
'Vertreter_'
'Vertrauen_'
'Syria_'
'Site_'
'Sicht_'
'Schritte_'
'Nahen_'
'Management_'
'Küche_'
'Konflikt_'
'Idee_'
'Hoffnung_'
'High_'
'Heute_'
'Guest_'
'Gruppen_'
'Great_'
'Finanzierung_'
'E'
'Development_'
'Co'
'Club_'
'Besuch_'
'Bereiche_'
'Austria_'
'1998_'
'* _'
'® _'
'zentrale_'
'worldwide_'
'word_'
'white_'
'wer_'
'wealth_'
'variety_'
'trying_'
'target_'
'supply_'
'spend_'
'series_'
'seek_'
'screen_'
'school_'
'practical_'
'politicians_'
'pleased_'
'phone_'
'output_'
'operations_'
'networks_'
'modified_'
'minute_'
'merely_'
'map_'
'lung_'
'llen_'
'legen_'
'kurz_'
'k'
'interested_'
'initiatives_'
'hotels_'
'historischen_'
'historical_'
'gesetzt_'
'firms_'
'express_'
'entspricht_'
'documents_'
'denke_'
'deficits_'
'continued_'
'bereich_'
'ber_'
'ating_'
'Zweifel_'
'Umgebung_'
'Tat_'
'Star_'
'Sektor_'
'Secondly_'
'Präsidentschaft_'
'Nicht_'
'Natur_'
'Museum_'
'Me'
'Juli_'
'Instead_'
'Gründen_'
'Geschäfts'
'Fund_'
'Costa_'
'Anzahl_'
'Anti'
'2011_'
'Öl'
'went_'
'walking_'
'votes_'
'vision_'
'unten_'
'treten_'
'trading_'
'tools_'
'territory_'
'tabled_'
'sites_'
'section_'
'relatively_'
'regulations_'
'refer_'
'record_'
'recession_'
'ps_'
'parliamentary_'
'opening_'
'onen_'
'ommen_'
'numerous_'
'nis_'
'neues_'
'neuer_'
'nearly_'
'mein_'
'lle_'
'kannst_'
'ka_'
'joint_'
'ise_'
'insurance_'
'igkeit_'
'id_'
'hin'
'heiten_'
'h'
'gekommen_'
'erzielt_'
'ere_'
'era_'
'encourage_'
'elsewhere_'
'draft_'
'developments_'
'described_'
'decline_'
'corruption_'
'consensus_'
'claim_'
'braucht_'
'behavior_'
'assistance_'
'Warum_'
'Vielfalt_'
'Verordnung_'
'Unabhängigkeit_'
'Tu'
'Transparenz_'
'Spanish_'
'Soviet_'
'Sea_'
'Rooms_'
'Revolution_'
'Punkte_'
'Per'
'Partner_'
'Mitte_'
'Lösungen_'
'Lebens'
'Le'
'Kindern_'
'Jo'
'Is_'
'Health_'
'Google_'
'Forderung_'
'Erstens_'
'Diskussion_'
'Code_'
'Brazil_'
'Both_'
'Auswahl_'
'Auffassung_'
'Amerikaner_'
'Airport_'
'2'
', “_'
'Ä'
'zunächst_'
'z'
'wert_'
'weeks_'
'vital_'
'vermeiden_'
'transfer_'
'thousands_'
'terrorist_'
'ter'
'suchen_'
'structure_'
'sta'
'st'
'specifically_'
'shopping_'
'serve_'
'sent_'
'sechs_'
'says_'
'raised_'
'protected_'
'plant_'
'oben_'
'nt'
'nation_'
'lly_'
'leisten_'
'laws_'
'hour_'
'hoch'
'ho'
'hear_'
'happened_'
'ganze_'
'fördern_'
'floor_'
'fixed_'
'feature_'
'facing_'
'entscheiden_'
'efficiency_'
'dringend_'
'deutschen_'
'ded_'
'darstellt_'
'daily_'
'contribution_'
'comprehensive_'
'bly_'
'benötigen_'
'becomes_'
'attempt_'
'atmosphere_'
'assets_'
'anders_'
'ale_'
'adopt_'
'Therefore_'
'Schwierigkeiten_'
'Restaurants_'
'R'
'Public_'
'Nachdem_'
'Modell_'
'Konferenz_'
'Klimawandel_'
'Inflation_'
'He'
'Greek_'
'Global_'
'Forum_'
'Finanz'
'El_'
'Den_'
'Dar'
'CO2_'
'Berichte_'
'Behandlung_'
'Also_'
'Al_'
'.)_'
'с'
'zusätzliche_'
'wesentlich_'
'voting_'
'vertreten_'
'verbundenen_'
'ultimately_'
'task_'
'stets_'
'staatlichen_'
'separate_'
'representatives_'
'release_'
'relative_'
'reference_'
'productivity_'
'priorities_'
'parliament_'
'nächste_'
'normal_'
'ni_'
'mar'
'maintain_'
'mainly_'
'lösen_'
'linked_'
'licher_'
'lernen_'
'las_'
'largely_'
'industries_'
'har'
'größeren_'
'green_'
'goes_'
'gesehen_'
'gain_'
'freie_'
'finally_'
'entwickelten_'
'egen_'
'easier_'
'dis'
'crucial_'
'core_'
'conference_'
'compared_'
'clients_'
'c'
'bu'
'bottom_'
'bodies_'
'bezüglich_'
'bathroom_'
'applied_'
'ang_'
'analysis_'
'affected_'
'Vielleicht_'
'Versuch_'
'Unterkategorien_'
'Um'
'Such_'
'Spa_'
'Resort_'
'RE'
'Pa'
'October_'
'Nachbarn_'
'Muslim_'
'Maße_'
'Land'
'J_'
'Ireland_'
'Innovation_'
'Free_'
'Falle_'
'En'
'Eindruck_'
'Di'
'Dateien_'
'Benutzer_'
'Because_'
'Barack_'
'Article_'
'Anteil_'
'Amsterdam_'
'35_'
'26_'
'1989_'
'zuletzt_'
'ze'
'wollte_'
'ur'
'unbedingt_'
'um'
'tried_'
'tra'
'tis'
'seeking_'
'religious_'
'relation_'
'regarding_'
'reading_'
'raum_'
'quote_'
'practices_'
'ory_'
'on'
'nder_'
'meines_'
'medium_'
'mass_'
'läuft_'
'ley_'
'letzte_'
'learn_'
'ko'
'inter'
'hält_'
'helping_'
'handeln_'
'halte_'
'games_'
'fordern_'
'europäischer_'
'erhöhen_'
'entsprechende_'
'enter_'
'document_'
'discussed_'
'details_'
'deep_'
'crime_'
'congratulate_'
'comments_'
'color_'
'closely_'
'box_'
'anderem_'
'amendment_'
'Za'
'Währung_'
'Wer_'
'Vereinten_'
'Urlaub_'
'Unfortunately_'
'Systems_'
'Stimme_'
'Status_'
'Sinne_'
'Republik_'
'Ra'
'Produktion_'
'Prodi_'
'Lo'
'Kommissarin_'
'Kolleginnen_'
'Kingdom_'
'Justice_'
'Januar_'
'Inter'
'Instrument_'
'Installation_'
'Haupt'
'Europäer_'
'Erfahrung_'
'England_'
'Economic_'
'Ebenso_'
'ECB_'
'Du'
'Brasilien_'
'Blair_'
'Beschäftigung_'
'Bar'
'Amendment_'
'A5_'
'A'
'+_'
'ür'
'xi'
'worth_'
'vorhanden_'
'verlassen_'
'tool_'
'targets_'
'summer_'
'southern_'
'societies_'
'sh_'
'running_'
'ro_'
'richtige_'
'represents_'
'precisely_'
'planning_'
'permanent_'
'per'
'overall_'
'numbers_'
'ning_'
'ne'
'namely_'
'muß_'
'modernen_'
'mid_'
'mention_'
'medical_'
'log_'
'limit_'
'jüngsten_'
'jener_'
'increases_'
'historic_'
'hands_'
'gleiche_'
'getroffen_'
'frei_'
'film_'
'examples_'
'erte_'
'eit_'
'earlier_'
'der'
'decade_'
'cross_'
'comfort_'
'claims_'
'candidate_'
'buffet_'
'break_'
'books_'
'bestimmten_'
'beste_'
'bessere_'
'außerdem_'
'arms_'
'approved_'
'apartments_'
'anderes_'
'accession_'
']], _'
'Volk_'
'Vereinbarung_'
'Unser_'
'Trotz_'
'Tri'
'Trade_'
'Team_'
'Te'
'Strand_'
'Solidarität_'
'Secretary_'
'Priorität_'
'Policy_'
'Nun_'
'Nice_'
'NEW_'
'Le_'
'Konzept_'
'Herausforderungen_'
'Gegensatz_'
'Dennoch_'
'Bis_'
'Bilder_'
'Arten_'
'Arbeits'
'Arbeitnehmer_'
'Annahme_'
'Al'
'According_'
'9'
'150_'
', "_'
'" (_'
' –, _'
'überzeugt_'
'überhaupt_'
'wählen_'
'warming_'
'verpflichtet_'
'us'
'unless_'
'told_'
'ties_'
'thinking_'
'street_'
'ster_'
'ship_'
'sales_'
'russischen_'
'rural_'
'review_'
'reserves_'
'profitieren_'
'played_'
'pe_'
'pa'
'opened_'
'o'
'neither_'
'länger_'
'losses_'
'ismus_'
'innovative_'
'industrie_'
'implement_'
'ian_'
'himself_'
'gezeigt_'
'ges_'
'gern_'
'genuine_'
'gelangen_'
'fund_'
'fellow_'
'fail_'
'exports_'
'eu'
'erlaubt_'
'erhöht_'
'enen_'
'ein'
'dollars_'
'district_'
'difficulties_'
'derartige_'
'debates_'
'darstellen_'
'contrast_'
'closer_'
'changing_'
'calls_'
'betrachtet_'
'behandelt_'
'begrüße_'
'baren_'
'ahead_'
'absolutely_'
'abge'
'Zentralbank_'
'Vorteil_'
'Vietnam_'
'Video_'
'UNO_'
'Tre'
'Ste'
'Sozial'
'Projekt_'
'Nutzen_'
'Musik_'
'Medien_'
'MA'
'Linie_'
'Ka'
'Infrastruktur_'
'Haushalts'
'Griechenland_'
'Golf_'
'Gesetze_'
'Forschungs'
'Dr_'
'Christian_'
'Chancen_'
'Ben'
'Beitritt_'
'Au'
'Administration_'
'Ad'
'1980_'
'... _'
'ó'
'Über_'
'zurückge'
'ya_'
'westlichen_'
'vorgeschlagen_'
'verloren_'
'unver'
'une_'
'unbe'
'tät_'
'tung_'
'ts'
'truth_'
'tor_'
'tomorrow_'
'summit_'
'spirit_'
'smaller_'
'sal'
'putting_'
'published_'
'prosperity_'
'pre'
'powers_'
'port_'
'phase_'
'paper_'
'otherwise_'
'ort_'
'operation_'
'no'
'ni'
'möglichen_'
'mor'
'models_'
'menu_'
'membership_'
'lu'
'looks_'
'lo_'
'laid_'
'laden_'
'jeweiligen_'
'j_'
'investments_'
'intended_'
'integrated_'
'immediate_'
'highest_'
'hi'
'happy_'
'grounds_'
'gelegen_'
'forced_'
'flexible_'
'fine_'
'exist_'
'except_'
'exactly_'
'erkennen_'
'erfüllen_'
'equally_'
'entsprechenden_'
'entirely_'
'emphasis_'
'else_'
'einiger_'
'ei_'
'duty_'
'download_'
'discuss_'
'dienen_'
'dennoch_'
'defined_'
'criticism_'
'criteria_'
'cover_'
'connected_'
'colleagues_'
'click_'
'camera_'
'bt_'
'bestand_'
'beginnen_'
'animals_'
'akzeptieren_'
'addressed_'
'Verhältnis_'
'USS_'
'Turkish_'
'Thus_'
'Su'
'Sterne_'
'Spieler_'
'Sorge_'
'Second_'
'Royal_'
'Risiko_'
'Rezession_'
'Red_'
'Meine_'
'Leute_'
'Leider_'
'Ja'
'Islamic_'
'Gra'
'Fed_'
'Fahr'
'Erholung_'
'Erfahrungen_'
'Entschließung_'
'Einigung_'
'Do'
'Clinton_'
'Che'
'Bürgern_'
'Bewegung_'
'Arbeitsplätze_'
'Angriff_'
'Angelegenheiten_'
'Amt_'
'AIDS_'
'36_'
'2013_'
'1997_'
'01_'
'.._'
'о'
'är'
'ß'
'zunehmend_'
'www_'
'wodurch_'
'wirtschaftlicher_'
'wind_'
'widely_'
'wi'
'whom_'
'warm_'
'victory_'
'victims_'
'van_'
'useful_'
'unterschiedlichen_'
'trägt_'
'tionen_'
'strengthen_'
'stimmen_'
'sse_'
'sources_'
'ser_'
'scher_'
'reflect_'
'punkt_'
'profit_'
'primary_'
'placed_'
'persönlichen_'
'org_'
'ogen_'
'obvious_'
'ner'
'ned_'
'nahme_'
'morgen_'
'miteinander_'
'meaning_'
'manage_'
'machte_'
'languages_'
'kurzem_'
'introduced_'
'il'
'ierte_'
'granted_'
'goals_'
'geändert_'
'flight_'
'factors_'
'expression_'
'eventually_'
'evening_'
'ene_'
'endlich_'
'elected_'
'eigentlich_'
'do'
'defense_'
'dagegen_'
'contemporary_'
'competitiveness_'
'cken_'
'ci'
'ches_'
'born_'
'bestimmte_'
'berücksichtigt_'
'bare_'
'bald_'
'agriculture_'
'ages_'
'activity_'
'accounts_'
'Zustimmung_'
'Wochen_'
'Wege_'
'Vi'
'Systeme_'
'Square_'
'Sonder'
'Palestinians_'
'Neu'
'Mitgliedschaft_'
'Irland_'
'Investoren_'
'Insel_'
'Hu'
'Gäste_'
'Grenze_'
'Gebäude_'
'Film_'
'Dann_'
'Business_'
'Barroso_'
'Arbeitslosigkeit_'
'Angebot_'
'400_'
'. (_'
' ('
'ı'
'ät_'
'Überwachung_'
'za'
'waste_'
've'
'unseres_'
'u'
'transparency_'
'speaking_'
'sofort_'
'so'
'sierung_'
'saving_'
'revolution_'
'reception_'
'presidential_'
'positions_'
'politisch_'
'ping_'
'pi'
'peaceful_'
'payment_'
'olitik_'
'nes_'
'monitoring_'
'mi'
'managed_'
'listed_'
'li'
'kommenden_'
'kle'
'kennen_'
'keits'
'jährlich_'
'ium_'
'ität_'
'ir_'
'interesting_'
'improved_'
'ians_'
'hilft_'
'gung_'
'got_'
'gold_'
'globalization_'
'gleich'
'geo'
'format_'
'folgenden_'
'ff'
'exclusive_'
'ets_'
'eten_'
'eri'
'ensuring_'
'enormous_'
'ely_'
'divided_'
'determined_'
'cuts_'
'contain_'
'conclude_'
'combination_'
'ck'
'centuries_'
'carbon_'
'britische_'
'boost_'
'benutzt_'
'bear_'
'bars_'
'außer_'
'article_'
'armed_'
'anyone_'
'ans_'
'actual_'
'achten_'
'accepted_'
'abzu'
'Zeit'
'Y'
'Wohlstand_'
'Wirtschaftswachstum_'
'Wasser'
'Volkswirtschaften_'
'To'
'Standpunkt_'
'Standards_'
'Staates_'
'Saddam_'
'Robert_'
'Ro'
'Regime_'
'Regierungs'
'Regel_'
'Reaktion_'
'Polen_'
'Open_'
'Mit'
'Mann_'
'Lu'
'Leistungen_'
'Kompromiss_'
'Jahrzehnten_'
'Israelis_'
'ID_'
'Homepage_'
'Hinsicht_'
'Hause_'
'Erachtens_'
'Des'
'Del'
'Bundes'
'Breakfast_'
'Basis_'
'Ausland_'
'Augen_'
'Anstieg_'
'AR'
'8'
'32_'
'1995_'
'„_'
'а'
'ón_'
'­_'
'zugleich_'
'worse_'
'wing_'
'win_'
'weiterer_'
'weisen_'
'up'
'unto_'
'umgesetzt_'
'traffic_'
'tradition_'
'thanks_'
'television_'
'tel_'
'teilweise_'
'swimming_'
'stated_'
'spread_'
'shift_'
'schneller_'
'schlagen_'
'rt'
'resolve_'
'represent_'
'relating_'
'rd_'
'qua'
'programm_'
'pour_'
'planet_'
'nu'
'mittel_'
'minimum_'
'militärische_'
'middle_'
'mehreren_'
'materials_'
'lies_'
'lessons_'
'langen_'
'lagen_'
'kaufen_'
'ji'
'ite_'
'institutional_'
'gli'
'generally_'
'gar'
'führte_'
'fish_'
'firm_'
'fire_'
'fields_'
'father_'
'families_'
'extensive_'
'expectations_'
'ence_'
'ellen_'
'el'
'dürfte_'
'dir_'
'delegation_'
'decide_'
'dealing_'
'criminal_'
'collective_'
'collapse_'
'charged_'
'cancer_'
'burden_'
'broad_'
'ble'
'ba'
'automatisch_'
'assessment_'
'announced_'
'advantage_'
'advance_'
'Zunächst_'
'Wirtschafts'
'Welt'
'Verhalten_'
'Vergleich_'
'Tra'
'Standard_'
'See_'
'Schulden'
'Sache_'
'Rück'
'Ph'
'Perhaps_'
'Organisationen_'
'Männer_'
'MySQL_'
'Mo'
'Methode_'
'Last_'
'Krankheiten_'
'Klicken_'
'Institute_'
'Initiativen_'
'Informations'
'IP_'
'Home_'
'God_'
'Ger'
'Fähigkeit_'
'Deutsche_'
'Dadurch_'
'Da'
'Best_'
'Ba'
'Aus'
'Another_'
'Alliance_'
'Ab'
'95_'
'30'
'&#_'
'%, _'
' ... _'
' -, _'
'zahlreichen_'
'wirtschaftlich_'
'wider_'
'vulnerable_'
'ven_'
'uni'
'tz_'
'tri'
'treated_'
'traditionellen_'
'ti_'
'tan'
'suffered_'
'south_'
'sort_'
'sitting_'
'sing_'
'signed_'
'sha'
'selected_'
's'
'ries_'
'relate_'
'reduced_'
'rasch_'
'rapidly_'
'pursue_'
'purchase_'
'promoting_'
'pon'
'playing_'
'player_'
'picture_'
'payments_'
'partnership_'
'ons'
'obligations_'
'north_'
'nk'
'ng'
'nce_'
'mit'
'migration_'
'manufacturing_'
'manche_'
'link_'
'limits_'
'ingly_'
'ina'
'ial_'
'hören_'
'hy'
'host_'
'hoffen_'
'großes_'
'gave_'
'französische_'
'fort'
'fe'
'fand_'
'faces_'
'establishing_'
'erfordert_'
'er'
'ep'
'entweder_'
'entsprechend_'
'employees_'
'eight_'
'economics_'
'du'
'directives_'
'differences_'
'da'
'crimes_'
'couple_'
'controls_'
'continues_'
'co'
'character_'
'cars_'
'brings_'
'begrüßen_'
'begann_'
'battle_'
'ban_'
'army_'
'argue_'
'al'
'aktuelle_'
'absolute_'
'Zeitraum_'
'Umständen_'
'U'
'Treffen_'
'Then_'
'Strategien_'
'Rotary_'
'Roman_'
'Reserve_'
'Prioritäten_'
'Pe'
'Partnerschaft_'
'Name_'
'Nachfolgend_'
'Mitteilung_'
'Michael_'
'Landwirtschaft_'
'Justiz_'
'Je'
'Irish_'
'IWF_'
'III_'
'Her'
'Gegenteil_'
'Firmen_'
'Fe'
'Faktoren_'
'Ereignisse_'
'Eastern_'
'EADS_'
'Despite_'
'Denn_'
'Congress_'
'CA'
'Bu'
'Bedrohung_'
'Aspekt_'
'Apartments_'
'Angst_'
'Anerkennung_'
'Agenda_'
'2012_'
''._'
'”._'
'zation_'
'west_'
'weiteres_'
'weg_'
'vollständig_'
'violent_'
'vieler_'
'vergessen_'
'unlikely_'
'unge'
'unable_'
'umfasst_'
'tur'
'truly_'
'tly_'
'teilen_'
'sun_'
'substantial_'
'stands_'
'spielt_'
'sovereign_'
'sold_'
'significantly_'
'schlecht_'
'sanctions_'
'sa_'
'riesigen_'
'restrictions_'
'released_'
'regionalen_'
'regionale_'
'recognition_'
'proper_'
'presidency_'
'perspective_'
'ol'
'offensichtlich_'
'obviously_'
'ns'
'niemals_'
'millions_'
'militärischen_'
'maßnahmen_'
'mark_'
'loss_'
'liberal_'
'l'
'kt_'
'konzentrieren_'
'io_'
'ing'
'improvement_'
'identity_'
'houses_'
'heutigen_'
'governance_'
'gestalten_'
'gegenwärtigen_'
'garden_'
'funktionieren_'
'functions_'
'französischen_'
'ey_'
'extension_'
'ex_'
'euch_'
'establishment_'
'ess_'
'erhält_'
'ell_'
'eiten_'
'ehemaligen_'
'durch'
'detailed_'
'desire_'
'definition_'
'corporate_'
'contrary_'
'constitution_'
'commitments_'
'ce'
'bility_'
'bilden_'
'berg_'
'barkeit_'
'automatically_'
'ar'
'allowing_'
'accordance_'
'ably_'
'Worten_'
'Wohn'
'Wissenschaft_'
'Wein'
'Vo'
'Verbindungen_'
'Taiwan_'
'Stadt'
'Sorgen_'
'Shi'
'Sehr_'
'Sehenswürdigkeiten_'
'Rest_'
'Private_'
'No'
'Neben_'
'NI_'
'Monate_'
'Militär'
'Los_'
'Kyoto_'
'Kunst_'
'James_'
'Israels_'
'Inseln_'
'Hälfte_'
'Hoch'
'Groß'
'Gesundheits'
'Gegen'
'Gefühl_'
'Friedens'
'Frankfurt_'
'Every_'
'Entwicklungsländer_'
'Engagement_'
'Einrichtungen_'
'Einrichtung_'
'Einheit_'
'Ein'
'Ce'
'Ca'
'Brüssel_'
'Bre'
'Board_'
'Beschreibung_'
'Anfrage_'
'Air_'
'Abschluss_'
'48_'
'33_'
'1996_'
' = _'
' /_'
'и'
'á_'
'wrote_'
'window_'
'willing_'
'whatever_'
'wenigen_'
'welches_'
'wars_'
'verstärkt_'
'va'
'usw_'
'understanding_'
'umfassenden_'
'ul_'
'ud'
'thereby_'
'supposed_'
'suffer_'
'stärken_'
'ständig_'
'ste'
'starting_'
'spa'
'sovereignty_'
'soft_'
'skills_'
'sicherzustellen_'
'shower_'
'shops_'
'science_'
'schließen_'
'scheme_'
'savings_'
'runs_'
'root_'
'regulatory_'
'processes_'
'post'
'por_'
'physical_'
'ped_'
'partly_'
'par'
'over'
'ot_'
'organizations_'
'offering_'
'nennen_'
'nationaler_'
'named_'
'nachhaltige_'
'mer_'
'meetings_'
'manner_'
'lten_'
'll'
'langfristige_'
'lag_'
'ka'
'jo'
'ized_'
'intellectual_'
'immigrants_'
'imagine_'
'hit_'
'ha_'
'guidelines_'
'gruppe_'
'grow_'
'gone_'
'ght_'
'gerecht_'
'genannt_'
'gelten_'
'gegenwärtig_'
'fresh_'
'extend_'
'explain_'
'esta'
'erinnern_'
'entry_'
'enti'
'enterprises_'
'email_'
'element_'
'ek'
'einzigen_'
'eingesetzt_'
'ehen_'
'ee_'
'display_'
'discussions_'
'disaster_'
'daten_'
'dank_'
'damals_'
'cutting_'
'ction_'
'crises_'
'considerable_'
'coffee_'
'cast_'
'calling_'
'block_'
'benutzen_'
'belief_'
'armen_'
'ard_'
'arabischen_'
'angezeigt_'
'an'
'Zur_'
'Your_'
'Wissen_'
'Time_'
'Those_'
'Teile_'
'THE_'
'Steuern_'
'Stand_'
'Sta'
'Sicherheits'
'Si'
'See'
'Saudi_'
'Roma_'
'RA'
'Premierminister_'
'Or'
'Online_'
'OS_'
'Like_'
'Kritik_'
'Indian_'
'Hotel'
'Handels'
'Haltung_'
'HIV_'
'Gold_'
'Gesetz_'
'Fort'
'Forderungen_'
'Falls_'
'Du_'
'Chi'
'Can_'
'Bildungs'
'Aussicht_'
'Alternative_'
'21'
'196'
'. – _'
'übertragen_'
'ären_'
'zuvor_'
'za_'
'write_'
'uss_'
'uner'
'ul'
'ub'
'translation_'
'track_'
'the'
'tests_'
'terrace_'
'ten'
'surrounding_'
'supporting_'
'suggests_'
'strategischen_'
'stone_'
'stations_'
'starke_'
'spacious_'
'smoking_'
'sla'
'selbstverständlich_'
'ré'
'ro'
'rischen_'
'resort_'
'reaching_'
'raising_'
'prüfen_'
'prove_'
'promotion_'
'pro'
'prime_'
'phrase_'
'photo_'
'parliaments_'
'ought_'
'operating_'
'methods_'
'mat'
'lokalen_'
'len'
'land'
'labour_'
'ki'
'keiten_'
'keeping_'
'jährigen_'
'jenen_'
'je'
'israelischen_'
'ionen_'
'introduce_'
'innovation_'
'individuals_'
'independence_'
'impose_'
'id'
'holding_'
'guarantees_'
'grundlegende_'
'greatest_'
'gestimmt_'
'geschützt_'
'ged_'
'fuel_'
'fisheries_'
'figure_'
'estate_'
'erfolgen_'
'entstehen_'
'eln_'
'elegant_'
'dynamic_'
'dy_'
'drugs_'
'denken_'
'database_'
'danger_'
'covered_'
'courses_'
'cor'
'controlled_'
'continuing_'
'continent_'
'constitutional_'
'combat_'
'cher'
'cheap_'
'chaft_'
'cards_'
'buildings_'
'bon'
'biggest_'
'bestimmt_'
'beschlossen_'
'beds_'
'aufzu'
'au'
'attractive_'
'anzu'
'andererseits_'
'allgemeinen_'
'agency_'
'agencies_'
'agen_'
']] [[_'
'Würde_'
'War'
'Wahl'
'Vor'
'Unterschiede_'
'Tod_'
'Their_'
'Stärkung_'
'Straße_'
'Stimmen_'
'Staats'
'Sonnen'
'Sha'
'Serbia_'
'Se'
'Richtlinien_'
'Pre'
'Post'
'Pi'
'Paul_'
'Os'
'Old_'
'Not'
'Niveau_'
'Muslims_'
'Mubarak_'
'Macht'
'MO'
'Live_'
'Leistung_'
'Las_'
'Kredite_'
'Kredit'
'Klein'
'Kan'
'Ist_'
'Hauptstadt_'
'Gre'
'Good_'
'Gleichzeitig_'
'Gesellschaften_'
'Gesamt'
'Generation_'
'February_'
'Democrats_'
'DI'
'Computer_'
'Click_'
'Bra'
'Ball'
'Aufgaben_'
'Atmosphäre_'
'Aspekte_'
'Anspruch_'
'An'
'64_'
'192'
'15'
'14'
'1'
'', _'
' — _'
'—_'
'überprüfen_'
'è'
'ä'
'ßen_'
'zing_'
'yourself_'
'widespread_'
'welcher_'
'wages_'
'voice_'
'vo'
'verlieren_'
'urban_'
'täglich_'
'troops_'
'tro'
'trend_'
'treaty_'
'tourist_'
'tive_'
'theory_'
'th'
'supports_'
'struggle_'
'stress_'
'strategies_'
'standing_'
'spent_'
'species_'
'slow_'
'signs_'
'siehe_'
'seven_'
'settlement_'
'seriously_'
'seitens_'
'rä'
'roughly_'
'reservation_'
'reasonable_'
'race_'
'quarter_'
'profits_'
'prevention_'
'pp'
'politisches_'
'platz_'
'pictures_'
'patients_'
'para_'
'organisations_'
'ordinary_'
'oral_'
'niemand_'
'musste_'
'moved_'
'maximum_'
'machine_'
'luxury_'
'loans_'
'ln_'
'lit'
'letztlich_'
'leads_'
'la'
'kon'
'komplett_'
'ki_'
'keinerlei_'
'ju'
'ish_'
'introduction_'
'internationaler_'
'installation_'
'initial_'
'implementing_'
'images_'
'hu'
'hauptsächlich_'
'guter_'
'go'
'gemäß_'
'gap_'
'funktioniert_'
'fo'
'flows_'
'finanziellen_'
'finanzielle_'
'figures_'
'feststellen_'
'fen'
'felt_'
'factor_'
'extreme_'
'expenditure_'
'exists_'
'excessive_'
'estimated_'
'entered_'
'engineering_'
'emergency_'
'dritten_'
'died_'
'deutsche_'
'delay_'
'del'
'defend_'
'defence_'
'cuisine_'
'cre'
'court_'
'contract_'
'completed_'
'compatible_'
'beziehen_'
'betrachten_'
'berücksichtigen_'
'benötigt_'
'bedarf_'
'bath_'
'bar'
'balanced_'
'alte_'
'ai'
'affairs_'
'administrative_'
'addressing_'
'Ze'
'Yu'
'Within_'
'West'
'Wegen_'
'Waren_'
'Voraussetzungen_'
'Very_'
'Verwaltungs'
'Ur'
'Umwelt'
'Tradition_'
'Süd'
'Steuer'
'She'
'Sen'
'Seine_'
'Sarkozy_'
'Rezeption_'
'Regulation_'
'Realität_'
'Produktions'
'Produkt'
'Pro_'
'Patienten_'
'PT_'
'PHP_'
'Other_'
'Norden_'
'Netherlands_'
'Ne'
'Na'
'Monat_'
'Mindest'
'Mel'
'Mal'
'Located_'
'Liberalisierung_'
'La'
'LE'
'Kind_'
'Identität_'
'IS'
'IC'
'Han'
'HA'
'Gipfel_'
'Gi'
'Gerechtigkeit_'
'Führungs'
'Familien_'
'Emissionen_'
'Definition_'
'Daten'
'Dan'
'Charakter_'
'Beispiele_'
'Bau'
'Auto'
'Aufgrund_'
'Armee_'
'Anstrengungen_'
'Altstadt_'
'Agreement_'
'Abend_'
'800_'
'80'
'1991_'
'13'
'0'
'ée_'
'é'
'Öl_'
'zufolge_'
'zeit'
'worst_'
'wine_'
'wichtigste_'
'warten_'
'verfolgen_'
'verantwortlich_'
'unabhängig_'
'una'
'ufen_'
'tte_'
'touch_'
'tief_'
'talking_'
'stronger_'
'steigen_'
'staatliche_'
'square_'
'spricht_'
'sports_'
'solcher_'
'ski_'
'signal_'
'sieben_'
'shape_'
'severe_'
'session_'
'selection_'
'seien_'
'season_'
'scope_'
'schools_'
'sbe'
'richten_'
'returns_'
'resulting_'
'representative_'
'removed_'
'remember_'
'relax_'
'reicht_'
'r'
'pit'
'piece_'
'photos_'
'persons_'
'participate_'
'parallel_'
'owing_'
'ou_'
'oni'
'older_'
'ok_'
'mutual_'
'mode_'
'lovely_'
'lin_'
'legt_'
'legitimate_'
'learning_'
'le'
'launch_'
'latter_'
'konkrete_'
'kitchen_'
'ker'
'jüngste_'
'isierung_'
'ip'
'ill_'
'ier'
'identified_'
'icht_'
'housing_'
'honourable_'
'hl_'
'heraus_'
'her'
'größer_'
'groß_'
'gezwungen_'
'gesprochen_'
'gel'
'frage_'
'faster_'
'falsch_'
'eye_'
'experts_'
'expense_'
'ethnic_'
'entschieden_'
'ema'
'elle_'
'einsetzen_'
'driving_'
'door_'
'device_'
'detail_'
'depend_'
'declaration_'
'currencies_'
'consultation_'
'consideration_'
'conflicts_'
'concrete_'
'colleague_'
'chi'
'carefully_'
'candidates_'
'bonds_'
'beigetragen_'
'auszu'
'at'
'assume_'
'as'
'arrival_'
'argument_'
'animal_'
'allgemeine_'
'aktiv_'
'ad'
'absence_'
'Zi'
'Win'
'Weltwirtschaft_'
'Völker_'
'Verwaltung_'
'Verpflichtung_'
'Verb'
'Untersuchung_'
'Unterschied_'
'Un'
'UN'
'Tor'
'Thank_'
'TA'
'Städte_'
'Sprache_'
'Sinn_'
'San'
'SA'
'Regelung_'
'Rechtsvorschriften_'
'Rechts_'
'RI'
'Prozesses_'
'Protokoll_'
'Projekte_'
'Prinzip_'
'Pact_'
'Over_'
'Option_'
'Opposition_'
'Op'
'Mitteln_'
'Men'
'Media_'
'Ma'
'Leit'
'Kur'
'Kra'
'Kombination_'
'Klima_'
'Kapital_'
'Ju'
'Jeder_'
'Island_'
'Inhalt_'
'Haushalt_'
'Har'
'Gründe_'
'Given_'
'Geschäfte_'
'Gemeinschafts'
'Foundation_'
'Fortschritt_'
'Foreign_'
'Flug'
'Fi'
'Februar_'
'Export'
'Euro'
'Erde_'
'Entwicklungs'
'Einwohner_'
'Dra'
'Budget_'
'Bon'
'Bio'
'Binnenmarkt_'
'Bau_'
'Bahn_'
'BMW_'
'BA'
'Außen'
'Aufenthalt_'
'Any_'
'Alt'
'Absicht_'
'25'
'191'
'190'
'11'
' -- _'
'übrigen_'
'ö'
'ände_'
'Über'
'zählen_'
'zimmer_'
'yesterday_'
'welfare_'
'village_'
'veröffentlicht_'
'verfolgt_'
'verbessert_'
'vehicles_'
'vast_'
'ures_'
'unit_'
'ungs'
'une'
'unacceptable_'
'un'
'umfassende_'
'ual_'
'turned_'
'tu'
'tru'
'trillion_'
'tre'
'traditionelle_'
'to'
'threats_'
'temporary_'
'telephone_'
'technischen_'
'sti'
'stattfinden_'
'sprach_'
'sonst_'
'sit'
'sh'
'sets_'
'sensitive_'
'responsibilities_'
'rer_'
'ren'
'remove_'
'regardless_'
'recognize_'
'recognise_'
'radical_'
'prospects_'
'prospect_'
'producing_'
'praktisch_'
'po'
'origin_'
'ordnung_'
'ongoing_'
'nte_'
'newly_'
'müssten_'
'min_'
'meter_'
'menschliche_'
'mechanism_'
'measure_'
'me'
'maintained_'
'mag_'
'linie_'
'lau'
'issued_'
'inzwischen_'
'involve_'
'intensive_'
'improvements_'
'if'
'ice_'
'höher_'
'hundreds_'
'hostels_'
'hoher_'
'historische_'
'helps_'
'hardly_'
'ha'
'guaranteed_'
'gewährleistet_'
'gewählt_'
'gerne_'
'garantiert_'
'führenden_'
'fällt_'
'früher_'
'forget_'
'flexibility_'
'fit_'
'fighting_'
'ff_'
'fe_'
'eyes_'
'extended_'
'ete_'
'et'
'erzielen_'
'ergreifen_'
'erforderlichen_'
'enormen_'
'endorse_'
'electoral_'
'einfache_'
'einander_'
'dé'
'dro'
'doesn_'
'dly_'
'diversity_'
'diseases_'
'dinner_'
'dig'
'destruction_'
'den'
'deeply_'
'danach_'
'counter_'
'contributions_'
'contribute_'
'conducted_'
'communities_'
'combating_'
'choices_'
'charges_'
'budgetary_'
'bildet_'
'bezeichnet_'
'besuchen_'
'bestimmen_'
'besondere_'
'beachten_'
'beaches_'
'außerordentlich_'
'ausschließlich_'
'ausgesetzt_'
'ausdrücklich_'
'asking_'
'arbeit_'
'angeht_'
'alle'
'affect_'
'[[_'
'Without_'
'Wa'
'Vision_'
'Verbrechen_'
'Venezuela_'
'Unternehmens'
'Under_'
'Transport_'
'Termin'
'Stil_'
'Sprach'
'Sport_'
'Spar'
'Sommer_'
'Skype_'
'Sat'
'Santa_'
'Safety_'
'SQL_'
'Russlands_'
'Rome_'
'Regelungen_'
'Reform'
'Re'
'Q_'
'Pro'
'Par'
'OR_'
'Nor_'
'Noch_'
'NE'
'Miss'
'Mangel_'
'Man'
'Madrid_'
'Kultur'
'Kontroll'
'Kontakt_'
'Kenntnis_'
'Hussein_'
'Hintergrund_'
'Hel'
'Handels_'
'Grunde_'
'Grad_'
'Gemeinsamen_'
'Gebieten_'
'Geb'
'Führer_'
'Funktionen_'
'Foto_'
'Find_'
'FR_'
'Executive_'
'Ent'
'EC_'
'Does_'
'De_'
'De'
'CO'
'Bus'
'Bor'
'Beschäftigungs'
'Berichts_'
'Berichterstatterin_'
'Beide_'
'Beach_'
'Bank'
'Atom'
'Argentina_'
'Anwendungen_'
'Antrag_'
'Anforderungen_'
'Allgemeinen_'
'AG_'
'; '
'39_'
'34_'
'20'
'16'
'."_'
', „_'
'äu'
'zusätzlichen_'
'ye'
'ya'
'wesentlichen_'
'weak_'
'wall_'
'wage_'
'vous_'
'verändert_'
'verlangen_'
'verfahren_'
'ver'
'uti'
'urgent_'
'unternommen_'
'universal_'
'ungefähr_'
'trotzdem_'
'trifft_'
'tor'
'technological_'
'te'
'tasks_'
'tag_'
'sun'
'sugar_'
'succeed_'
'substances_'
'stu'
'statements_'
'starken_'
'ships_'
'senken_'
'sell_'
'select_'
'sektor_'
'se'
'scientists_'
'sale_'
'sagt_'
'roads_'
'rin'
'ria'
'rental_'
'remained_'
'rei'
'regimes_'
'red'
'recommend_'
'radio_'
'que'
'purposes_'
'promises_'
'print_'
'precise_'
'pick_'
'phenomenon_'
'perfectly_'
'ov_'
'offiziellen_'
'nten_'
'ndi'
'möglichkeiten_'
'mussten_'
'mu'
'mountain_'
'mis'
'minority_'
'ministers_'
'ming_'
'mindestens_'
'memory_'
'ma'
'lte_'
'lig'
'laufen_'
'kürzlich_'
'kurze_'
'king_'
'ken'
'joined_'
'it'
'ischer_'
'is'
'intervention_'
'instance_'
'impressive_'
'ien'
'höhere_'
'höchsten_'
'höchste_'
'hundred_'
'ht'
'hol'
'hinweisen_'
'heißen_'
'happens_'
'gutes_'
'golf_'
'ge'
'führende_'
'frequently_'
'founded_'
'fordert_'
'for'
'fla'
'fin'
'favor_'
'expand_'
'est'
'erten_'
'ern'
'erk'
'ering_'
'erfahren_'
'equivalent_'
'entlang_'
'entitled_'
'enten_'
'ended_'
'emphasise_'
'ele'
'ek_'
'effectiveness_'
'ear'
'down'
'don'
'diskutieren_'
'discovered_'
'di'
'demokratische_'
'deb'
'cycle_'
'confirmed_'
'concluded_'
'con'
'category_'
'ca'
'bringing_'
'bound_'
'blood_'
'bestätigen_'
'ber'
'believed_'
'beinahe_'
'bei'
'behaupten_'
'background_'
'back'
'auto'
'ati'
'asset_'
'arrangements_'
'anti'
'ank'
'ama'
'alliance_'
'ach_'
'acceptable_'
'Zusammen'
'Ziel'
'Zahlen_'
'Yes_'
'Widerstand_'
'Villa_'
'Verbot_'
'Trek_'
'Tour_'
'Times_'
'Ta'
'Suche_'
'Studie_'
'Stability_'
'Sport'
'Spiele_'
'Sohn_'
'Sin'
'Schlüssel'
'Sam'
'Sa'
'SS_'
'Report_'
'Que'
'Problems_'
'Pläne_'
'Pin'
'Pan'
'Optionen_'
'Once_'
'Ol'
'Nevertheless_'
'Musik'
'Mon'
'Mi'
'Mexiko_'
'Merkel_'
'Mar'
'MI'
'Lin'
'Küsten'
'Kinder'
'Kim_'
'Kern'
'Ke'
'Katastrophe_'
'Karte_'
'Internationale_'
'Hostel_'
'Ho'
'Grundrechte_'
'Grenz'
'Geschäftsordnung_'
'Gerichtshof_'
'Gegner_'
'Fu'
'Formen_'
'Fax_'
'Fach'
'Express_'
'Einklang_'
'Ed'
'Each_'
'ES'
'Durchführung_'
'Download_'
'Depression_'
'Czech_'
'Copenhagen_'
'Charta_'
'CH'
'Burma_'
'Botschaft_'
'Book_'
'Bi'
'Bestandteil_'
'Beim_'
'Begriff_'
'Be'
'Balkan_'
'BO'
'As'
'Aktien'
'Agrar'
'Agency_'
'@_'
'75_'
'1992_'
'1990er_'
'™ _'
'”, _'
'“'
'л'
'és_'
'ätzen_'
'á'
'Übereinstimmung_'
'zentralen_'
'wünschen_'
'work'
'wonach_'
'wiederum_'
'welt'
'weiter'
'we'
'w'
'voters_'
'vors'
'ving_'
'verst'
'verdient_'
'ut'
'unmöglich_'
'umzusetzen_'
'ug'
'tten_'
'tt_'
'transition_'
'tar'
'systeme_'
'surplus_'
'sur_'
'super_'
'sum_'
'suffering_'
'structures_'
'stra'
'stellte_'
'spoke_'
'spiel'
'someone_'
'sofern_'
'sen'
'seemed_'
'seeks_'
'schönen_'
'schwierigen_'
'schreiben_'
'scheinen_'
'saved_'
'sage_'
'rte'
'rk'
'ri_'
'resolved_'
'reported_'
'replaced_'
'remaining_'
'relaxing_'
'registered_'
'reduzieren_'
'rechten_'
'provision_'
'protecting_'
'producers_'
'primarily_'
'poorest_'
'pen'
'pattern_'
'passed_'
'outdoor_'
'out'
'opposite_'
'onto_'
'neu'
'nearby_'
'nder'
'nd'
'myself_'
'mut'
'moving_'
'ml'
'mini'
'mea'
'manchmal_'
'lived_'
'liches_'
'li_'
'lesen_'
'les'
'ler'
'leisure_'
'leistungen_'
'learned_'
'kämpfen_'
'kulturellen_'
'krise_'
'kri'
'ko_'
'knows_'
'killed_'
'kept_'
'informed_'
'in'
'ian'
'ia'
'humanitarian_'
'gs'
'gla'
'gi'
'gewissen_'
'gewisse_'
'gender_'
'genauso_'
'gen'
'geleistet_'
'gele'
'gegründet_'
'gefallen_'
'ga_'
'ga'
'frühen_'
'fri'
'formal_'
'flow_'
'federal_'
'fantastic_'
'familiar_'
'faith_'
'expansion_'
'existence_'
'exercise_'
'excess_'
'erg'
'enk'
'electricity_'
'een_'
'drug_'
'drop_'
'destroyed_'
'deliver_'
'darunter_'
'dar'
'ct_'
'credible_'
'confirm_'
'condition_'
'command_'
'combined_'
'cit'
'car'
'button_'
'bre'
'bra'
'booking_'
'bitten_'
'bildung_'
'bezahlen_'
'betroffen_'
'bestehenden_'
'besitzt_'
'austerity_'
'ausländische_'
'ausge'
'attitude_'
'arbeitet_'
'appreciate_'
'apart_'
'ange'
'ana_'
'alt_'
'akzeptiert_'
'ai_'
'achieving_'
'accessible_'
'absch'
'abgeschlossen_'
'\\_'
'Zeitung_'
'Zeichen_'
'Z_'
'Währungsunion_'
'Währungs'
'Wähler_'
'Worte_'
'Wo'
'Wirkung_'
'Wird_'
'Weltbank_'
'Wall_'
'WI'
'Var'
'Umfeld_'
'Texte_'
'Teil'
'Tau'
'Süden_'
'Swedish_'
'Stein'
'Standard'
'Spitze_'
'Son'
'Schäden_'
'Sand'
'SI'
'Reise'
'Reagan_'
'Q'
'Pri'
'Preis'
'Po'
'Phase_'
'Palästinenser_'
'Ost'
'Ordnung_'
'Ohne_'
'Oder_'
'Nutzer_'
'Non_'
'Nach'
'NA'
'Moscow_'
'Mitgliedern_'
'Mess'
'Menge_'
'Mas'
'Mac'
'Labour_'
'LI'
'Kriterien_'
'Krisen'
'Kriegs'
'Kooperation_'
'Konvent_'
'Konsens_'
'Kommunikation_'
'Kandidaten_'
'Jetzt_'
'Iranian_'
'Internationalen_'
'IT'
'Hong_'
'Haushalte_'
'Hand'
'Green_'
'Gesch'
'Gericht_'
'Gefahren_'
'GE'
'Front_'
'Familien'
'Experten_'
'Erhöhung_'
'Environment_'
'Enjoy_'
'Ei'
'Earth_'
'EZB_'
'ER'
'Drittens_'
'Diskussionen_'
'Dimension_'
'Cu'
'Cor'
'Bur'
'Buch_'
'Beziehung_'
'Beweis_'
'Beihilfen_'
'Bea'
'Bay_'
'Bas'
'Bal'
'BI'
'Außenpolitik_'
'Austrian_'
'Aufnahme_'
'Aufbau_'
'Atlantic_'
'Anpassung_'
'Am'
'Aktionen_'
'Airbus_'
'AC'
'AB'
': “_'
'44_'
'37_'
'1970_'
'188'
'10'
'05_'
'," _'
') '
' ,,_'
'т'
'üsse_'
'öl'
'äre_'
'ähnliche_'
'Ägypten_'
'zählt_'
'zwei'
'zusammenge'
'zentrum_'
'willkommen_'
'welchem_'
'wei'
'wand'
'wait_'
'wagen_'
'wa'
'vorschlagen_'
'vorgeschlagenen_'
'vorgelegt_'
'verringern_'
'verk'
'urs_'
'unity_'
'una_'
'typical_'
'twenty_'
'tut_'
'technische_'
'tar_'
'sur'
'suite_'
'su_'
'su'
'studies_'
'strike_'
'sto'
'ster'
'stand'
'spa_'
'sought_'
'solange_'
'sized_'
'sicherlich_'
'sel'
'secret_'
'schriftlich_'
'rf'
'retten_'
'resource_'
'represented_'
'rely_'
'reliable_'
'rejected_'
'referred_'
'records_'
'recognized_'
'reagieren_'
'rd'
'rch'
'quick_'
'proved_'
'pri'
'possibly_'
'politically_'
'policymakers_'
'pleasure_'
'parents_'
'paragraph_'
'pace_'
'ose_'
'ori'
'organized_'
'organization_'
'operate_'
'occasions_'
'oa'
'nn_'
'nie'
'nf'
'ndo_'
'names_'
'mögliche_'
'multi'
'movements_'
'motor'
'mostly_'
'monitor_'
'mm_'
'metro_'
'metres_'
'meist_'
'mechanisms_'
'meant_'
'markt_'
'markt'
'ls'
'lp'
'love_'
'looked_'
'lokale_'
'lla'
'leaves_'
'launched_'
'langsam_'
'ky_'
'kraft_'
'kinds_'
'keiner_'
'ke'
'items_'
'ists_'
'institution_'
'install_'
'inside_'
'ingen_'
'informiert_'
'ina_'
'imports_'
'ign'
'ig'
'ichen_'
'hot_'
'hostel_'
'hilfe_'
'guide_'
'grundlegenden_'
'gre'
'gained_'
'furniture_'
'früheren_'
'frei'
'formed_'
'fewer_'
'fer_'
'fehlt_'
'faced_'
'experienced_'
'erstellt_'
'erinnert_'
'erfolgt_'
'erfolgreichen_'
'equality_'
'ent'
'en'
'ell'
'einzusetzen_'
'eingehen_'
'eingeführt_'
'eb'
'drawn_'
'disputes_'
'dishes_'
'discover_'
'disco'
'didn_'
'determine_'
'derart_'
'de'
'cru'
'credibility_'
'costly_'
'correct_'
'coordination_'
'convenient_'
'communications_'
'commit_'
'comment_'
'club_'
'client_'
'cing_'
'church_'
'cho'
'cat'
'cash_'
'cas'
'careful_'
'broader_'
'briefly_'
'bri'
'blocks_'
'bilateral_'
'besseren_'
'beschränkt_'
'bemüht_'
'behalten_'
'begun_'
'bedroom_'
'ausreichend_'
'aufzunehmen_'
'aufnehmen_'
'ative_'
'asylum_'
'aside_'
'art'
'ari'
'arguments_'
'appointed_'
'ani'
'angeboten_'
'ambitious_'
'ali'
'aims_'
'afrikanischen_'
'ae'
'advantages_'
'adjustment_'
'achen_'
']]_'
'Wirklichkeit_'
'Wi'
'Who_'
'Werk_'
'Web'
'Wandel_'
'Vom_'
'Verteidigung_'
'Verf'
'VO'
'Universität_'
'Umfang_'
'Tibet_'
'Teilnahme_'
'Tal'
'Tages_'
'TNG_'
'Sweden_'
'Summit_'
'Straf'
'Stellen_'
'Stadtzentrum_'
'Sprachen_'
'Spiel'
'Speicher'
'Sieg_'
'Selbstverständlich_'
'Schluss_'
'Schi'
'Schau'
'Sanktionen_'
'Reise_'
'Regulierung_'
'Ratspräsidentschaft_'
'Prüfung_'
'Problemen_'
'Polizei_'
'Player_'
'Paket_'
'PS'
'Natur'
'NT'
'NI'
'Mittelmeer_'
'Mitarbeiter_'
'Meiner_'
'Mat'
'Massen'
'MP'
'Location_'
'Lebens_'
'Lateinamerika_'
'Korean_'
'Kong_'
'Klimaanlage_'
'Kirk_'
'King_'
'Kar'
'JavaScript_'
'Jahres'
'Iraqi_'
'Investitions'
'In'
'Hinweis_'
'Having_'
'Handeln_'
'Hamburg_'
'Gu'
'Großen_'
'Glaubwürdigkeit_'
'Geld'
'Gast'
'Garten_'
'Fähigkeiten_'
'Fun'
'Foto'
'Facilities_'
'Erwartungen_'
'Einwanderung_'
'Einstellung_'
'Doha_'
'DA'
'Control_'
'Common_'
'Cold_'
'Bä'
'Bus_'
'Bri'
'Bol'
'Ban'
'Bade'
'Association_'
'Armen_'
'Ar'
'Apartment_'
'Abschließend_'
'Abgeordnete_'
'49_'
'42_'
'1993_'
'06_'
'...'
'"'
' €_'
' > _'
'р'
'č_'
'ör'
'í'
'zweifellos_'
'zusätzlich_'
'zugunsten_'
'zuges'
'ystem_'
'wesentliche_'
'werk_'
'weist_'
'weather_'
'wave_'
'vorgesehen_'
'vorge'
'vin'
'verwende_'
'verfügbar_'
'va_'
'ute'
'urge_'
'unfortunately_'
'understood_'
'unden_'
'und'
'uer'
'tungen_'
'tter'
'trip_'
'tr'
'title_'
'tische_'
'tisch_'
'teile_'
'sustain_'
'suggested_'
'subsidies_'
'stimulus_'
'stimmt_'
'stance_'
'ss'
'spring_'
'sport_'
'sp'
'solely_'
'soil_'
'sobald_'
'sion_'
'sin'
'sight_'
'serves_'
'ser'
'senior_'
'selten_'
'sa'
'rück'
'rü'
'rte_'
'rs'
'rin_'
'rh'
'rg'
'returned_'
'refugees_'
'ree'
'rechte_'
'rea'
'rat_'
'rare_'
'ram'
'puts_'
'pti'
'proposing_'
'propose_'
'properly_'
'processing_'
'prefer_'
'pol'
'platform_'
'ph'
'periods_'
'perform_'
'percentage_'
'peoples_'
'patent_'
'passiert_'
'packages_'
'ow_'
'ously_'
'oren_'
'omi'
'oi'
'offizielle_'
'occur_'
'occupation_'
'obtain_'
'nti'
'notice_'
'noted_'
'not'
'normalerweise_'
'möglichst_'
'museums_'
'motion_'
'momentan_'
'mes_'
'menschlichen_'
'medi'
'luxurious_'
'lle'
'listen_'
'lis'
'lesson_'
'lending_'
'legitimacy_'
'leg'
'leaving_'
'ld'
'laut_'
'lasting_'
'lage_'
'kostenlos_'
'kar'
'journalists_'
'ization_'
'itte'
'iten_'
'ite'
'ist'
'involving_'
'ik_'
'igung_'
'igt_'
'http_'
'hrt_'
'hn_'
'highlight_'
'head'
'he'
'halt_'
'gewa'
'gets_'
'gestärkt_'
'genutzt_'
'gelegt_'
'gehalten_'
'fun_'
'freue_'
'fre'
'finding_'
'ez_'
'extra'
'explanation_'
'eta'
'ese'
'erscheint_'
'erleben_'
'erlauben_'
'erklärte_'
'ergriffen_'
'erei'
'era'
'entscheidende_'
'enables_'
'eli'
'electronic_'
'eite_'
'einerseits_'
'economists_'
'echte_'
'drink_'
'dominant_'
'discrimination_'
'disc'
'dining_'
'devices_'
'derzeitigen_'
'demanding_'
'deaths_'
'dal'
'crew_'
'cra'
'convinced_'
'contracts_'
'communist_'
'com'
'cks_'
'civilian_'
'citizen_'
'chten_'
'chen'
'cer'
'causes_'
'browser_'
'boom_'
'bewegen_'
'betreffen_'
'besch'
'beruht_'
'ben'
'beige'
'begonnen_'
'beg'
'bee'
'bas'
'ball_'
'bal'
'außen_'
'auf'
'attempts_'
'att'
'association_'
'ard'
'approximately_'
'approaches_'
'applies_'
'anderswo_'
'anbieten_'
'allies_'
'aircraft_'
'ag_'
'adoption_'
'ade_'
'abhängig_'
'abgesch'
'abe_'
'a'
'Zweck_'
'Ziffer_'
'Zentral'
'YORK_'
'Will_'
'Wettbewerbs'
'Wesentlichen_'
'Wachstums'
'WLAN_'
'Vorstellung_'
'Vienna_'
'Vielzahl_'
'Verz'
'Verhandlungs'
'USD_'
'Two_'
'Trotzdem_'
'Trans'
'Tiere_'
'TE'
'System'
'Strukturen_'
'Stattdessen_'
'Start_'
'Sitzung_'
'Sea'
'Schul'
'Schaden_'
'Ri'
'Research_'
'Ratschlag_'
'Pu'
'Praxis_'
'Polish_'
'Plaza_'
'Partei'
'Paper_'
'Open'
'Nicht'
'Ni'
'Nein_'
'Nacht_'
'Munich_'
'Moment_'
'Mittelpunkt_'
'Mitgliedsstaaten_'
'Mer'
'Menschenrechts'
'Mari'
'Manager_'
'Liefer'
'Laufe_'
'Lassen_'
'Lang'
'Körper_'
'Königreich_'
'Kunst'
'Kräfte_'
'Ki'
'Java_'
'IF'
'Hy'
'Hill_'
'Herstellung_'
'Haus'
'Gua'
'Gründung_'
'Größe_'
'Grund'
'Go'
'GmbH_'
'Gedanken_'
'For'
'Firstly_'
'Finanzkrise_'
'Fer'
'Er'
'Entwicklungen_'
'End'
'Ele'
'Einzel'
'Eigen'
'ES_'
'Dor'
'Democratic_'
'Dem_'
'Cre'
'Company_'
'Com'
'Check_'
'Charles_'
'CF'
'Bürger'
'Bo'
'Betriebs'
'Beitritts'
'Before_'
'Bedenken_'
'Ausnahme_'
'Argentinien_'
'Are_'
'Angelegenheit_'
'Ag'
'AN'
'AM'
'> _'
'://_'
'98_'
'52_'
'26'
'186'
'09_'
'03_'
'/'
'.“ _'
'.&#_'
','
') - _'
'!'
' € _'
'д'
'übernommen_'
'ü'
'ön'
'ía_'
'Überdies_'
'Ökonomen_'
'zuständig_'
'zurück'
'zuerst_'
'zi'
'zer'
'ye_'
'ws_'
'wood_'
'wonderful_'
'wonder_'
'wissenschaftlichen_'
'wishes_'
'wireless_'
'wesen_'
'welt_'
'wahren_'
'wahr'
'wachsenden_'
'vorzu'
'vorgesehenen_'
'vis'
'versch'
'verleihen_'
'verlangt_'
'verh'
'use'
'update_'
'unwi'
'unt'
'unmittelbar_'
'university_'
'undi'
'under'
'unc'
'umwelt'
'uge'
'uf_'
'tzen_'
'typically_'
'turning_'
'trial_'
'treat_'
'trea'
'transfers_'
'totally_'
'topic_'
'tit'
'ther_'
'tested_'
'taxpayers_'
'ta'
'surrounded_'
'submit_'
'sub'
'strongly_'
'strength_'
'stic_'
'ssi'
'son'
'somewhat_'
'situations_'
'sam'
'russische_'
'ru'
'rib'
'rest'
'residential_'
'remote_'
'remind_'
'rede'
'rechts_'
'rechts'
're'
'railway_'
'ra'
'push_'
'punkte_'
'pollution_'
'plants_'
'planned_'
'pie'
'personally_'
'percent_'
'participants_'
'palästinensischen_'
'pal'
'orm'
'ol_'
'ob'
'nte'
'nsch'
'notwendigen_'
'none_'
'niveau_'
'nine_'
'nen'
'namen_'
'nach'
'my'
'multiple_'
'mo_'
'mittlerweile_'
'micro'
'mer'
'marketing_'
'losing_'
'lo'
'liquidity_'
'liked_'
'lebens'
'lands_'
'ku'
'kleiner_'
'kation_'
'jeweils_'
'islands_'
'interface_'
'int'
'ine'
'importantly_'
'immt_'
'immense_'
'ility_'
'iger_'
'ied_'
'höheren_'
'haft_'
'gra'
'globalisation_'
'geöffnet_'
'gezogen_'
'gesunde'
'geschieht_'
'geraten_'
'generations_'
'generated_'
'garantieren_'
'ft'
'fruit_'
'forum_'
'focused_'
'fi'
'feeling_'
'fat'
'fashion_'
'farming_'
'fa'
'exit_'
'exceptional_'
'everywhere_'
'erwähnt_'
'erwiesen_'
'ert'
'ersch'
'ergeben_'
'ens'
'engaged_'
'elite_'
'eingerichtet_'
'educational_'
'east_'
'ea_'
'ds'
'diplomatic_'
'dep'
'demonstrate_'
'daraus_'
'customer_'
'ct'
'considering_'
'conservative_'
'consequence_'
'conclusions_'
'computers_'
'compensation_'
'cold_'
'chosen_'
'che'
'cation_'
'capitalism_'
'bur'
'bridge_'
'beteiligt_'
'besitzen_'
'bequem_'
'bene'
'bela'
'bekommt_'
'bef'
'bauen_'
'badly_'
'availability_'
'author_'
'ausgezeichneten_'
'ausgaben_'
'audio_'
'ath'
'are'
'appeared_'
'ante_'
'ano'
'angemessene_'
'amp'
'alt'
'ak_'
'ah_'
'afternoon_'
'affects_'
'adults_'
'adopting_'
'adi'
'acting_'
'ac'
'abuse_'
']]._'
'Zustand_'
'Zug'
'Zivil'
'Zentralbanken_'
'Zen'
'Wiki'
'Where_'
'Vorbereitung_'
'Voraussetzung_'
'Verträge_'
'Verpflichtungen_'
'Verkehrs'
'Verfassungs'
'Val'
'Ursachen_'
'USB_'
'Tru'
'Tony_'
'Test_'
'Telefon'
'TI'
'Sus'
'Sur'
'Stu'
'Straßen_'
'Stellung_'
'Soldaten_'
'Signal_'
'Schwerpunkt_'
'School_'
'Samsung_'
'Saint_'
'Saa'
'SE'
'Runde_'
'Rede_'
'Real'
'Ratsvorsitz_'
'Rahmen'
'Prinzipien_'
'Pol'
'Pen'
'Page_'
'PPE_'
'PL'
'ON_'
'Nr_'
'Note_'
'Nos_'
'Nordkorea_'
'Nation_'
'Mont'
'Monetary_'
'Mehr_'
'Legitimität_'
'Lebanon_'
'Kr'
'Kommunikations'
'Key'
'Keine_'
'Japans_'
'Hostelsclub_'
'Holz'
'Hersteller_'
'Herrschaft_'
'Gro'
'Gott_'
'Gleichgewicht_'
'Gleich'
'Gesetzgebung_'
'Gen'
'Frühstücksbuffet_'
'Fonds_'
'Fernsehen_'
'FO'
'Entwurf_'
'Eltern_'
'Elemente_'
'EN'
'EL'
'Dynamik_'
'Dis'
'Dienste_'
'Deutschlands_'
'Day_'
'Data_'
'Cuba_'
'Conf'
'Chinesen_'
'Charter_'
'Cha'
'Burg'
'Bro'
'Blog_'
'Bild'
'Bes'
'Berg'
'Bel'
'Back'
'Ava'
'Auto_'
'Auftrag_'
'Auf'
'Audio_'
'Arbeitsmarkt_'
'Anreize_'
'Analyse_'
'Amtszeit_'
'Adresse_'
';&_'
'700_'
'65_'
'60'
'5'
'47_'
'250_'
'2015_'
'03'
'/ _'
'() _'
'''
'у'
'е'
'üssen_'
'ück'
'ès_'
'ße_'
'Ü'
'  _'
'zustimmen_'
'zukünftige_'
'zufrieden_'
'zin'
'zes_'
'yes_'
'wor'
'wo'
'winter_'
'windows_'
'western_'
'weiterge'
'weg'
'war'
'wan'
'wal'
'vorher_'
'volle_'
'visitors_'
'visited_'
'visible_'
'vis_'
'virtually_'
'vielmehr_'
'verursacht_'
'versetzt_'
'verkehr_'
'verge'
'ven'
'vehicle_'
'val'
'usual_'
'unterzeichnet_'
'universities_'
'ug_'
'ue'
'tätig_'
'trouble_'
'trans'
'tors_'
'tic'
'testing_'
'terror_'
'tau'
'tal'
'syn'
'streets_'
'stre'
'storage_'
'stayed_'
'statt'
'stag'
'sse'
'spot_'
'speakers_'
'sor'
'solve_'
'sharing_'
'shares_'
'serviert_'
'sensible_'
'selbst'
'sea'
'schwere_'
'sauna_'
'satellite_'
'san'
'rse'
'revenues_'
'reserve_'
'reply_'
'ref'
'recorded_'
'rb'
'ranging_'
'ran_'
'rag'
'pur'
'pt_'
'promise_'
'productive_'
'prior_'
'ports_'
'plenty_'
'pleasant_'
'phi'
'persönlich_'
'personnel_'
'patterns_'
'oppose_'
'opinions_'
'occurred_'
'northern_'
'normale_'
'nochmals_'
'nk_'
'nights_'
'niedriger_'
'nge'
'neighbors_'
'ndr'
'naturally_'
'nar'
'multilateral_'
'mont'
'mm'
'miles_'
'messen_'
'meaningfully_'
'meals_'
'mbi'
'match_'
'mann_'
'manager_'
'maintaining_'
'machines_'
'locations_'
'literature_'
'lim'
'ließen_'
'ließ_'
'liberalisation_'
'leu'
'let'
'length_'
'lea'
'lar'
'künftige_'
'ks'
'kostet_'
'kop'
'knew_'
'kli'
'kal'
'junge_'
'jemand_'
'jahr_'
'ire_'
'irakischen_'
'ions'
'invest_'
'interessiert_'
'installed_'
'inform_'
'indicated_'
'index_'
'inden_'
'incentives_'
'imposed_'
'ient'
'ide_'
'households_'
'homes_'
'hole_'
'hof_'
'hip_'
'hing_'
'haften_'
'grown_'
'grateful_'
'grand'
'grammatically_'
'gradually_'
'globaler_'
'glo'
'gerichtet_'
'ger'
'gefordert_'
'gebe'
'fähigkeit_'
'fying_'
'freundlich_'
'freiheit_'
'flat_'
'firstly_'
'films_'
'fell_'
'fel'
'facts_'
'exclusively_'
'este'
'essen_'
'ers'
'erfolg'
'entscheidender_'
'enorme_'
'eng_'
'ending_'
'enabled_'
'einzigartigen_'
'einge'
'eh'
'dra'
'distributed_'
'dimension_'
'deserves_'
'demonstrated_'
'delivered_'
'deiner_'
'definiert_'
'dans_'
'danke_'
'contextually_'
'conditioning_'
'collection_'
'cohesion_'
'coast_'
'clubs_'
'classic_'
'classes_'
'chte_'
'charming_'
'chain_'
'cc'
'capable_'
'can'
'buying_'
'bro'
'breite_'
'boot'
'bol'
'blue_'
'black_'
'bild_'
'bie'
'betroffenen_'
'besonderen_'
'beschränken_'
'berühmten_'
'bekämpfen_'
'beha'
'bedeuten_'
'basiert_'
'baby_'
'auswirken_'
'ausgesprochen_'
'aufgezahlt_'
'ates_'
'aspect_'
'asiatischen_'
'applicable_'
'app'
'anstatt_'
'ans'
'anischen_'
'anhand_'
'alo'
'all'
'ale'
'album_'
'aging_'
'advertising_'
'ade'
'ach'
'acc'
'abroad_'
'abkommen_'
'abi'
'Zug_'
'Wunsch_'
'Willen_'
'Wien_'
'Whether_'
'Weitere_'
'Weiter'
'Webseite_'
'Volkes_'
'Videos_'
'Verständnis_'
'Verluste_'
'Verkehr_'
'Vereinbarungen_'
'Verbündeten_'
'Verbesserungen_'
'Ver'
'Vel'
'Va'
'Umgang_'
'Taliban_'
'Such'
'Sub'
'Stellungnahme_'
'Sind_'
'Sim'
'Sho'
'Shanghai_'
'Selbst'
'Sei'
'Schule_'
'Scho'
'Schie'
'Sau'
'SM'
'Rund'
'Rock_'
'Rad'
'Pool_'
'Palestine_'
'Palace_'
'Organe_'
'Neben'
'National'
'Nacht'
'Nachricht_'
'Märkten_'
'Mu'
'Mission_'
'Minderheit_'
'Mak'
'MEPs_'
'Lord_'
'Licht_'
'Leistungs'
'Law_'
'Lac'
'Kurz'
'Krisen_'
'Korruption_'
'Kopf_'
'Konsum'
'Konflikte_'
'Komfort_'
'Kla'
'KDE_'
'Jede_'
'Je_'
'Instrumente_'
'Ihres_'
'Ideen_'
'Has'
'Ha'
'Großteil_'
'Fuß_'
'Fra'
'Form'
'Fla'
'Finde_'
'Finanzierungs'
'Fal'
'FI'
'Et'
'Erklärungen_'
'Erd'
'Entwicklungsländern_'
'Due_'
'Druck'
'Disk'
'Dienstleistungs'
'Datenbank_'
'Datei'
'Dass_'
'Cou'
'Con'
'College_'
'Class_'
'Cit'
'Chris_'
'Char'
'Cap'
'California_'
'CD'
'CAN'
'C5_'
'Brussels_'
'Boden_'
'Block'
'Besucher_'
'Besitz_'
'Beschluss_'
'Beijing_'
'Ausmaß_'
'Asyl'
'Anzeichen_'
'Anti_'
'Anlage_'
'Amendments_'
'Alter_'
'Aktion_'
'Adobe_'
'Absch'
'AU'
'85_'
'3D_'
'24'
'1945_'
'194'
'07_'
'02'
'...._'
'-/_'
'''_'
' ….. _'
' )._'
'ы'
'ст'
'š'
'überlassen_'
'ú'
'ätze_'
'ähnlich_'
'Öffnung_'
'´_'
' – _'
'zy'
'zuzu'
'zunehmenden_'
'zer_'
'zeichen_'
'zahl'
'y'
'wollten_'
'win'
'wife_'
'wiederholen_'
'whereas_'
'werfen_'
'weight_'
'waters_'
'waiting_'
'wachsen_'
'voluntary_'
'vier'
'verändern_'
'verurteilt_'
'vern'
'verhindert_'
'verehrte_'
'ursprünglich_'
'unterschiedliche_'
'underground_'
'uk'
'twice_'
'treiben_'
'tours_'
'tend_'
'taste_'
'tal_'
'sz'
'systematic_'
'survive_'
'supplies_'
'suitable_'
'substance_'
'stärkere_'
'ständigen_'
'stru'
'stri'
'stein_'
'spezifische_'
'spectrum_'
'sodass_'
'smus_'
'sinnvoll_'
'significance_'
'sieren_'
'seite_'
'seats_'
'schöne_'
'sar'
'ruhig_'
'route_'
'rk_'
'resulted_'
'restore_'
'ress_'
'respected_'
'resolutions_'
'residence_'
'reporting_'
'replace_'
'relief_'
'rein_'
'reich_'
'regularly_'
'regular_'
'referendum_'
'reden_'
'ras'
'ragen_'
'präsentiert_'
'prison_'
'previously_'
'preparation_'
'pra'
'pho'
'pension_'
'par_'
'overcome_'
'ost'
'ore_'
'oran'
'ora'
'opposed_'
'opo'
'ope'
'oma'
'om_'
'ole'
'ok'
'oh'
'offices_'
'offenen_'
'offene_'
'observers_'
'obligation_'
'ober'
'ny_'
'nw'
'nsi'
'nowadays_'
'novel_'
'normalen_'
'noise_'
'nl'
'necessarily_'
'nc'
'natürlichen_'
'nationalist_'
'müsste_'
'mö'
'mountains_'
'mini_'
'ment'
'medicine_'
'med_'
'managing_'
'man'
'maintenance_'
'lösung_'
'logy_'
'lli'
'lier'
'lieber_'
'leistung_'
'legislat'
'ld_'
'layer_'
'lan_'
'lan'
'kulturelle_'
'kontrollieren_'
'kont'
'killing_'
'kel'
'kan'
'judicial_'
'jpg_'
'jet'
'jemals_'
'jam'
'iva'
'ities_'
'italienischen_'
'ita'
'invite_'
'interpretation_'
'intelligence_'
'input_'
'ino_'
'inevitable_'
'inequality_'
'implies_'
'ib'
'hä'
'hur'
'home'
'hl'
'hervor_'
'heits'
'heads_'
'han'
'gro'
'greenhouse_'
'greatly_'
'gn'
'get'
'geplant_'
'gelöst_'
'gelungen_'
'gardens_'
'gan'
'gal'
'fördert_'
'fuels_'
'fu'
'fortsetzen_'
'ford_'
'foot_'
'flu'
'flights_'
'finanzieren_'
'financed_'
'festgestellt_'
'fer'
'feed_'
'falling_'
'ext'
'exploitation_'
'exciting_'
'ethnischen_'
'essentially_'
'esen_'
'erscheinen_'
'ernst_'
'erh'
'erb'
'entstanden_'
'ente'
'enhanced_'
'enhance_'
'ene'
'enabling_'
'ena'
'empf'
'emp'
'emerge_'
'ement_'
'em'
'einzig_'
'einrichtungen_'
'ei'
'effektiv_'
'economically_'
'eco'
'ea'
'durchzuführen_'
'driver_'
'dri'
'dream_'
'dramatic_'
'dor'
'division_'
'dient_'
'die'
'ders'
'depends_'
'dependent_'
'democracies_'
'dee'
'cy'
'cou'
'copy_'
'contributed_'
'contained_'
'conta'
'constant_'
'conduct_'
'ckt_'
'cies_'
'chu'
'channels_'
'cha'
'burg_'
'brand_'
'borrowing_'
'boot_'
'bin'
'beobachten_'
'begins_'
'beenden_'
'beauty_'
'ay_'
'ay'
'aufmerksam_'
'aub'
'atz'
'ator_'
'assure_'
'arti'
'anz'
'angen_'
'angel'
'amp_'
'amongst_'
'am'
'af'
'Zwischen_'
'Zuge_'
'Zivilgesellschaft_'
'Zimmern_'
'Wohl'
'White_'
'Vorbe'
'Volkswirtschaft_'
'Volks'
'Vice_'
'Versprechen_'
'Verbreitung_'
'Valley_'
'Valencia_'
'Up'
'Truppen_'
'Tro'
'Tier'
'Three_'
'Test'
'Tele'
'Technology_'
'Tages'
'Syrien_'
'Syn'
'Stä'
'Struktur_'
'Straßen'
'Strasbourg_'
'Sto'
'Star'
'Staff_'
'Sony_'
'Sollte_'
'Ski'
'Set_'
'Serbien_'
'Sektoren_'
'Schiff_'
'SP'
'Rückkehr_'
'Rumänien_'
'Ruf_'
'Rou'
'Rob'
'Regional_'
'Rechten_'
'Rechnung_'
'Ram'
'Qui'
'Quellen_'
'Programms_'
'Presse'
'Pra'
'Poker_'
'Place_'
'Peter_'
'Perspektive_'
'PO'
'Or_'
'OK_'
'Nu'
'Nobel_'
'NG'
'ND'
'Morgen_'
'Ministers_'
'Minderheiten_'
'Militär_'
'Mikro'
'Met'
'Menschheit_'
'Menschen'
'Mensch_'
'Mc'
'Mala'
'MS_'
'Li'
'League_'
'König_'
'Kor'
'Koordinierung_'
'Kongress_'
'Kon'
'Kin'
'Kilometer_'
'Karten_'
'Kapital'
'Kampagne_'
'Jud'
'Joseph_'
'Ji'
'Jerusalem_'
'Ja_'
'Islands_'
'Ir'
'Internet'
'Inn_'
'Industrie'
'IA'
'Hauptbahnhof_'
'Halb'
'HE'
'Gri'
'Golden_'
'Glauben_'
'Gerichte_'
'Georgia_'
'Gemeinden_'
'Geist_'
'GNU_'
'Freuen_'
'Fotos_'
'Firma_'
'Finnish_'
'Finland_'
'Film'
'Fernseh'
'Fenster_'
'Federation_'
'Exporte_'
'Erwärmung_'
'El'
'Effizienz_'
'EA'
'Dutch_'
'Deutschen_'
'Details_'
'Design'
'Dep'
'Delegation_'
'David_'
'Computer'
'Communist_'
'Clo'
'Cla'
'Ci'
'Chile_'
'Card'
'Cam'
'Bos'
'Bewältigung_'
'Bewertung_'
'Berlusconi_'
'Ber'
'Belarus_'
'Beh'
'Beamten_'
'Bars_'
'Arbeitsplätzen_'
'Arbeiten_'
'Ansichten_'
'Anliegen_'
'Anlagen_'
'Ambiente_'
'Ai'
'Action_'
'Abbas_'
'AT'
'A3'
';&#_'
'6'
'43_'
'38_'
'): _'
') (_'
'({{_'
'('
'”'
'ч'
'überzeugen_'
'überwinden_'
'öffnen_'
'är_'
'ägen_'
'äge_'
'Übersetzung_'
'Übergangs'
'zust'
'ziemlich_'
'zel'
'zeiten_'
'yr'
'wu'
'worry_'
'wirtschaft_'
'wirksam_'
'wirk'
'werte_'
'weitgehend_'
'vorgenommen_'
'voll'
'vit'
'vic'
'verschieden'
'verhalten_'
'vera'
'van'
'ute_'
'ust'
'unlike_'
'united_'
'ums'
'uf'
'ua'
'trag'
'towns_'
'tourism_'
'top'
'tions'
'time'
'tig'
'ti'
'teuer_'
'terrorists_'
'tene'
'tele'
'tech_'
'teachers_'
'tea'
'tan_'
'tackle_'
'surface_'
'successfully_'
'subsequent_'
'strategische_'
'store_'
'stelle_'
'starts_'
'spoken_'
'speichern_'
'sozialer_'
'soweit_'
'sive_'
'sis_'
'sim'
'si'
'showed_'
'shop_'
'shed_'
'setzte_'
'securities_'
'seat_'
'schutz_'
'schlägt_'
'schlicht_'
'schemes_'
'rung_'
'ruling_'
'rr'
'ris'
'ringen_'
'richtlinie_'
'rhetoric_'
'revolutionary_'
'revenue_'
'repeatedly_'
'renowned_'
'remarks_'
'religiösen_'
'religion_'
'reflects_'
'reconstruction_'
'rechtlichen_'
'realen_'
'qualität_'
'publicly_'
'proven_'
'protests_'
'promised_'
'prepare_'
'possibilities_'
'pli'
'plenary_'
'pin'
'photograph'
'phon'
'permitted_'
'perception_'
'passengers_'
'passenger_'
'parks_'
'owned_'
'overlooking_'
'ote'
'oste'
'orit'
'organised_'
'organisationen_'
'orders_'
'op_'
'onal_'
'ona'
'oll'
'og_'
'og'
'od_'
'nta'
'nnen_'
'nicht'
'ngs'
'neighbouring_'
'mögen_'
'mä'
'mus'
'mt_'
'ms'
'mp'
'moralische_'
'mittels_'
'minor_'
'mine_'
'mill'
'meters_'
'mes'
'merk'
'medicines_'
'mas_'
'marquis_'
'marks_'
'marked_'
'mandate_'
'malaria_'
'ländern_'
'log'
'leiden_'
'lei'
'lebt_'
'lawyers_'
'künftigen_'
'krieg_'
'konzentriert_'
'klein_'
'kin'
'kas'
'karte_'
'kamen_'
'joining_'
'jedenfalls_'
'iven_'
'iti'
'isten_'
'isation_'
'iron_'
'ir'
'involvement_'
'investiert_'
'investieren_'
'internationally_'
'intentions_'
'intention_'
'initially_'
'ining_'
'informieren_'
'incentive_'
'inc'
'import_'
'ila'
'ika'
'ight_'
'iet'
'ierungs'
'hydro'
'hor'
'hood_'
'hingewiesen_'
'hingegen_'
'hielt_'
'hi_'
'herrscht_'
'hel'
'hei'
'heavily_'
'hau'
'hardware_'
'hand'
'ham_'
'habit'
'größeres_'
'gruppen_'
'griechischen_'
'governing_'
'gle'
'gespielt_'
'geschrieben_'
'geni'
'gene'
'genannte_'
'gelingt_'
'gegenwärtige_'
'gefährdet_'
'gef'
'gains_'
'fy_'
'freuen_'
'fourth_'
'forthcoming_'
'forest_'
'fis'
'finde_'
'fill_'
'fied_'
'festzustellen_'
'fertig_'
'female_'
'feld_'
'fees_'
'fate_'
'fairly_'
'failures_'
'facto_'
'explore_'
'etic_'
'eth'
'esi'
'eröffnet_'
'erst'
'erfordern_'
'enz'
'entwickelte_'
'entscheidend_'
'enterprise_'
'ente_'
'enm'
'enl'
'eni'
'enemy_'
'emotional_'
'elli'
'einzelne_'
'eingegangen_'
'eingeb'
'einfachen_'
'edge_'
'earth_'
'dt_'
'driven_'
'dritte_'
'drei'
'dramatically_'
'diskutiert_'
'discipline_'
'disa'
'direkte_'
'diplomacy_'
'determination_'
'derartigen_'
'depth_'
'dates_'
'cur'
'containing_'
'considerations_'
'connections_'
'composed_'
'components_'
'complicated_'
'comparison_'
'coalition_'
'chief_'
'centres_'
'cent_'
'cells_'
'castle_'
'cal'
'cable_'
'brachte_'
'bor'
'blind_'
'bezieht_'
'bezahlt_'
'berg'
'bemühen_'
'bekannten_'
'bek'
'beinhaltet_'
'begrenzt_'
'befassen_'
'bau_'
'bathrooms_'
'ba_'
'ausr'
'ausgehen_'
'aus'
'aufh'
'aufge'
'attractions_'
'ationen_'
'aten_'
'ast'
'articles_'
'aries_'
'ari_'
'argued_'
'ara_'
'appeal_'
'apparent_'
'ants_'
'angesprochen_'
'angegebenen_'
'anerkannt_'
'ane'
'ancient_'
'ana'
'amenities_'
'alter_'
'alen_'
'alcohol_'
'aft_'
'afford_'
'aff'
'adequate_'
'acts_'
'ace'
']]'
'Zusammenbruch_'
'Zinssätze_'
'Zinsen_'
'Year_'
'Ye'
'Wie'
'Wert'
'Weltkrieg_'
'Wahr'
'Vorsitzenden_'
'Vorschlägen_'
'Vielen_'
'Vera'
'Ve'
'Van_'
'VI'
'Uni'
'Ton'
'Terrasse_'
'Technik_'
'TH'
'Symbol_'
'Super'
'Suite_'
'Städten_'
'Strom'
'Strategy_'
'Souveränität_'
'Sir'
'Sierra_'
'Show_'
'Serie_'
'Sel'
'Sein_'
'Schweden_'
'Schulen_'
'Sc'
'SO'
'SD'
'Romania_'
'Roman'
'Roll'
'Risiko'
'Referendum_'
'Raum'
'Quelle_'
'Puerto_'
'Protest'
'Projekt'
'Produkt_'
'Premier_'
'Planeten_'
'Pla'
'Peace_'
'Patent'
'PA'
'Orten_'
'ON'
'Northern_'
'News_'
'Mus'
'Mur'
'Mos'
'Module_'
'Methoden_'
'Menü_'
'Meinungs'
'Meanwhile_'
'May'
'Marktes_'
'Malaysia_'
'Mag'
'Mac_'
'Luft_'
'Libya_'
'Lee_'
'LL'
'Küste_'
'Können_'
'Kä'
'Kurz_'
'Kurs_'
'Kopenhagen_'
'Konvents_'
'Kontinent_'
'Klima'
'Kategorie_'
'Kas'
'Kampf'
'Jugend'
'Jones_'
'Jedes_'
'Jahrzehnte_'
'IN'
'IG'
'Hin'
'Haft'
'Glück_'
'Gespräche_'
'Geldpolitik_'
'Gegenstand_'
'Gef'
'Gebiete_'
'Ge'
'Gang_'
'GS'
'Fälle_'
'Freiheiten_'
'Ford_'
'Flugzeug'
'Fischerei'
'Farben_'
'FA'
'Existenz_'
'Emissions'
'Em'
'Eisenbahn'
'Einhaltung_'
'Egyptian_'
'Drittel_'
'Drei_'
'Distribution_'
'Din'
'Digital_'
'Dia'
'Desk_'
'Demokratien_'
'Debatten_'
'Darin_'
'Darfur_'
'Dam'
'DER_'
'Cyprus_'
'Constitutional_'
'Cho'
'Card_'
'Captain_'
'Can'
'Call'
'Cab'
'Börse_'
'Bulgarien_'
'Budgets_'
'Box_'
'Blue_'
'Blo'
'Black_'
'Betr'
'Besides_'
'Berücksichtigung_'
'Beiträge_'
'Bedarf_'
'Bed'
'BR'
'Ausweitung_'
'Auslands'
'Ap'
'Anschluss_'
'Ans'
'Angaben_'
'Andere_'
'Amts'
'Alle'
'Air'
'AP'
'97_'
'237'
'1960_'
'12'
'00'
'.” _'
'-'
''''
'%'
' !_'
'€'
'… _'
'• _'
'” – _'
'’._'
'’'
'‘_'
'и_'
'в'
'ž'
'üh'
'überwiegend_'
'über'
'üb'
'ös'
'öffentlich_'
'äten_'
'änder_'
'älteren_'
'Übereinkommen_'
'zz'
'zugänglich_'
'zuge'
'zo'
'zieren_'
'zan'
'yo'
'yn'
'yc'
'wohnen_'
'wit'
'wieder'
'weltweite_'
'wea'
'wachstum_'
'vorstellen_'
'vorliegenden_'
'vorbei_'
'voller_'
'vi'
'verteidigen_'
'verringert_'
'vere'
'unz'
'unsustainable_'
'ungsp'
'underlying_'
'unde'
'ult'
'uel'
'uche_'
'ually_'
'tzt_'
'turns_'
'tum_'
'trends_'
'travel'
'trained_'
'tik_'
'thousand_'
'ters_'
'tens_'
'tennis_'
'tendency_'
'teil_'
'tea_'
'tain'
'tage_'
'systemen_'
'symbol_'
'swe'
'sustainability_'
'surely_'
'sucht_'
'stylish_'
'stellung_'
'steel_'
'staying_'
'statistics_'
'stars_'
'staatlicher_'
'ssion_'
'sser'
'spiel_'
'spe'
'spanischen_'
'sorgt_'
'sol'
'sma'
'sli'
'sl'
'sko'
'ski'
'sing'
'sho'
'sheet_'
'seg'
'see'
'schwe'
'schwa'
'schnelle_'
'sches_'
'scha'
'sation_'
'rri'
'roll_'
'rmen_'
'rl'
'rge'
'restructuring_'
'resistance_'
'rese'
'rent_'
'reif'
'regarded_'
'refused_'
'recommended_'
'reb'
'raten_'
'proposes_'
'prominent_'
'produkt'
'pris'
'prim'
'presents_'
'preis'
'pou'
'positiv_'
'pose_'
'politician_'
'planung_'
'pic'
'pher'
'persönliche_'
'peri'
'pays_'
'password_'
'owners_'
'ov'
'our'
'ordered_'
'opti'
'operational_'
'oo'
'ome'
'oe'
'occupied_'
'occasion_'
'notwendige_'
'nisse_'
'nis'
'nge_'
'net'
'negotiation_'
'native_'
'nat'
'namens_'
'nal_'
'nahe'
'nachhaltigen_'
'mono'
'mon_'
'mod'
'mix_'
'mitten_'
'mittel'
'miss'
'minorities_'
'manifest'
'mani'
'lär'
'länder_'
'loved_'
'lounge_'
'los'
'literally_'
'lie_'
'letzter_'
'langfristigen_'
'landscape_'
'kt'
'kre'
'klaren_'
'klare_'
'key'
'ket'
'jungen_'
'jegliche_'
'iv_'
'itu'
'ister'
'isches_'
'ious_'
'ione'
'investigation_'
'intends_'
'integriert_'
'ink'
'ines_'
'indischen_'
'indicate_'
'indi'
'imm'
'ie'
'identify_'
'ici'
'ichten_'
'ically_'
'hyper'
'hunger_'
'humanity_'
'hs_'
'hren_'
'hr'
'heritage_'
'hergestellt_'
'hence_'
'hen'
'hearing_'
'hart_'
'handle_'
'halte'
'hal'
'gu'
'griechische_'
'graphics_'
'gr'
'glass_'
'gio'
'gg'
'gewiss_'
'gestern_'
'gegen'
'geeignet_'
'geboren_'
'gang_'
'gaben_'
'furnished_'
'funded_'
'fs_'
'frische'
'free'
'fragile_'
'fonds_'
'finanziert_'
'finanz'
'festgelegt_'
'ferner_'
'extraordinary_'
'existiert_'
'exclusion_'
'examine_'
'evi'
'eva'
'esti'
'es'
'erzeugt_'
'erstellen_'
'erreichbar_'
'erhielt_'
'ere'
'entsprechen_'
'entscheidenden_'
'enemies_'
'ender_'
'encouraging_'
'els_'
'eliminate_'
'einfacher_'
'egi'
'edited_'
'echten_'
'ebene_'
'eat_'
'dung_'
'dul'
'diverse_'
'dispute_'
'direkten_'
'difficulty_'
'destination_'
'derzeitige_'
'demi'
'decisive_'
'dat'
'dark_'
'dan'
'creative_'
'cosy_'
'copyright_'
'cooperate_'
'convey'
'convert_'
'conventional_'
'constructive_'
'constantly_'
'consistent_'
'comply_'
'compete_'
'communism_'
'colours_'
'coal_'
'cleaning_'
'ción_'
'ci_'
'chs'
'chemical_'
'char'
'cameras_'
'breiten_'
'break'
'bre_'
'bot_'
'blieb_'
'bi'
'beträgt_'
'betreiben_'
'bestätigt_'
'besorgt_'
'beraten_'
'believes_'
'bekämpfung_'
'behaviour_'
'bedrooms_'
'bau'
'bat'
'band_'
'ban'
'autumn_'
'ausgezeichnete_'
'atz_'
'assen_'
'arten_'
'arm'
'applying_'
'angesehen_'
'angeblich_'
'andel'
'ami'
'alternatives_'
'allgemein_'
'alb'
'aktuell_'
'adapt_'
'acknowledge_'
'aci'
'achtet_'
'accompanied_'
'Zwar_'
'Zusammenhalt_'
'Zerstörung_'
'Yen_'
'Women_'
'Wirtschaftspolitik_'
'Winter_'
'William_'
'Wikitravel_'
'Wander'
'Wahrheit_'
'WM'
'View_'
'Viertel_'
'Vertrags'
'Verteidigungs'
'Verm'
'Verlust_'
'Verfolgung_'
'Verein'
'Verbraucher'
'Update_'
'Unternehmer_'
'Unternehmens_'
'Ungarn_'
'Une'
'UR'
'UM'
'Tun'
'Titel_'
'The'
'Tha'
'Tausende_'
'Tab'
'TR'
'TO'
'Sy'
'Sudan_'
'Stunde_'
'Studio_'
'Start'
'Stan'
'Spezialitäten_'
'Special_'
'Spe'
'Spannungen_'
'Sol'
'Sign'
'Siege'
'Shin'
'Schwäche_'
'Schlussfolgerungen_'
'Scheitern_'
'Sche'
'Sach'
'SU'
'SE_'
'Road_'
'River_'
'Renten'
'Regierungskonferenz_'
'Red'
'Radio_'
'RD'
'Prä'
'Prozess'
'Provinz_'
'Project_'
'Produkten_'
'Preisen_'
'Pop'
'Politik'
'Political_'
'Plat'
'Plan'
'Pflicht_'
'Pakete_'
'PSE_'
'PL_'
'PARIS_'
'Ober'
'Nord'
'Nigeria_'
'Nero_'
'Multi'
'Morocco_'
'Mol'
'Modern_'
'Mitgliedstaat_'
'Minute_'
'Ministerpräsident_'
'Mini'
'Maß_'
'Martin_'
'Market_'
'Maria_'
'Mah'
'Luft'
'Lim'
'Leitung_'
'Lehren_'
'Laut_'
'Lake_'
'Laden_'
'LabVIEW_'
'LA'
'Krieges_'
'Kranken'
'Konvention_'
'Konsum_'
'Komponenten_'
'Kirche_'
'Islamist_'
'Insbesondere_'
'Innenstadt_'
'Indonesia_'
'Immobilien'
'Image_'
'Hü'
'Hä'
'Heil'
'Hauses_'
'Haftung_'
'HTML_'
'Grundsatz_'
'Grundlagen_'
'Governance_'
'Glas'
'General'
'Ganz_'
'Fuß'
'Frei'
'Format_'
'Food_'
'Fol'
'Fo'
'Flughäfen_'
'Fle'
'Fischerei_'
'Ferner_'
'Fehl'
'Fas'
'Fa'
'FT'
'Erfolge_'
'Empire_'
'Einer_'
'Effekt_'
'ET'
'Direkt'
'Die'
'Des_'
'Declaration_'
'Davos_'
'Cra'
'Chávez_'
'Church_'
'Cat'
'Camp'
'CI'
'CAMBRIDGE_'
'Blut'
'Big_'
'Besorgnis_'
'Besitz'
'Beschlüsse_'
'Bele'
'Bahnhof_'
'B5_'
'Az'
'Aussch'
'Ausl'
'Ausbildung_'
'Assembly_'
'Argument_'
'Apple_'
'Anders_'
'Ana'
'Ala'
'Ablehnung_'
'Abh'
'AS'
'AL'
'AD'
'?'
'59_'
'55_'
'50'
'350_'
'1994_'
'183'
'182'
'1000_'
'08_'
'04_'
'01'
'. &#_'
'п'
'ни'
'н'
'з'
'überrascht_'
'ó_'
'ña_'
'äts'
'äng'
'äg'
'Übergang_'
'Österreich_'
'· _'
'{{_'
'zusammenarbeiten_'
'zulassen_'
'zug'
'zip'
'zierung_'
'zeug'
'zentren_'
'yu'
'youth_'
'yan'
'xp'
'woman_'
'wohn'
'wissenschaftliche_'
'wechsel_'
'warning_'
'ware_'
'wai'
'vorlegen_'
'voraus_'
'vollständige_'
'vollkommen_'
'viewed_'
'vieles_'
'verw'
'vertrag_'
'verstärken_'
'verstanden_'
'versions_'
'verschärft_'
'vermutlich_'
'veri'
'vergeben_'
'verbindet_'
'vely_'
'variable_'
'uss'
'ursprünglichen_'
'ured_'
'upgrade_'
'untergraben_'
'unstable_'
'uno'
'ungsbe'
'ungeachtet_'
'unf'
'uncertainty_'
'unabhängige_'
'ule'
'ues_'
'ucht_'
'uchen_'
'türkischen_'
'täglichen_'
'tä'
'transportation_'
'transferred_'
'tour_'
'topics_'
'tobacco_'
'tle'
'tin'
'tier'
'ticket_'
'ths_'
'tet_'
'teilnehmen_'
'teil'
'teams_'
'taten_'
'targeted_'
'tall'
'tag'
'tables_'
'sé'
'sämtliche_'
'sym'
'switch_'
'swi'
'surprising_'
'supporters_'
'suites_'
'studio_'
'studied_'
'strengthening_'
'stocks_'
'sso'
'squa'
'spezifischen_'
'spezielle_'
'spaces_'
'sole_'
'sicherheit_'
'shortage_'
'shock_'
'sharply_'
'shadow_'
'seri'
'seit'
'sei'
'sec'
'schien_'
'schi'
'scar'
'sauber_'
'sai'
'räume_'
'ry'
'rweise_'
'rungen_'
'run'
'rth'
'ros'
'robust_'
'rob'
'rke'
'rie_'
'ride_'
'reu'
'retirement_'
'restored_'
'rescue_'
'requiring_'
'requested_'
'repeated_'
'rent'
'renewable_'
'remarkable_'
'reject_'
'regret_'
'reform'
'reflection_'
'reflected_'
'recommendations_'
'recall_'
'realistic_'
'realer_'
'reactions_'
'raw_'
'rapporteurs_'
'quest_'
'q_'
'ps'
'providers_'
'protest_'
'prop'
'promoted_'
'profile_'
'produktion_'
'proceedings_'
'pressing_'
'preis_'
'polar_'
'pointed_'
'plays_'
'philosophy_'
'peak_'
'paying_'
'passieren_'
'outstanding_'
'outl'
'os'
'oriented_'
'order'
'opt_'
'ook_'
'one'
'officers_'
'offenbar_'
'obtained_'
'object_'
'nötig_'
'nunmehr_'
'non'
'nommen_'
'nni'
'nissen_'
'nin'
'niedrige_'
'nger'
'netz_'
'nb'
'nationalism_'
'nab'
'na'
'movie_'
'motor_'
'mother_'
'mistake_'
'missing_'
'mess'
'meri'
'mere_'
'mental_'
'meal_'
'mate'
'mas'
'manufacturers_'
'magnificent_'
'lü'
'lock_'
'loc'
'ller_'
'liti'
'lists_'
'lie'
'lem'
'leis'
'leichter_'
'legally_'
'lang'
'lake_'
'lad'
'kurz'
'kur'
'kl'
'kes_'
'kel_'
'jährige_'
'judiciary_'
'journey_'
'japanische_'
'itt'
'istischen_'
'israelische_'
'iso'
'islamischen_'
'isch'
'installiert_'
'inst'
'inge'
'industriellen_'
'inde'
'incomes_'
'illi'
'ignored_'
'iel_'
'iel'
'hängt_'
'humans_'
'household_'
'hopes_'
'hit'
'hinzu'
'hilfreich_'
'herzlich_'
'hem'
'heavy_'
'harm_'
'happening_'
'gua'
'gross_'
'gree'
'granting_'
'grand_'
'gon'
'gne_'
'gewähren_'
'gerät_'
'geringe_'
'geprüft_'
'genügend_'
'genuinely_'
'generell_'
'gei'
'gebiet_'
'gat'
'fünf'
'führung_'
'fä'
'functioning_'
'friend_'
'fried'
'foundation_'
'foster_'
'fort_'
'forests_'
'fores'
'floors_'
'fitness_'
'filled_'
'fare_'
'fahrt_'
'fache'
'fach'
'expanding_'
'expanded_'
'existieren_'
'etzen_'
'erstmals_'
'erkennt_'
'erf'
'epi'
'entre'
'entgegen_'
'ense'
'enn'
'engine_'
'employed_'
'emi'
'ements_'
'elt_'
'eise_'
'einheitlichen_'
'eingebracht_'
'eigenes_'
'eigener_'
'eich'
'educated_'
'eda'
'ed'
'ect'
'eastern_'
'drivers_'
'distinction_'
'displayed_'
'disk_'
'discussing_'
'deutliche_'
'destroy_'
'designs_'
'des'
'dern_'
'depending_'
'delicious_'
'define_'
'decorated_'
'declared_'
'debts_'
'dealt_'
'dead_'
'dahin_'
'cua'
'courts_'
'coup_'
'corporations_'
'contents_'
'constitute_'
'conse'
'comp'
'commodity_'
'colour'
'cle'
'cht'
'chal'
'chairman_'
'causing_'
'catch_'
'cart'
'buses_'
'buchen_'
'buch'
'bru'
'broken_'
'bright_'
'brief_'
'black'
'bi_'
'betreffenden_'
'betonen_'
'beschäftigt_'
'bes_'
'bel'
'behoben_'
'beginnt_'
'beeinflussen_'
'bedeutende_'
'ball'
'backed_'
'awareness_'
'auswählen_'
'ausschuss_'
'aufzubauen_'
'ate'
'artists_'
'arte'
'arrived_'
'aro'
'arkt'
'arise_'
'ards_'
'architecture_'
'apo'
'anzuzeigen_'
'anywhere_'
'anges'
'anda'
'amounts_'
'ambitions_'
'alp'
'alität_'
'ak'
'ado_'
'admit_'
'acht'
'accepting_'
'acce'
'absolut_'
'abandoned_'
'Zweiten_'
'Zwei_'
'Zwangs'
'Zusätzlich_'
'Zuständigkeit_'
'Zusammens'
'Zugriff_'
'Zu'
'Zo'
'Yo'
'Wu'
'Wissenschaftler_'
'Winter'
'Wikicars_'
'Wiederauf'
'Wi_'
'Whi'
'Welcome_'
'Wei'
'Webseiten_'
'Wald'
'Vorausschau_'
'Vertretern_'
'Verlauf_'
'Use_'
'Us'
'Unterkunft_'
'Uns_'
'Ungleichheit_'
'Unge'
'Tip_'
'Tim'
'Ticket_'
'Ti'
'Thu'
'Thanks_'
'Thailand_'
'Terror_'
'Ter'
'Teilen_'
'Tee'
'Support_'
'Stärke_'
'Studenten_'
'Strukturfonds_'
'Stimm'
'Stell'
'Stand'
'Spitzen'
'Spa'
'Southern_'
'Sid'
'Sicher'
'Schutz'
'Schuld_'
'Sauna_'
'Sar'
'SS'
'Rot'
'Rom_'
'Rohstoff'
'Richard_'
'Regimes_'
'Regi'
'Reg'
'RO'
'RM'
'Qua'
'Pul'
'Presse_'
'Power_'
'Portuguese_'
'Point_'
'Pay'
'Past'
'Pal'
'PD'
'PC'
'Opti'
'Opera_'
'Ob'
'OECD_'
'Nuklear'
'Niederlande_'
'Netz_'
'Modell'
'Micro'
'Messe'
'Mein_'
'Medien'
'Mark_'
'Mao_'
'Magi'
'Maastricht_'
'MB_'
'Luc'
'Lohn'
'Lizenz'
'Libanon_'
'LateRooms_'
'Landwirte_'
'Ladies_'
'Künstler_'
'Kulturen_'
'Kritiker_'
'Kontrollen_'
'Konf'
'Kommunismus_'
'Kohle'
'Kir'
'Keynes_'
'Kara'
'Kapitalismus_'
'KO'
'Jun'
'Jean_'
'Insgesamt_'
'Ins'
'Innovationen_'
'Inf'
'Industry_'
'Indonesien_'
'Index_'
'Import'
'Il_'
'ISO_'
'IM'
'IL'
'Hol'
'Henry_'
'Helsinki_'
'Hard'
'Ham'
'Hall_'
'Hal'
'Gut'
'Guests_'
'Gold'
'Geschwindigkeit_'
'Gentoo_'
'Gel'
'Gara'
'Gar'
'GI'
'GA'
'Freunde_'
'Frankreichs_'
'Fi_'
'Festlegung_'
'Festival_'
'Fest'
'Farb'
'Far'
'Fan'
'Ex'
'Entschließungsantrag_'
'Energy_'
'Energie'
'Empfehlungen_'
'Einwanderer_'
'Einkommens'
'Education_'
'EM'
'EC'
'Department_'
'DO'
'Cup_'
'Cro'
'Coo'
'Col'
'Civil_'
'Christ_'
'Ch'
'Cas'
'CON'
'Bla'
'Beweise_'
'Beteiligung_'
'Bemerkung_'
'Begleit'
'Bef'
'Bedürfnisse_'
'Beachtung_'
'Balkans_'
'BE'
'Authority_'
'Ausnahme'
'Ausführungen_'
'Att'
'Arm'
'Ari'
'Argumente_'
'Arch'
'Arafat_'
'Arabia_'
'Antworten_'
'Anreiz_'
'Annehmlichkeiten_'
'Anlass_'
'Anlage'
'Angebote_'
'And'
'Ale'
'Aktionäre_'
'Agentur_'
'Ac'
'Abu_'
'AV'
':'
'78_'
'67_'
'41_'
'40'
'27'
'22'
'1980er_'
'195'
'17'
'.  _'
''' (_'
'$_'
'“ – _'
'’, _'
'überwachen_'
'überprüft_'
'überge'
'ösen_'
'änge_'
'ähr'
'ßt_'
'Übersch'
'}} **{{_'
'zweit'
'zw'
'zusammen'
'zurückzuführen_'
'zunehmende_'
'zione_'
'zier'
'zh'
'zentraler_'
'zahl_'
'ys'
'xe'
'wünschenswert_'
'wünsche_'
'wunder'
'wirken_'
'widmen_'
'whilst_'
'whi'
'wer'
'wenigsten_'
'welchen_'
'weit'
'weakness_'
'water'
'watch_'
'wachsende_'
'vr'
'voneinander_'
'volume_'
'vol'
'viertel_'
'versichern_'
'verkauft_'
'verbl'
'verabschiedet_'
'valuable_'
'upt'
'unterstütze_'
'unterste'
'unterliegen_'
'unta'
'unmittelbare_'
'unions_'
'unfa'
'undermine_'
'unabhängigen_'
'umgeben_'
'ultra'
'ulier'
'ula'
'ture_'
'tte'
'tsunami_'
'tst'
'träger_'
'tritt_'
'trip'
'trees_'
'tragic_'
'trafficking_'
'tough_'
'tory_'
'tone_'
'tle_'
'tl'
'tie'
'threshold_'
'theo'
'terrible_'
'teri'
'tell'
'tel'
'teaching_'
'taxation_'
'tab'
'systemic_'
'sver'
'sustained_'
'surprise_'
'surf'
'superior_'
'suddenly_'
'successes_'
'substantially_'
'string_'
'steuer'
'sten'
'star'
'stammen_'
'sst'
'spielte_'
'spiegelt_'
'speaker_'
'some'
'solches_'
'solch_'
'sna'
'smooth_'
'sme'
'sleep_'
'sit_'
'sig'
'shi'
'shareholders_'
'sexual_'
'serving_'
'sens'
'schä'
'schweren_'
'schrittweise_'
'scho'
'schlechte_'
'schaften_'
'scene_'
'scenario_'
'sb'
'satisfied_'
'sah_'
'rücken_'
'rän'
'rund'
'ruled_'
'ruhigen_'
'rta'
'roots_'
'rle'
'rkt_'
'rka'
'rium_'
'rit'
'rig'
'richtigen_'
'reverse_'
'revealed_'
'retr'
'respects_'
'respective_'
'rer'
'reputation_'
'renoviert_'
'registration_'
'regionaler_'
'realize_'
'reaction_'
'rc'
'rating_'
'quo_'
'qui_'
'qui'
'qualified_'
'pt'
'prom'
'progressive_'
'produziert_'
'privileged_'
'preise_'
'practically_'
'potentially_'
'populations_'
'phones_'
'parti'
'panel_'
'pain_'
'pack'
'oy'
'osi'
'osc'
'oo_'
'ont'
'oli'
'off'
'näher_'
'nung_'
'nto'
'notion_'
'noti'
'nom'
'nna_'
'nit'
'nik_'
'niedrigen_'
'newspaper_'
'nai'
'nahm_'
'nachfrage_'
'mächtig'
'muslimischen_'
'mpe'
'mo'
'mn'
'minimal_'
'milk_'
'mic'
'messages_'
'maß'
'maritime_'
'machten_'
'lunch_'
'lots_'
'load_'
'lk'
'lip'
'lien'
'licherweise_'
'lic'
'letzte'
'lb'
'lat'
'könne_'
'kul'
'krank'
'kr'
'konkreten_'
'klicken_'
'kernel_'
'kennt_'
'keineswegs_'
'justify_'
'justified_'
'judges_'
'jederzeit_'
'izi'
'itt_'
'issen_'
'ira_'
'introducing_'
'insufficient_'
'institutionellen_'
'instantly_'
'instability_'
'ins'
'innovations_'
'inl'
'inhabitants_'
'infected_'
'inf'
'individuelle_'
'inder'
'impos'
'ils_'
'ile_'
'ij'
'ifi'
'ießen_'
'ierenden_'
'ideology_'
'hy_'
'hs'
'hoo'
'honest_'
'holidays_'
'hne'
'hierfür_'
'heutige_'
'heu'
'hat'
'hair_'
'hafte_'
'had'
'gw'
'gte_'
'gt'
'gründen_'
'größerer_'
'grant_'
'governmental_'
'got'
'golden_'
'gien'
'geäußert_'
'gewählten_'
'gera'
'gefährden_'
'gedacht_'
'geb'
'gallery_'
'gabe_'
'fühlen_'
'freundliche_'
'frequency_'
'fra'
'founding_'
'formen_'
'football_'
'follows_'
'focuses_'
'fly_'
'fleet_'
'fern'
'feelings_'
'false_'
'fails_'
'extrem_'
'exploit'
'exceptions_'
'exa'
'evaluation_'
'euros_'
'eur_'
'eur'
'eti'
'esca'
'error_'
'err'
'erli'
'erle'
'erlassen_'
'erlangen_'
'erheblich_'
'erforderliche_'
'eres_'
'ered_'
'erd'
'environmentally_'
'entw'
'entschlossen_'
'entering_'
'enge_'
'enf'
'ende'
'enco'
'enc'
'emergence_'
'emerged_'
'electrical_'
'electric_'
'eld_'
'einzu'
'einf'
'eid'
'eht_'
'ef'
'eer'
'edi'
'ech'
'ec'
'earned_'
'earn_'
'dropped_'
'dre'
'doors_'
'doctrine_'
'dit'
'disposal_'
'directed_'
'dictatorship_'
'dialog_'
'devoted_'
'desto_'
'derselben_'
'denjenigen_'
'demokratischer_'
'definitely_'
'declare_'
'debian_'
'deals_'
'dd'
'cted_'
'countryside_'
'count_'
'corresponding_'
'corner_'
'cope_'
'convergence_'
'contradict'
'conce'
'compar'
'comb'
'collaboration_'
'clu'
'cker_'
'cit_'
'cil'
'chts'
'chs_'
'chose_'
'chne'
'checking_'
'chau'
'chas'
'centr'
'cen'
'cel'
'busy_'
'bust'
'bug_'
'budgets_'
'brand'
'bla'
'bislang_'
'billions_'
'bez'
'bewirken_'
'bewiesen_'
'betont_'
'beschleunigen_'
'beliebte'
'bel_'
'bekam_'
'begegnen_'
'beendet_'
'bedeutenden_'
'bears_'
'beantworten_'
'avi'
'aux_'
'aufgeführt_'
'assumed_'
'ars_'
'arrested_'
'approval_'
'appropriations_'
'apparently_'
'ansehen_'
'annually_'
'annehmen_'
'angeh'
'ances_'
'ambition_'
'amb'
'alter'
'alongside_'
'aktive_'
'ah'
'agr'
'adjustments_'
'adds_'
'acy_'
'ace_'
'acceptance_'
'Zuf'
'Zei'
'Ya'
'Währungsfonds_'
'Wor'
'Wirtschafts_'
'Wild'
'Werten_'
'Wellness_'
'Welche_'
'We'
'Wall'
'Waffen'
'Vorlage_'
'Vork'
'Vol'
'Viel'
'Video'
'Versuche_'
'Ven'
'VE_'
'Up_'
'Ums'
'Tätigkeit_'
'Tunisia_'
'Treaties_'
'Tonnen_'
'Third_'
'Texas_'
'Terroristen_'
'Teilnehmer_'
'Tar'
'TO_'
'TER'
'Switzerland_'
'Supreme_'
'Sul'
'Straßburg_'
'Steuer_'
'Staatss'
'Spielraum_'
'Spielen_'
'Ska'
'Sitz_'
'Situationen_'
'Sep'
'Sek'
'Schnell'
'Schloss_'
'Schiff'
'Satz_'
'Rules_'
'Ruhe_'
'Ru'
'Ronald_'
'Rom'
'Ric'
'Republican_'
'Religion_'
'Rein'
'Rand_'
'Radio'
'Qualitäts'
'Polizei'
'Politiken_'
'Playa_'
'Planung_'
'Pers'
'Peking_'
'Pat'
'Partnerschaften_'
'Pap'
'Pacific_'
'Olympic_'
'Notes_'
'Normen_'
'None_'
'Nizza_'
'Niemand_'
'Nie'
'Netzwerk_'
'Nachfolger_'
'NO'
'NCC_'
'Musharraf_'
'Mou'
'Modernisierung_'
'Mode'
'Mobile_'
'Min'
'Millennium_'
'Mid'
'Mexican_'
'Medi'
'Med'
'Mechanismus_'
'Maßnahme_'
'Marx_'
'Mark'
'Mani'
'Mallorca_'
'Mad'
'ME'
'Lö'
'Lä'
'Lounge_'
'Links_'
'Lie'
'Libyen_'
'Lernen_'
'Lehre_'
'Lebensmittel'
'Las'
'Lab'
'Kunden'
'Konsequenzen_'
'Konferenz'
'Kluft_'
'Kil'
'Kapazitäten_'
'Kann_'
'Kai'
'Jugoslawien_'
'Jordan_'
'Jacques_'
'Jackson_'
'Indem_'
'IR'
'IBM_'
'Hu_'
'Hostels_'
'Hor'
'Histori'
'Hafen_'
'HI'
'Growth_'
'Greenspan_'
'Gleichstellung_'
'Gl'
'Gewicht_'
'Ges'
'Gegens'
'Gebrauch_'
'Garden_'
'Garantie_'
'Ga'
'GB_'
'Friendly_'
'Freude_'
'Free'
'Francisco_'
'Formular_'
'Force_'
'Flugzeuge_'
'Fat'
'Extra'
'Expert'
'Exchange_'
'Eta'
'Est'
'Erwachsene_'
'Erstellung_'
'Erf'
'Energies'
'Endes_'
'Emp'
'Einw'
'Einstellungen_'
'Einnahmen_'
'Einbeziehung_'
'EP'
'EL_'
'EG_'
'Dreh'
'Dokument_'
'Disc'
'Description_'
'Der'
'Den'
'Dec'
'DS9_'
'DS'
'DE'
'DA_'
'Cons'
'Compa'
'Colo'
'Chu'
'Christ'
'Chairman_'
'Car'
'Canon_'
'Canada_'
'CT'
'CC'
'Bürgerinnen_'
'Bulgaria_'
'Bug'
'Budapest_'
'Bud'
'Buch'
'Brotherhood_'
'Bewohner_'
'Beseitigung_'
'Bereitschaft_'
'Bemerkungen_'
'Belgium_'
'Bearbeitung_'
'Be_'
'Bauern_'
'Barr'
'Baltic_'
'Avi'
'Automobil'
'Ausstattung_'
'Ausführung_'
'Auge_'
'Atomwaffen_'
'Arc'
'Arbeiter_'
'Anschl'
'Anne'
'Anleihen_'
'Anf'
'Andr'
'Anbetracht_'
'Alternativen_'
'Alles_'
'All'
'Akteure_'
'Airlines_'
'Addi'
'Abr'
'Abf'
'Ab_'
'AI'
'90'
'77_'
'72_'
'68_'
'54_'
'35'
'2020_'
'200'
'19th_'
'1986_'
'1967_'
'193'
'120_'
'02_'
'.“_'
'.&_'
'+ _'
') – _'
''', _'
'' '
' ?_'
' +_'
' ), _'
'“ (_'
'к'
'й_'
'ž_'
'ün'
'ührung_'
'überzeugende'
'ält'
'ão_'
'Übrigen_'
'Überprüfung_'
'zähl'
'zwanzig_'
'zung_'
'zunehmen_'
'zun'
'zugute_'
'zugrunde_'
'zogen_'
'zerstört_'
'zero_'
'zahlt_'
'you'
'ycl'
'yb'
'xt'
'xa'
'wü'
'wächst_'
'wre'
'wort_'
'wohl'
'wl'
'wise_'
'wirkt_'
'wie'
'wid'
'westliche_'
'wenden_'
'welcoming_'
'web'
'warrant'
'wards_'
'wander'
'vorzulegen_'
'voices_'
'vo_'
'vin_'
'ville_'
'vid'
'via'
'vez_'
'vessels_'
'verteilt_'
'vert'
'verpflichten_'
'verf'
'verboten_'
'valid_'
'ux_'
'ust_'
'usi'
'urs'
'urgently_'
'urg_'
'unwahrscheinlich_'
'untersuchen_'
'unterstützte_'
'unterscheidet_'
'ungsm'
'uneingeschränkt_'
'undergo'
'umzu'
'umgeb'
'uen_'
'uelle'
'udi'
'tö'
'tätigkeit_'
'twin_'
'tum'
'tub'
'tti'
'tter_'
'tt'
'tsch'
'trat_'
'transitional_'
'tranquil'
'tracks_'
'tou'
'tons_'
'tional_'
'threatening_'
'threatened_'
'thre'
'tho'
'thi'
'ther'
'tes'
'territories_'
'terra'
'tern'
'tells_'
'teilung_'
'tec'
'taxi_'
'tation_'
'tas'
'tant'
'südlichen_'
'surveillance_'
'supplementary_'
'summ'
'subs'
'stü'
'stunning_'
'stro'
'strategie_'
'stores_'
'stops_'
'stopped_'
'stischen_'
'stimme_'
'stell'
'stel'
'steigern_'
'steigenden_'
'stadt_'
'staaten_'
'sste'
'ssa'
'spi'
'sph'
'specified_'
'sparen_'
'sophisticated_'
'solar_'
'socio'
'slightly_'
'sky_'
'signing_'
'siert_'
'sie'
'sicherstellen_'
'sichern_'
'she'
'selben_'
'seconds_'
'schön_'
'schwieriger_'
'schu'
'schlimmsten_'
'schlimmer_'
'schau'
'schaden_'
'scan'
'sake_'
'rze'
'rum_'
'rum'
'rui'
'rsch'
'rou'
'ront'
'ron'
'rip'
'rid'
'ria_'
'revi'
'restricted_'
'reserved_'
'requirement_'
'representation_'
'remo'
'religiöse_'
'reli'
'relationships_'
'reihe'
'reifen_'
'regionen_'
'regeln_'
'regelmäßig_'
'refusal_'
'refers_'
'recruit'
'recover_'
'recognised_'
'read'
'rde'
'ratified_'
'rat'
'rant'
'raft_'
'rad'
'quantitative_'
'pushing_'
'pushed_'
'pun'
'prä'
'province_'
'prot'
'propaganda_'
'promising_'
'projekt_'
'profound_'
'produces_'
'privacy_'
'prisoners_'
'prinzip_'
'presse'
'premi'
'preferred_'
'praktische_'
'pr'
'pping_'
'power'
'potenziellen_'
'ple'
'play'
'planen_'
'pf'
'personenbezogene'
'pers'
'perfekt_'
'pen_'
'pe'
'ova'
'ott'
'oto'
'oth'
'ossen_'
'osit'
'originally_'
'organisiert_'
'organis'
'orfen_'
'ona_'
'omm'
'olo'
'ole_'
'oftmals_'
'officially_'
'od'
'obstacles_'
'objects_'
'nötigen_'
'nzi'
'nz_'
'nutz'
'nn'
'nli'
'nken_'
'niedrig_'
'nic'
'neuro'
'negotiate_'
'negativen_'
'ndig'
'nav'
'nachge'
'mortgage_'
'modify_'
'modernization_'
'moderate_'
'mitt'
'midst_'
'merc'
'mber'
'mand'
'manage'
'male_'
'mail'
'lé'
'längst_'
'loy'
'lor'
'loo'
'logic_'
'lobby_'
'line'
'like'
'liefern_'
'lichsten_'
'lichkeiten_'
'library_'
'liberalization_'
'lf'
'lets_'
'legend'
'lay_'
'lautet_'
'künftig_'
'kö'
'kurzfristig_'
'kosten'
'komme_'
'kom'
'km'
'keeps_'
'kapital'
'japanischen_'
'ix_'
'ivi'
'ional_'
'io'
'inu'
'intern'
'inter_'
'intelligent_'
'informal_'
'ime'
'illegale_'
'ignore_'
'ieben_'
'idi'
'ideological_'
'ida'
'ics_'
'ica_'
'hn'
'histori'
'hire_'
'hil'
'hierbei_'
'hes_'
'hervorragende_'
'hens'
'heim'
'healthy_'
'handling_'
'hall_'
'gültige'
'gäbe_'
'grundsätzlich_'
'gru'
'grenze_'
'grad'
'gingen_'
'gier'
'gez'
'gewachsen_'
'gesto'
'gestatten_'
'gestaltet_'
'gesetz'
'gesellschaften_'
'gesellschaft_'
'geschafft_'
'geprägt_'
'genen_'
'genauer_'
'geltenden_'
'geli'
'gel_'
'gek'
'gegangen_'
'gefördert_'
'gear'
'functional_'
'fte'
'franc'
'fossil_'
'fon'
'focusing_'
'flying_'
'firmly_'
'findings_'
'fil'
'fiel_'
'ffi'
'ffer'
'ffe'
'fehl'
'fears_'
'farm_'
'ez'
'explicitly_'
'execution_'
'exception_'
'ex'
'evident_'
'ett'
'ethnische_'
'ese_'
'escape_'
'erzeugen_'
'erweisen_'
'erreichte_'
'erlebt_'
'erla'
'erkannt_'
'erheblichen_'
'ergänzt_'
'ergibt_'
'erfüllt_'
'erbe'
'erarbeitet_'
'equity_'
'eo'
'entsteht_'
'enth'
'enst'
'enjoyed_'
'enger_'
'end'
'enan'
'empfangen_'
'eller_'
'elektronischen_'
'ela'
'einzugehen_'
'einheitliche_'
'eingestellt_'
'eingerichtete_'
'eingel'
'eingehalten_'
'efe'
'ede'
'eate'
'ease_'
'dürften_'
'drängen_'
'drives_'
'drawing_'
'dos_'
'domain_'
'doctor_'
'disp'
'disabled_'
'directory_'
'dic'
'deuten_'
'deswegen_'
'desirable_'
'designer_'
'description_'
'describes_'
'dera'
'departure_'
'department_'
'depart'
'denkt_'
'demokratisch_'
'delighted_'
'defeat_'
'dedicated_'
'dec'
'dea'
'damaged_'
'cz'
'customs_'
'cum'
'creates_'
'coordinated_'
'convenience_'
'contin'
'contextual_'
'cont'
'concentrate_'
'colors_'
'col'
'codecision_'
'clock_'
'clause_'
'classical_'
'chuld'
'chlag'
'chef_'
'channel_'
'ceme'
'caught_'
'career_'
'camps_'
'calendar_'
'bü'
'bs_'
'bs'
'brain_'
'bond_'
'bilateralen_'
'bewältigen_'
'bet'
'bes'
'belo'
'bell'
'beizu'
'beibehalten_'
'begrüßt_'
'beglückwünschen_'
'begleitet_'
'basieren_'
'award_'
'außer'
'autonomy_'
'aut_'
'auszuüben_'
'ausschusses_'
'ausgewogene'
'ausgew'
'ausgeschlossen_'
'ausgelöst_'
'ausgeh'
'ausgegeben_'
'ausführ'
'auber'
'attempted_'
'asso'
'artistic_'
'arbitrary_'
'arbeits'
'ara'
'appreciation_'
'appe'
'apa'
'ap'
'anzunehmen_'
'answers_'
'ano_'
'ann'
'anlage_'
'angepasst_'
'angefangen_'
'ander'
'align'
'ala'
'ain'
'ahmen_'
'ahl'
'aggressive_'
'affordable_'
'advocate_'
'advised_'
'ado'
'ack'
'accused_'
'abw'
'abuses_'
'abstimmen_'
'abgest'
'abgelehnt_'
'aba'
'Zwei'
'Zwecke_'
'Zusatz'
'Zucker'
'Zimmerservice_'
'Zimbabwe_'
'Zielen_'
'Zer'
'Zahlungs'
'Wur'
'Wort'
'Wolf'
'Wirksamkeit_'
'Wiederaufbau_'
'Wesen_'
'Werk'
'Wen'
'Weit'
'Weg'
'Water'
'Wahrscheinlichkeit_'
'WE'
'Vorsitz_'
'Vorgehen_'
'Voll'
'Vier'
'Versicherungs'
'Versch'
'Verkauf_'
'Verk'
'Verg'
'Vater_'
'VER'
'Urteil_'
'Until_'
'Unt'
'Unsicherheit_'
'Ungleichgewichte_'
'Umweltschutz_'
'Trend_'
'Traum_'
'Transa'
'Traditionen_'
'Town_'
'Top'
'Tool_'
'Todesstrafe_'
'Tod'
'Thi'
'Text'
'Temple_'
'Teams_'
'Tan'
'Swiss_'
'Studien_'
'Stimmung_'
'Steuerzahler_'
'Ster'
'Staats_'
'Smith_'
'Sm'
'Sky'
'Siehe_'
'Service'
'Ser'
'Section_'
'Science_'
'Schwellenländer_'
'Schwarz'
'Schl'
'Salz'
'Sai'
'Rückgang_'
'Russians_'
'Ris'
'Rh'
'Rettungs'
'Ret'
'Republikaner_'
'Rep'
'Reichen_'
'Rei'
'Regierungschefs_'
'Ree'
'Rechtsstaatlichkeit_'
'Rea'
'Rats'
'Protocol_'
'Produktivitäts'
'Produktivität_'
'Procedure_'
'Prob'
'Prize_'
'Prim'
'Positionen_'
'Port'
'Por'
'Pis'
'Phil'
'Pf'
'Partners'
'Parlaments'
'Palma_'
'Pala'
'Otherwise_'
'Orient'
'Od'
'Obamas_'
'Nothing_'
'Nonetheless_'
'Nin'
'Niederlage_'
'Nichtraucherzimmer_'
'Net'
'Nat'
'Nahrungsmittel'
'Nachrichten_'
'NG_'
'Müll'
'Mädchen_'
'Myanmar_'
'My'
'Much_'
'Mor'
'Mona'
'Modelle_'
'Mittelmeer'
'Mittel'
'Mitt'
'Minutes_'
'Milosevic_'
'Metall'
'Menschenhandel_'
'Medikamente_'
'Mauer_'
'Mass'
'Mart'
'Marketing_'
'Mar_'
'Manhattan_'
'Mail'
'MT'
'MPEG_'
'MP3_'
'MM'
'Ltd_'
'Light'
'Lern'
'Leitlinien_'
'Leid_'
'Lei'
'Lea'
'Later_'
'LONDON_'
'Kurdish_'
'Kuba_'
'Kriminalität_'
'Kriege_'
'Krankheit_'
'Kosten'
'Kont'
'Konjunktur'
'Klimawandels_'
'Kle'
'Klasse_'
'Kit'
'Khamenei_'
'Kernel_'
'Kein_'
'Kauf_'
'Kauf'
'KORE_'
'KE'
'Jahrzehnt_'
'Invasion_'
'Interventionen_'
'Instruments_'
'Innen'
'Info'
'IV_'
'IS_'
'IE'
'Hisbollah_'
'Hinweise_'
'High'
'Herkunft_'
'Hai'
'Gästen_'
'Guide_'
'Grünbuch_'
'Gottes_'
'Gipfeltreffen_'
'Ghana_'
'Gh'
'Gewinne_'
'Gewerkschaften_'
'Get_'
'Geschäft_'
'Gerhard_'
'Gelder_'
'Gehminuten_'
'Geheim'
'Gefangenen_'
'Gard'
'Fur'
'Funds_'
'Fro'
'Freunden_'
'Freizeit'
'Freedom_'
'Frank'
'Framework_'
'Flüchtlinge_'
'Florida_'
'Flash_'
'Fischer_'
'Fisch_'
'Fisch'
'Firefox_'
'Fin'
'Ferienwohnung_'
'Feld_'
'Family_'
'Fac'
'Exp'
'Este'
'Ess'
'Erzeug'
'Erz'
'Erinnerung_'
'Erbe_'
'Entf'
'Emi'
'Elektro'
'Eigenschaften_'
'Edition_'
'EX'
'EP_'
'Dä'
'Dun'
'Dubai_'
'Dort_'
'Dorf_'
'Don_'
'Diplomatie_'
'Deswegen_'
'Denk'
'Dauer_'
'Country_'
'Corr'
'Comp'
'Client_'
'Cher'
'Chef_'
'Chancellor_'
'Chal'
'Cari'
'CEO_'
'Bündnis_'
'Bü'
'Brok_'
'Br'
'Boy'
'Boot_'
'Blut_'
'Black'
'Bin'
'Bill_'
'Betrieb_'
'Beste'
'Beruf'
'Berichten_'
'Beratung_'
'Benutzer'
'Belgien_'
'Beifall_'
'Bei'
'Behauptung_'
'Beg'
'Band'
'BC_'
'Australia_'
'Ausst'
'Aufst'
'At'
'Ass'
'Aspekten_'
'Ant'
'Anspr'
'Anonymous_'
'Anleger_'
'Anhänger_'
'Angeles_'
'Angela_'
'Amb'
'Alta'
'Alm'
'Allianz_'
'Alan_'
'Abst'
'Abschnitt_'
'Absatz_'
'About_'
'Abgesehen_'
'ASEAN_'
'96_'
'79'
'73'
'63_'
'600_'
'56_'
'46_'
'1978_'
'189'
'187'
'184'
'. - _'
'" '
' ; _'
' + _'
' "'
'  _'
'…"..._'
'–_'
'е_'
'во'
'überz'
'übers'
'überraschend_'
'übernimmt_'
'ökonomische_'
'ég'
'éa'
'ç'
'änglich'
'äl'
'án'
'Übertragung_'
'Übernachtung_'
'Überblick_'
'Ö'
'Äußerungen_'
'Ärzte_'
'zweitens_'
'zuständigen_'
'zunichte_'
'zili'
'zieht_'
'zentral_'
'zeigte_'
'zar'
'yt'
'younger_'
'ym'
'xy'
'xo'
'würdig_'
'wiederholt_'
'widerspr'
'wichtiges_'
'weshalb_'
'werke_'
'well'
'welcomes_'
'weis'
'wahl'
'virus_'
'virtual_'
'vielfältige'
'viable_'
'verschiedener_'
'verschaffen_'
'vers'
'vermute'
'vermi'
'verla'
'vereinbar'
'verdienen_'
'usly_'
'uri'
'uren_'
'uranium_'
'ura'
'unterschiedlich_'
'unterscheiden_'
'unte'
'unre'
'ung'
'unentgeltlich_'
'unclear_'
'uncertain_'
'unbea'
'unau'
'umfangreiche_'
'ultimate_'
'uli'
'uch_'
'tzung_'
'tz'
'typisch_'
'ty'
'tro_'
'triggered_'
'trap_'
'transformed_'
'trail'
'tradable_'
'tra_'
'ton'
'tischen_'
'tight'
'tien'
'tickets_'
'thumbnail_'
'thumb_'
'throw_'
'thou'
'teilt_'
'techniques_'
'teacher_'
'süd'
'symbolic_'
'sy_'
'surroundings_'
'surprised_'
'supp'
'super'
'summe'
'subt'
'subsequently_'
'streng'
'streit'
'stream_'
'stored_'
'stopp'
'stoffe_'
'stock'
'stil'
'stet_'
'spre'
'spor'
'spo'
'specifications_'
'spar'
'sozial'
'soul_'
'soldiers_'
'sn'
'sm'
'skin_'
'sk'
'simultaneously_'
'shut_'
'short'
'sharp_'
'shaped_'
'sge'
'sf'
'settings_'
'sending_'
'selling_'
'selecti'
'sehe_'
'seeing_'
'secular_'
'scu'
'schwachen_'
'schwach_'
'schung_'
'schnelles_'
'schlechten_'
'schafft_'
'sat'
'sand'
'sahen_'
'safer_'
'sad'
'sab'
'rti'
'routes_'
'ros_'
'roo'
'rolle_'
'roles_'
'rog'
'rock_'
'riti'
'rist'
'rif'
'riesige'
'riert_'
'rich'
'ric'
'retain_'
'restoration_'
'ression'
'ress'
'responses_'
'residents_'
'reproduction_'
'representing_'
'repeat_'
'rena'
'rema'
'rel'
'rein'
'reich'
'rei_'
'regulate_'
'regul'
'regelung_'
'regelmäßige'
'reg'
'reduziert_'
'recommendation_'
'reagiert_'
'rben_'
'ran'
'ramm'
'ral_'
'rail_'
'rah'
'racism_'
'quil'
'question'
'queries_'
'quart'
'purchasing_'
'purchases_'
'pue'
'psycho'
'prozess_'
'proximity_'
'proud_'
'pros'
'properties_'
'proof_'
'professor_'
'produktive'
'producer_'
'prevented_'
'preserve_'
'premium_'
'predictable_'
'ppe_'
'politi'
'pia'
'pflicht'
'persist'
'performed_'
'perceived_'
'pens'
'pend'
'penalty_'
'partnerships_'
'ow'
'ota'
'organ'
'ora_'
'or'
'openly_'
'op'
'ono'
'ond'
'omin'
'ology_'
'olin'
'oke'
'ohn'
'ogi'
'ode'
'oc'
'observations_'
'obs'
'oba'
'nz'
'num'
'nse'
'noticed_'
'notes_'
'nke'
'nic_'
'ngen'
'new'
'nehme_'
'ndet_'
'nda'
'nci'
'nche'
'natur'
'nas_'
'nan'
'nahmen_'
'nahezu_'
'nad'
'mü'
'mpa'
'movies_'
'mount_'
'mone'
'mol'
'moderner_'
'mobility_'
'mmen'
'mmel'
'mitge'
'mineral'
'mina'
'mil'
'mie'
'mid'
'met'
'men'
'mel'
'medizinischen_'
'meat_'
'md'
'mbo'
'max_'
'manu'
'mans'
'mano'
'mal'
'makers_'
'macroeconomic_'
'mach'
'ländlichen_'
'lter_'
'lou'
'losigkeit_'
'lokaler_'
'logie_'
'logical_'
'lock'
'llt_'
'listings_'
'lieb'
'leverage_'
'lern_'
'lenken_'
'leib'
'leb'
'laufenden_'
'lauf'
'langfristig_'
'lam'
'kä'
'kte_'
'kritische_'
'korrekt_'
'kontextuellen_'
'kontextuell_'
'komplexe_'
'kol'
'kni'
'knapp_'
'kleinere_'
'kind'
'kh'
'kers_'
'kern_'
'judge_'
'ji_'
'jetzigen_'
'izing_'
'ith'
'istic_'
'isi'
'iro_'
'iranischen_'
'involves_'
'investing_'
'investigate_'
'intervene_'
'intense_'
'intend_'
'insist_'
'inn'
'injur'
'ini'
'infi'
'inclusion_'
'impression_'
'imported_'
'imbalances_'
'ille'
'illa'
'ild_'
'ignoriert_'
'ignorieren_'
'iges_'
'ieh'
'ident'
'ick'
'ich'
'ic'
'ias_'
'höchst_'
'human'
'hot'
'honour_'
'holen_'
'holds_'
'hir'
'hinzufügen_'
'hinzufugen_'
'hidden_'
'hervorragenden_'
'hervorheben_'
'hervor'
'herunterladen_'
'hearts_'
'hast_'
'harmful_'
'hai'
'guided_'
'gratulieren_'
'grammatisch_'
'grab'
'gor'
'glaubt_'
'glaub'
'gin'
'gewo'
'gestiegen_'
'gestartet_'
'ges'
'gering_'
'generous_'
'gene_'
'geh'
'gefährlich_'
'gee'
'geboten_'
'gather_'
'gas'
'führten_'
'fühl'
'freundliches_'
'fr'
'fought_'
'formation_'
'fore'
'fordere_'
'foot'
'folgende_'
'folder_'
'flug'
'flo'
'fle'
'fix_'
'finish_'
'figur'
'festival_'
'fest'
'feasible_'
'far'
'fans_'
'fanden_'
'facility_'
'fac'
'extremen_'
'explains_'
'explained_'
'expert_'
'experiences_'
'everybody_'
'etzung_'
'etz'
'ethical_'
'esse'
'erv'
'ernsthafte_'
'ernste_'
'erm'
'erkunden_'
'erfolgte_'
'erbr'
'erba'
'equi'
'ential'
'enthalt_'
'entf'
'entdeckst_'
'enta'
'ensures_'
'engagement_'
'enforcement_'
'endorsed_'
'endet_'
'empfängt_'
'elte'
'eisen_'
'einzusch'
'einzuführen_'
'eintreten_'
'einnehmen_'
'eingesch'
'eigentliche_'
'ehr'
'egung_'
'ego'
'egel'
'ega'
'ees_'
'economist_'
'eba'
'eau_'
'eas'
'durchführen_'
'dominated_'
'domin'
'dol'
'dle_'
'div'
'distinguish_'
'distant_'
'discretion_'
'director_'
'dina'
'dig_'
'dienst_'
'dich_'
'dh'
'desktop_'
'desk_'
'derer_'
'deny_'
'demnächst_'
'def'
'deeper_'
'debating_'
'deadline_'
'dating_'
'ctions_'
'cti'
'conveniently_'
'controversial_'
'contemp'
'constraints_'
'considerably_'
'connect'
'confront_'
'concentrated_'
'communicate_'
'comme'
'come'
'combine_'
'colo'
'collect_'
'coherent_'
'codi'
'clothing_'
'clarity_'
'claimed_'
'ckung_'
'cip'
'chter'
'chemische_'
'chemicals_'
'chart'
'chan'
'certainty_'
'cell_'
'carrying_'
'capabilities_'
'cand'
'camp'
'bus'
'build'
'bought_'
'bot'
'boom'
'boat_'
'bo_'
'block'
'bling_'
'blame_'
'bis'
'bha'
'bestehende_'
'beschließen_'
'beneficial_'
'bekannte_'
'beings_'
'behörde_'
'behandeln_'
'begründet_'
'begl'
'be'
'barer_'
'bahn_'
'backing_'
'bac'
'azi'
'authors_'
'ausländischen_'
'ausgerichtet_'
'ausgel'
'ausgeführt_'
'ausf'
'auseinander_'
'aufrechtzuerhalten_'
'aufrecht_'
'aufk'
'aufget'
'aufgegeben_'
'aufgefordert_'
'aufb'
'attempting_'
'atte'
'att_'
'ato_'
'assist_'
'assigned_'
'asse'
'aspirations_'
'ase'
'array_'
'ark'
'aris'
'aria'
'anten_'
'anspr'
'anschließend_'
'annimmt_'
'angelegt_'
'angef'
'anden_'
'and'
'amm'
'amin'
'amerikanischer_'
'ament'
'allo'
'alien_'
'air'
'aine'
'agen'
'ag'
'adapt'
'ada_'
'ada'
'actors_'
'actor_'
'accounting_'
'accidents_'
'abh'
'aben_'
'abandon_'
'Zone_'
'Zoll'
'Zimmer'
'Zeitplan_'
'XI'
'Währungen_'
'Work_'
'Wit'
'Werke_'
'Werden_'
'Werbung_'
'Wende'
'Weiß'
'Weil_'
'Wechselkurs_'
'Watson_'
'Wassers'
'Ware_'
'Wachstums_'
'WC_'
'Vorschlags_'
'Vorsch'
'Vorgehensweise_'
'Vic'
'Verst'
'Verringerung_'
'Verla'
'Verkehrsmittel_'
'Verh'
'Verge'
'Verfahrens'
'Vereinigte_'
'Veranstaltung_'
'Using_'
'User_'
'Untersuchungen_'
'Unters'
'Typ_'
'Ts'
'Trau'
'Top_'
'Tochter_'
'Tisch_'
'Tig'
'Thursday_'
'Throughout_'
'Though_'
'Thomas_'
'Ten'
'Taten_'
'Tat'
'Tarifa_'
'TE_'
'Südafrika_'
'Swa'
'Sunday_'
'Strukturreformen_'
'Structural_'
'Stre'
'Standort_'
'Staatsanleihen_'
'Spo'
'Sound_'
'Sound'
'Sommer'
'Somit_'
'Sol_'
'Six_'
'Sitz'
'Sit'
'Singapore_'
'Similarly_'
'Should_'
'Semi'
'Schuld'
'Schreiben_'
'Schlüssel_'
'Schlusselwort_'
'Schlusselphrase_'
'Schle'
'Schalt'
'STO'
'SCH'
'SA_'
'Russ'
'Rubrik_'
'Rub'
'Rit'
'Richter_'
'Rich'
'Rica_'
'Rezept'
'Resolution_'
'Rent'
'Rena'
'Rela'
'Ref'
'Recent_'
'Rec'
'Real_'
'Rather_'
'RT'
'RI_'
'Punkten_'
'Prozesse_'
'Provence_'
'Professor_'
'Process_'
'Press_'
'Prague_'
'Porto_'
'Pole'
'Plus_'
'Philosophie_'
'Personen'
'Personal'
'Passwort_'
'Park'
'Pak'
'PRO'
'PP'
'Over'
'Osteuropa_'
'Orte_'
'Original'
'On'
'Off'
'Ob_'
'OS'
'OF_'
'Nummer_'
'Normal'
'Nord_'
'Nor'
'Next_'
'Nehmen_'
'Neg'
'Nazi_'
'Nachrichten'
'Mö'
'Mängel_'
'Muster_'
'Mir_'
'Metro_'
'Meter_'
'Mem'
'Mehr'
'Meeres'
'Material_'
'Maschinen_'
'Marina_'
'Marin'
'MIT_'
'Luxus_'
'Logik_'
'Listings_'
'Life_'
'Legal_'
'Lau'
'Lastly_'
'Last'
'Laeken_'
'LO'
'Kreuz'
'Kooperations'
'Kongress'
'Komp'
'Kli'
'Kie'
'Ken'
'Kat'
'Kad'
'Juden_'
'Journalisten_'
'Jer'
'Internal_'
'Institution_'
'Institut'
'Install'
'Ingenieur'
'Indiens_'
'Imp'
'IP'
'ION_'
'IK'
'IDE'
'Händler_'
'Hunger_'
'Hit'
'History_'
'Hezbollah_'
'Herz'
'Heraus'
'Hen'
'Have_'
'Hass_'
'Hardware_'
'Had'
'Haar'
'Gulf_'
'Grün'
'Gr'
'Gla'
'Gir'
'Gibt_'
'Gesetzes'
'Gerichts'
'Geneva_'
'Gene'
'Geiste'
'Gegend_'
'Geber'
'Gaulle_'
'Gast_'
'Gas'
'Games_'
'Gal'
'GP'
'GM'
'Fußball'
'Freizügigkeit_'
'Fred'
'Frank_'
'Franc'
'Fraktionen_'
'Four_'
'Flu'
'Flo'
'Fischler_'
'Fil'
'Fast_'
'Fair'
'Europol_'
'Europa'
'Essen_'
'Erst_'
'Ersch'
'Errichtung_'
'Erk'
'Erh'
'Erfolgs'
'Equal'
'Ep'
'Entwicklungsp'
'Entscheidungs'
'Enc'
'Eingabe'
'Eg'
'EU'
'EIB_'
'EF'
'ED_'
'Dublin_'
'Dritte_'
'Dos'
'Domin'
'Dollars_'
'Dol'
'District_'
'Deposit_'
'Denmark_'
'Defence_'
'Deb'
'Datenschutz'
'Darum_'
'DL'
'Custom'
'Cur'
'Culture_'
'Cooperation_'
'Content_'
'Consumer_'
'Come_'
'Code'
'Children_'
'Chan'
'Chamber_'
'Cast'
'Casino_'
'Cambridge_'
'Cal'
'Cai'
'Café_'
'CIA_'
'CE_'
'CA_'
'Bürokratie_'
'Butt'
'Bun'
'Bucht_'
'Branchen_'
'Botschaften_'
'Bibliothek_'
'Bew'
'Betten_'
'Bett'
'Beteiligten_'
'Bestand'
'Berg_'
'Based_'
'Base_'
'Bara'
'Banken'
'Band_'
'Ban_'
'Bahn'
'Badezimmer_'
'Avenue_'
'Ave'
'Außenminister_'
'Ausgangspunkt_'
'Arzneimittel'
'Area_'
'Architektur_'
'Arbeitskräfte_'
'Arbeitgeber_'
'Analysen_'
'Alexander_'
'Album_'
'Adv'
'Act'
'Abwe'
'Absichten_'
'Abschaffung_'
'AG'
'AA'
'900_'
'88_'
'70'
'69_'
'61_'
'32'
'31'
'28'
'236'
'23'
'1984_'
'1956_'
'04'
'.) _'
'. „_'
',/_'
', ‘_'
'); _'
'! '
'  _'
' -'
' ,_'
' ("_'
'…'
'ь'
'ва'
'ε'
'ünde'
'übrigens_'
'übertr'
'österreichischen_'
'ören_'
'ökonomischen_'
'ô'
'í_'
'ë'
'ê'
'év'
'éri'
'éc'
'ère_'
'äußern_'
'äst'
'ärmsten_'
'ändische'
'äm'
'ällt_'
'ällig'
'äle_'
'äd'
'äch'
'Übernahme_'
'Überl'
'Üb'
'Ökonomie_'
'Ära_'
'Änderungs'
'°_'
' –, _'
'}}) _'
'| _'
'{_'
'zwölf_'
'zweiter_'
'zweifel'
'zweck'
'zutiefst_'
'zusch'
'zukünftigen_'
'zufrieden'
'zt_'
'zon_'
'zle'
'zit'
'zig_'
'ziehung'
'zi_'
'zen'
'ysi'
'yse'
'yp'
'yer_'
'yea_'
'yard_'
'xe_'
'wurf_'
'worthy_'
'worried_'
'wirklichen_'
'wirkliche_'
'wild_'
'whenever_'
'wettbewerbsfähige'
'wel'
'weakened_'
'wasser'
'was'
'ward_'
'walls_'
'wake_'
'vulnerability_'
'vorzunehmen_'
'vorw'
'vorher'
'vorg'
'von'
'volks'
'void'
'vita'
'virtuelle'
'videos_'
'victim_'
'vet'
'veröffentlichte_'
'verzeichnen_'
'verwiesen_'
'verwaltung_'
'versa'
'vermittelt_'
'vermitteln_'
'verkaufen_'
'verein'
'verd'
'verbre'
'verbind'
'verantwort'
'veni'
'vel'
'ved_'
'vari'
'vag'
'uu'
'uta'
'usse'
'usch'
'urf'
'urc'
'updated_'
'upcoming_'
'unusual_'
'untersucht_'
'untern'
'unterb'
'unsch'
'uns'
'unknown_'
'unilateral_'
'unh'
'ungss'
'ungsr'
'ungsf'
'ungs_'
'unfair_'
'undu'
'undoubtedly_'
'unden'
'umso_'
'umfassendere'
'ular_'
'ula_'
'uin'
'uga'
'uer_'
'uct'
'uch'
'ubi'
'tungs'
'tube_'
'tta'
'très_'
'trials_'
'travellers_'
'tras'
'traders_'
'tot'
'tos_'
'tliche_'
'tlich_'
'tive'
'tiv'
'tim'
'til'
'theater_'
'texts_'
'terminal_'
'termin'
'tens'
'temperature_'
'temp'
'tee'
'taste'
'tas_'
'tap'
'tangible_'
'tali'
'tad'
'sympathy_'
'sweise_'
'suspect'
'sus_'
'suited_'
'suggestions_'
'suggestion_'
'sufficiently_'
'such'
'succeeded_'
'stützen_'
'stun'
'stuff_'
'strikes_'
'strict_'
'stoppen_'
'stimulate_'
'stem_'
'stattfindet_'
'starten_'
'start'
'stan_'
'stake_'
'stad'
'sst_'
'ssl'
'spät_'
'spill'
'sphere_'
'speziell_'
'speed'
'specify_'
'sounds_'
'sorgfältig_'
'solid_'
'slowdown_'
'slopes_'
'skr'
'ske'
'sions_'
'sin_'
'sier'
'sicheren_'
'sichere_'
'sia'
'showing_'
'shot_'
'ship'
'sheets_'
'sg'
'sent'
'senden_'
'semi'
'seemingly_'
'script_'
'script'
'screens_'
'schätzen_'
'schwei'
'scht_'
'schn'
'scher'
'sche'
'sch'
'sau'
'sand_'
'san_'
'rve'
'rufen_'
'ruf'
'rts_'
'row_'
'ror'
'rop'
'rne'
'rna'
'rmaßen_'
'rma'
'rival'
'risen_'
'rische_'
'ring'
'rightly_'
'riff'
'rgen_'
'rg_'
'revision'
'rever'
'ret'
'restrict_'
'respect'
'resp'
'resist_'
'resi'
'requests_'
'repression_'
'removing_'
'reme'
'refuse_'
'referring_'
'reco'
'rechtzeitig_'
'rech'
'receiving_'
'reale_'
'real'
'rding'
'rchi'
'ratio_'
'rasche'
'rapide_'
'racing_'
'quit'
'quer'
'qualitative_'
'qualifizierte'
'punkt'
'pru'
'proto'
'proportional'
'programming_'
'profitiert_'
'produkte_'
'pride_'
'preventive_'
'predicted_'
'pred'
'ppen_'
'ppe'
'posts_'
'postponed_'
'popul'
'pools_'
'polls_'
'poet'
'pm_'
'plötzlich_'
'placing_'
'pil'
'pig'
'pha'
'pes'
'persuade_'
'permits_'
'pel'
'patron'
'patio_'
'pat'
'pas_'
'partition_'
'parlamentarischen_'
'parameters_'
'param'
'para'
'papers_'
'pan'
'pakete_'
'overwhelming_'
'overt'
'ou'
'ote_'
'osse'
'orts_'
'orthodox'
'orte'
'orc'
'optional_'
'optimal_'
'opponents_'
'oph'
'operates_'
'om'
'olle'
'oga'
'offiziell_'
'of'
'odie'
'oca'
'observed_'
'oberste_'
'nö'
'nächster_'
'nze'
'ntra'
'nth'
'nted_'
'nste'
'nst'
'nowhere_'
'nos_'
'nord'
'nm'
'nist'
'ngs_'
'nger_'
'neun_'
'neighbourhood_'
'negotiated_'
'nde'
'ncy_'
'nau'
'nam'
'nal'
'nah'
'nage'
'nachhaltig_'
'müsse_'
'mé'
'mäßig_'
'm²_'
'multinational_'
'mpo'
'mos'
'mortgages_'
'moni'
'moment'
'modification_'
'modest_'
'mode'
'mme_'
'mixed_'
'missions_'
'missbrauch'
'minu'
'minister'
'mine'
'mi_'
'mern_'
'mente_'
'meinschaft_'
'mehr'
'mediat'
'mba'
'magic_'
'mage'
'm2_'
'lösungen_'
'lungs'
'lungen_'
'lug'
'luc'
'lt'
'lon'
'logisti'
'local'
'llte_'
'lla_'
'link'
'linguistic_'
'ling'
'light'
'lift'
'lessly_'
'lend_'
'leichte'
'lec'
'lbe'
'lay'
'langer_'
'langem_'
'lab'
'ktor'
'ktive'
'ktion_'
'kra'
'kov'
'kostenlose_'
'kost'
'kontrolliert_'
'konf'
'komm'
'klassische'
'kla'
'kit'
'kilo'
'kg_'
'kette_'
'karten_'
'kam'
'jährliche_'
'jug'
'jo_'
'jer'
'jar'
'iz'
'iver_'
'ively_'
'ito'
'isn_'
'ising_'
'ise'
'irre'
'invested_'
'interessen_'
'instructions_'
'instruct'
'installieren_'
'inspired_'
'inspection_'
'inso'
'ino'
'innocent_'
'ini_'
'ingu'
'indoor_'
'individuellen_'
'incredible_'
'incorporated_'
'incidents_'
'inan'
'implications_'
'impl'
'imagin'
'ilit'
'ilie'
'ik'
'igu'
'ieg_'
'ieb'
'ideale_'
'ible_'
'händler_'
'hte'
'hostile_'
'hoping_'
'hoped_'
'hone'
'homo'
'hohem_'
'hme'
'historically_'
'hinter'
'hinge'
'hinder'
'hervorgehoben_'
'hea'
'has'
'harmonisation_'
'harder_'
'hap'
'hang'
'handel_'
'hag'
'hafte'
'gy'
'gungen_'
'guard_'
'gste'
'grünen_'
'grund_'
'grew_'
'grenzt_'
'grass'
'gran'
'gramm'
'governed_'
'gol'
'god'
'gleichermaßen_'
'gis'
'ghe'
'gh'
'gezielte'
'gewünschten_'
'getötet_'
'getragen_'
'geschickt_'
'geräumige'
'geringer_'
'geringen_'
'gemeinschaftlichen_'
'gemeinsamer_'
'gemein'
'gelegentlich_'
'gefü'
'gefragt_'
'geblieben_'
'gebildet_'
'gebaut_'
'gation_'
'förder'
'fällen_'
'fähige'
'funktion'
'fundamental'
'fuel'
'freige'
'fraud_'
'fragt_'
'formats_'
'fläche_'
'flat'
'flash_'
'flag_'
'finances_'
'film'
'fici'
'fic'
'ffic'
'festzulegen_'
'fertig'
'fee_'
'featuring_'
'farms_'
'fahrt'
'facilitate_'
'expressing_'
'expertise_'
'expect'
'excuse_'
'evol'
'ever'
'ette'
'ets'
'eten'
'estimates_'
'ession'
'esa'
'erzielte_'
'erwerben_'
'erweitert_'
'erweitern_'
'erta'
'errors_'
'errichten_'
'erre'
'ernsthafte'
'ernsthaft_'
'erne'
'erin_'
'erhoben_'
'erfolgreiche_'
'erarbeiten_'
'eran'
'envi'
'ents'
'entdeckt_'
'entdecken_'
'enjoys_'
'enge'
'energie_'
'endgültig_'
'empty_'
'employers_'
'empire_'
'empfehlen_'
'embrace_'
'elegante_'
'einzub'
'einverstanden_'
'einstellen_'
'einst_'
'eins_'
'eingeräumt_'
'eindeutige_'
'eind'
'eil'
'ehren_'
'ehm'
'egt_'
'ege'
'egal_'
'ee'
'eden'
'ecken_'
'ebe'
'eating_'
'earthquake_'
'dw'
'duties_'
'durchge'
'dringende'
'drew_'
'downtown_'
'dot'
'dition'
'disorder_'
'ding'
'dignity_'
'digit'
'dienste_'
'dge_'
'desc'
'departments_'
'deni'
'demonstrations_'
'delivery_'
'delicate_'
'dei_'
'degradation_'
'deflation_'
'defining_'
'defeat'
'declar'
'deck'
'davor_'
'dasselbe_'
'cu'
'critique_'
'cri'
'creditors_'
'covering_'
'countless_'
'corrupt_'
'corr'
'cop'
'convicted_'
'conventions_'
'connect_'
'confront'
'confirmation_'
'competences_'
'comparable_'
'como_'
'committees_'
'codes_'
'cm_'
'closing_'
'clip'
'cler'
'clarify_'
'cla'
'cker'
'citizenship_'
'ciones_'
'chä'
'chw'
'chutz'
'chtig'
'chip'
'characters_'
'champion'
'centrally_'
'cease'
'capacities_'
'by'
'burning_'
'bureaucratic_'
'buck'
'bubble_'
'broker'
'breast_'
'brauch'
'branche_'
'boy'
'boundaries_'
'borrow_'
'bold_'
'blog_'
'blase_'
'bit'
'birth_'
'bir'
'biodiversity_'
'bio'
'bic'
'beweisen_'
'betrieben_'
'betrieb'
'besuchte_'
'bestimmter_'
'beste'
'besseres_'
'beseitigen_'
'beschl'
'bericht_'
'bereiten_'
'berei'
'berechtigt_'
'berechnet_'
'benutzer'
'behe'
'behauptet_'
'bege'
'befürchten_'
'befasst_'
'beeinflusst_'
'bedroht_'
'beantwortet_'
'basically_'
'barr'
'bares_'
'barely_'
'banned_'
'bags_'
'az'
'awarded_'
'avoid'
'avec_'
'aussch'
'ausreichende'
'ausmachen_'
'ausgeg'
'ausgedrückt_'
'ausführliche'
'aufweist_'
'aufgef'
'auch'
'attribute'
'attended_'
'attacking_'
'ator'
'assa'
'ass'
'asi'
'artner'
'artificial_'
'arn'
'archive_'
'archa'
'arch'
'appearance_'
'apologi'
'anzugehen_'
'anzeigen_'
'antis'
'anste'
'anr'
'anme'
'angekündigt_'
'ang'
'anerkennen_'
'ands_'
'ando'
'anc'
'amo'
'alts'
'alis'
'ala_'
'aj'
'airline_'
'ail'
'agi'
'aged_'
'age'
'adult_'
'ads_'
'adequately_'
'add'
'accident_'
'abzusch'
'abt'
'abst'
'abs'
'abgesehen_'
'abg'
'abf'
'abd'
'ab'
']], [[_'
'] '
']'
'Zuständigkeiten_'
'Zusammen_'
'Zus'
'Zuerst_'
'Zinss'
'Zeitungen_'
'Yugoslavia_'
'Youth_'
'You'
'Xin'
'XP_'
'Wäscheservice_'
'Wärme'
'Wä'
'Wissenschaft'
'Wireless_'
'Wind'
'Will'
'Wieder'
'Widerspruch_'
'Wett'
'Wertpapiere_'
'Werkzeuge_'
'Werbe'
'Wer'
'Weltm'
'Websites_'
'Vorhaben_'
'Vorfeld_'
'Vin'
'Vid'
'Verwe'
'Vertretung_'
'Verteidigungspolitik_'
'Versorgungs'
'Versorgung_'
'Versionen_'
'Vermögenswerte_'
'Verlängerung_'
'Verletzung_'
'Verl'
'Verfügbarkeit_'
'Vereinigung_'
'Verbrauch_'
'Verantwortungs'
'Urlaubs'
'Unterstütz'
'Unruhen_'
'Una'
'Umstände_'
'UT'
'Tschetschenien_'
'Treib'
'Treasury_'
'Transport'
'Transit'
'Touristen_'
'Torre'
'Todes'
'Tir'
'Through_'
'Thatcher_'
'Tests_'
'Tempo_'
'Telefon_'
'Tel_'
'Tao'
'Tagung_'
'Südkorea_'
'Szenario_'
'Syrian_'
'Supp'
'Sum'
'Suites_'
'Studium_'
'Streit'
'Strei'
'Strand'
'Stra'
'Stoffe_'
'Still_'
'Stil'
'Steigerung_'
'Staatsschulden_'
'Spre'
'Spr'
'Sports_'
'Spi'
'Sowohl_'
'Sollten_'
'Smoking_'
'Situated_'
'Sing'
'Simbabwe_'
'Siemens_'
'Sie'
'Sicherheitspolitik_'
'Shuttle_'
'Shop_'
'Sevilla_'
'Set'
'Sec'
'Schweizer_'
'Schr'
'Schicksal_'
'Sal'
'Rückzug_'
'Rücks'
'Rü'
'Rö'
'Run'
'Rum'
'Rose'
'Ros'
'Republicans_'
'Renminbi_'
'Rem'
'Regulierungs'
'Regional'
'Rechnungs'
'Ratspräsident_'
'Rat'
'ROM_'
'RER_'
'Queen_'
'Quart'
'Quadra'
'Qaeda_'
'Protection_'
'Prom'
'Projekten_'
'Program_'
'Profit'
'Produzenten_'
'Praktiken_'
'Potenzial_'
'Post_'
'Port_'
'Pont'
'Politikern_'
'Poker'
'Pod'
'Play'
'Piazza_'
'Performance_'
'Patten_'
'Pass'
'Part'
'Papa'
'Panorama'
'Palm'
'Out'
'Orl'
'Organization_'
'Operation_'
'Olympischen_'
'Offenheit_'
'OU'
'OT'
'OP'
'Nutz'
'Nova'
'Niko'
'Nielson_'
'Nicolas_'
'Nichtraucherzonen_'
'New'
'Net_'
'Natura_'
'Nan'
'NC'
'Männern_'
'Mutter_'
'Mut_'
'Mul'
'Moldova_'
'Mobili'
'Mio_'
'Mili'
'Milch'
'Mil'
'Migration_'
'Metro'
'Mei'
'Medizin_'
'Mechanismen_'
'Max'
'Marktwirtschaft_'
'Mario_'
'Marg'
'Manu'
'Manchmal_'
'Mana'
'Mai'
'Machthaber_'
'MD'
'Lösungs'
'Lärm'
'Luca'
'List_'
'Link_'
'Likewise_'
'Liberal'
'Lib'
'Leu'
'Lese'
'Len'
'Leg'
'Leader_'
'Lah'
'Lager_'
'Labor_'
'LDP_'
'Kru'
'Kremlin_'
'Korr'
'Konzern'
'Konto_'
'Kons'
'Konflikten_'
'Komplex'
'Kompetenzen_'
'Kolonial'
'Kollegin_'
'Kollege_'
'Koll'
'Kn'
'Klimas'
'Klassen'
'Ker'
'Kenntnisse_'
'Kamera_'
'Kalten_'
'Juan_'
'Jewish_'
'Ironi'
'Intervention_'
'Internetzugang_'
'Interessen'
'Integrität_'
'Instabilität_'
'Inhalte_'
'Ing'
'Indi'
'Inc_'
'Immobilien_'
'Images_'
'Ig'
'Ib'
'ING_'
'ID'
'Höhe'
'Höchst'
'Hände_'
'Hungary_'
'Hung'
'Hour_'
'Hom'
'Holiday_'
'Hohen_'
'Hir'
'Herzlich'
'Herz_'
'Hea'
'Hauptver'
'Hau'
'Halbinsel_'
'HT'
'HS'
'HO'
'HD_'
'Güter_'
'Grunds'
'Greens_'
'Grab'
'Gouverneur'
'Golf'
'Gil'
'Gestatten_'
'Germans_'
'Gerichten_'
'Georgien_'
'Generalsekretär_'
'Gehirn'
'Geh'
'Gegenwärtig_'
'Gefängnis_'
'Gat'
'Gas_'
'Gan'
'Fünf'
'Förder'
'Funktions'
'Frühling_'
'Friedens_'
'Fri'
'Fortunately_'
'Fleisch_'
'Five_'
'Fire'
'Finanzmärkte_'
'Ferienwohnungen_'
'Ferien'
'Fang'
'Fam'
'Fallout_'
'Faktor_'
'Fahrrad'
'FS'
'FL'
'Extrem'
'Export_'
'Explorer_'
'Excellent_'
'Eur'
'Etwa'
'Esc'
'Erreichung_'
'Erkenntnis_'
'Erdoğan_'
'Erb'
'Englisch_'
'Engine_'
'Elite_'
'Element_'
'Einschränkung_'
'Einfluss'
'Einb'
'EI'
'Durchsetzung_'
'Drogen_'
'Drogen'
'Dro'
'Drive'
'Dona'
'Dokumente_'
'Dir'
'Denken_'
'Demokraten_'
'Demo'
'Defizit_'
'Defense_'
'Darstellung_'
'Dach'
'Cruz_'
'Cru'
'Croatia_'
'Cove'
'Cond'
'Commissioners_'
'Colombia_'
'Clubs_'
'Climate_'
'Clearly_'
'Christmas_'
'Chirac_'
'Child_'
'Chief_'
'Chen_'
'Chechnya_'
'Chat'
'Castle_'
'Carr'
'Cannes_'
'Cand'
'Cana'
'CU'
'CS'
'CB'
'Büro'
'Börsen'
'By'
'Bushs_'
'Brand'
'Bot'
'Bolkestein_'
'Boh'
'Blin'
'Billionen_'
'Bill'
'Bewusstsein_'
'Beurteilung_'
'Betrug_'
'Beschwerden_'
'Besch'
'Berufs'
'Bern'
'Berliner_'
'Benjamin_'
'Beha'
'Bedürfnissen_'
'Bedrohungen_'
'Bay'
'Barón_'
'BS'
'Autor_'
'Aussichten_'
'Ausgangs'
'Ausgabe_'
'Ausflüge_'
'Ausbr'
'Aufzug_'
'Aufr'
'Aufnahme'
'Aufklärung_'
'Aufforderung_'
'Aufenthalts'
'Athen'
'Ast'
'Asiens_'
'Armuts'
'Aqua'
'Anträge_'
'Ann'
'Ank'
'Anfragen_'
'Among_'
'Alters'
'Ali'
'Albert_'
'Agrarpolitik_'
'Age_'
'Af'
'Abteilung_'
'Abkommens_'
'Abe'
'AKP_'
'= _'
'66_'
'65'
'53_'
'51_'
'33'
'29'
'1990s_'
'1985_'
'1979_'
'1973_'
'197'
'185'
'180_'
'176'
'- (_'
'+'
'))._'
'( _'
'#_'
'", "_'
' {{_'
' - '
' &_'
'” (_'
'” '
'א'
'ь_'
'ц'
'то'
'ра'
'še'
'ł'
'ündig'
'üblichen_'
'übertrieben_'
'übernahm_'
'überlegen_'
'überleben_'
'überg'
'überaus_'
'öse_'
'öre'
'ökologische_'
'öko'
'öhn'
'ét'
'él'
'è_'
'äßig_'
'äß'
'äum'
'ätz'
'äs'
'ältere_'
'ähig'
'ächte'
'án_'
'ßig'
'Überzeugung_'
'Überwachungs'
'Überleben_'
'Übera'
'Änderungsanträgen_'
'» _'
'zügig'
'zwangsläufig_'
'zuverlässige'
'zurückzu'
'zungen_'
'zul'
'zu'
'zn'
'zl'
'zis'
'zige'
'zerstören_'
'zeichne'
'yw'
'ystems_'
'ysteme_'
'yme'
'yl'
'wünscht_'
'workforce_'
'worker_'
'wood'
'witness_'
'withdraw'
'with'
'wiss'
'wis'
'wirksame_'
'winner_'
'wider'
'wherever_'
'whereby_'
'wert'
'wed_'
'weapon_'
'warned_'
'vorn_'
'vorliegt_'
'vorbe'
'vollem_'
'villa_'
'view'
'vici'
'verursachten_'
'verursachen_'
'verstärkte_'
'verspricht_'
'versorgung_'
'verse'
'verschwinden_'
'verri'
'vermieden_'
'verliert_'
'verletzt_'
'verlang'
'vergleich'
'verfügbaren_'
'verbreitete'
'verb'
'venture_'
'vention'
'vene'
'vas'
'var'
'val_'
'vacation_'
'ution'
'usage_'
'usa'
'unzählige_'
'unterbreitet_'
'ungsz'
'ungsw'
'ungew'
'unfähig_'
'unemployed_'
'underway_'
'undertaken_'
'undertake_'
'understandable_'
'unders'
'underpin'
'unanimously_'
'unange'
'umr'
'umge'
'ult_'
'ulati'
'uit'
'uh'
'uft_'
'uen'
'ude_'
'ud_'
'uci'
'täten_'
'tu_'
'tse'
'tsche'
'trib'
'trenn'
'treaties_'
'transatlantischen_'
'transaction_'
'tragedy_'
'traf'
'traditions_'
'traditionell_'
'trace'
'toxic_'
'tos'
'tol'
'toff'
'toc'
'tn'
'tm'
'tis_'
'tire'
'till_'
'tial_'
'thor'
'thermal_'
'therapy_'
'theme_'
'tf'
'test'
'tensions_'
'tension_'
'tend'
'telling_'
'teils_'
'technik_'
'teach_'
'taxpayer_'
'tatsächlichen_'
'tatsächliche_'
'tand_'
'tam'
'tabl'
'swa'
'survival_'
'surpluses_'
'sul'
'student_'
'struck_'
'strongest_'
'strange_'
'straightforward_'
'stories_'
'stoff'
'stin'
'steri'
'sterben_'
'steigende_'
'stehenden_'
'statistical_'
'startet_'
'stages_'
'stabiliz'
'stabilen_'
'ssu'
'ssen'
'spüren_'
'spur'
'split_'
'spin'
'spends_'
'spell'
'spekt'
'spect'
'specialities_'
'songs_'
'som'
'solved_'
'sog'
'smit'
'slo'
'sku'
'situationen_'
'sink'
'simpli'
'sierten_'
'shu'
'shortly_'
'shipping_'
'shal'
'sey_'
'sex_'
'severely_'
'sett'
'servers_'
'scr'
'score_'
'schönsten_'
'schwierig'
'schwerer_'
'schuh'
'schri'
'schm'
'schloss_'
'schließt_'
'schiff_'
'schein'
'schauen_'
'sat_'
'sarge'
'sant'
'sam_'
'sagten_'
'rö'
'rá'
'rust'
'rulers_'
'ruins_'
'rtet_'
'rschaft_'
'rp'
'rot'
'roof_'
'rom'
'robe'
'rn'
'rme'
'rm_'
'river_'
'rie'
'rian_'
'ri'
'rfe'
'rf_'
'restoring_'
'responded_'
'resistant_'
'repu'
'renn'
'rend'
'reise_'
'reine_'
'register_'
'refugee_'
'recip'
'rechnen_'
'realized_'
'realistische'
'realisier'
'realise_'
'rder'
'rau'
'ratifiziert_'
'raph'
'rain'
'rail'
'rai'
'rage_'
'radi'
'rade'
'racht_'
'quent'
'quellen_'
'quantities_'
'qualify_'
'qualifi'
'q'
'punish'
'pull'
'pto'
'ption_'
'prüfung'
'provider_'
'pron'
'profit'
'produzieren_'
'proceed_'
'prob'
'privatis'
'privat'
'printed_'
'pricing_'
'prevail_'
'prestigious_'
'pressures_'
'presenting_'
'presentation_'
'precious_'
'praise_'
'pper_'
'positiven_'
'por'
'polic'
'poli'
'pole'
'plug_'
'ple_'
'platz'
'plat'
'plane_'
'plan'
'pis'
'pilot_'
'pillar_'
'piel_'
'phy'
'pharmaceutical_'
'pert'
'personen_'
'personali'
'persona'
'penal'
'pel_'
'pei'
'ped'
'path'
'partic'
'partei_'
'pan_'
'oß_'
'overview_'
'otr'
'oten_'
'ost_'
'originate'
'operated_'
'opens_'
'ont_'
'onne'
'ong_'
'omo'
'ologie_'
'old'
'oka'
'oin'
'ohnehin_'
'offs'
'offen'
'odu'
'och_'
'occup'
'nü'
'nym'
'nswerte'
'nsta'
'nsion'
'nnt_'
'nne'
'nity_'
'nig'
'ngle'
'neuesten_'
'nett'
'ners_'
'neig'
'neglect_'
'necessity_'
'neben'
'nds_'
'nas'
'nan_'
'multimedia_'
'mot'
'monopoly_'
'moments_'
'moderate'
'mmi'
'mmer_'
'mmen_'
'mmelt_'
'mitteln_'
'mitglieder_'
'mite'
'missiles_'
'missile_'
'minder'
'mination_'
'mild'
'micro_'
'meta'
'mert_'
'merge'
'meistens_'
'mehrs'
'meets_'
'mee'
'medizinische'
'medieval_'
'meantime_'
'mb'
'maximi'
'master_'
'mart'
'mankind_'
'manchen_'
'mailing_'
'löst_'
'längere'
'länd'
'ly'
'lov'
'lon_'
'loi'
'llung_'
'lisierung_'
'life'
'liefert_'
'license_'
'licens'
'libr'
'liberty_'
'liabilities_'
'lia_'
'letter_'
'lengthy_'
'leistet_'
'legung'
'legte_'
'legale'
'legacy_'
'lebenslange'
'lateral'
'lacks_'
'lac'
'labelling_'
'käme_'
'kurzer_'
'kund'
'ktur'
'kräftige'
'kritisiert_'
'kraft'
'konstruktive_'
'konservativen_'
'kong'
'konfrontiert_'
'konferenz_'
'komplexen_'
'kommerzielle_'
'kne'
'klima'
'klarer_'
'kk'
'kilometers_'
'kenn'
'kehrt_'
'kap'
'kampagne_'
'jä'
'justification_'
'jekt'
'jan'
'itz'
'isten'
'irm'
'ire'
'ios'
'invi'
'invented_'
'inva'
'interview_'
'interven'
'internen_'
'interessanten_'
'inten'
'integrate_'
'institutionelle_'
'inspir'
'inne'
'init'
'inherit'
'infringement_'
'info_'
'inevitably_'
'inen_'
'incur'
'incon'
'inability_'
'immigrant_'
'illegalen_'
'ih'
'ified_'
'iffen_'
'iesen_'
'iere'
'ider_'
'ide'
'ichte'
'icher'
'ican'
'ica'
'iati'
'hörig'
'häufiger_'
'hum'
'hrte'
'holders_'
'ho_'
'hm'
'hle'
'hinaus'
'hill_'
'hier'
'hielten_'
'heutzutage_'
'here'
'heitlich'
'heel'
'heav'
'heat_'
'headquarters_'
'harmoni'
'hard'
'handled_'
'handels'
'haltung_'
'hall'
'hab'
'günstig_'
'gänzlich_'
'gungs'
'gul'
'grüne'
'gründ'
'größtenteils_'
'größe'
'grund'
'großem_'
'ground'
'grenz'
'graphi'
'grants_'
'gos'
'good'
'gma'
'globalized_'
'gie'
'ght'
'gha'
'gh_'
'gger'
'gewonnen_'
'gewe'
'gest'
'gespeichert_'
'gesorgt_'
'gesellschaftlichen_'
'gese'
'gers_'
'gerechtfertigt_'
'gent'
'gens'
'genocide_'
'geniessen_'
'genetic_'
'genes_'
'generate_'
'gend'
'gemessen_'
'geme'
'gem'
'gelo'
'gelingen_'
'geld'
'geho'
'gegner'
'gegenseitige_'
'gefährlichen_'
'gefährliche_'
'geeigneten_'
'gebunden_'
'gebr'
'gebieten_'
'gb'
'gay_'
'gam'
'fünfzig_'
'fur'
'ften_'
'fte_'
'fruit'
'freilich_'
'freier_'
'freely_'
'fortune_'
'formally_'
'forma'
'forever_'
'fold'
'flie'
'fits_'
'fit'
'firm'
'finished_'
'finanziell_'
'fifth_'
'fica'
'festen_'
'ferr'
'fei'
'favourite_'
'fault_'
'fantas'
'fan_'
'famili'
'faktor'
'extending_'
'expos'
'existed_'
'exi'
'exhaust'
'excluded_'
'ewa'
'ew_'
'ette_'
'ett_'
'este_'
'ess'
'erzw'
'erwähnen_'
'erwä'
'erungs'
'erstre'
'erstklassige'
'ersta'
'ersetzt_'
'ero'
'ermutigen_'
'erleichtern_'
'erie'
'erheben_'
'ergänzen_'
'erge'
'erfreut_'
'ep_'
'entsp'
'ents_'
'entr'
'entities_'
'entfallen_'
'entertainment_'
'ensured_'
'ensch'
'enh'
'engineers_'
'ener'
'ened_'
'empfinde'
'emotion'
'emit'
'eme'
'eliminated_'
'eligible_'
'elig'
'electorate_'
'ekti'
'ekt'
'eister'
'eintr'
'einse'
'einsch'
'einladende'
'einig'
'eing'
'eine'
'einb'
'eight'
'eigen_'
'eiben_'
'ehemalige_'
'efo'
'effektiver_'
'eff'
'ecke'
'ebu'
'ebenen_'
'ean'
'dus'
'durchs'
'dur'
'dungen_'
'druck_'
'droht_'
'drittens_'
'dramatisch_'
'doubts_'
'doubt'
'dorthin_'
'dop'
'doo'
'donor_'
'dom'
'doctors_'
'dm'
'dit_'
'disruption_'
'displays_'
'dismissed_'
'disma'
'discovery_'
'disasters_'
'disarmament_'
'direkt'
'dip'
'digitalen_'
'dieselbe_'
'dge'
'dez'
'devi'
'devastating_'
'detaillierte'
'det_'
'dest'
'describe_'
'derived_'
'deployment_'
'dent'
'denied_'
'demonstrates_'
'demanded_'
'dele'
'degrees_'
'deckt_'
'decent_'
'dauer_'
'dauer'
'dad_'
'cyclical_'
'cycli'
'cultures_'
'cul'
'creativity_'
'crash_'
'covers_'
'council_'
'cosm'
'convince_'
'converted_'
'convert'
'contributing_'
'continuous_'
'constructed_'
'consolidation_'
'consists_'
'consist'
'configuration_'
'condo'
'condemn_'
'comput'
'component_'
'compliance_'
'commission'
'collected_'
'closest_'
'clim'
'claiming_'
'cke'
'civilians_'
'circle_'
'cia_'
'chl'
'chee'
'ched_'
'cheaper_'
'characterized_'
'chafts'
'cere'
'cement_'
'catalog'
'cas_'
'cari'
'care'
'campaigns_'
'büro'
'bury_'
'bung_'
'bul'
'bte'
'brutal_'
'broadcast'
'britischer_'
'brid'
'bric'
'bracht_'
'bomb_'
'boa'
'blut'
'bli'
'bild'
'bewusste'
'bewa'
'bevorzugte'
'beträchtliche_'
'best'
'besonderer_'
'beruhen_'
'bereiche_'
'bere'
'bemerkt_'
'bemerkenswert_'
'belegt_'
'behörden_'
'beh'
'begreifen_'
'begr'
'beginn'
'befreien_'
'befa'
'bedingungen_'
'bedauer'
'bedanken_'
'beda'
'beantragen_'
'battery_'
'bath'
'baro'
'bankers_'
'bahn'
'aw'
'auto_'
'ausger'
'ausgeb'
'aufs_'
'aufn'
'aufl'
'aufgeb'
'auff'
'aud'
'attraction_'
'atten'
'atic_'
'asu'
'aste'
'assi'
'asc'
'arts_'
'artig'
'arrest_'
'arme_'
'aren_'
'arabische_'
'approaching_'
'ap_'
'anzuwenden_'
'any'
'anwesend_'
'anwenden_'
'ante'
'ant'
'anstreben_'
'anst'
'ansprechen_'
'anonym'
'annt'
'anniversary_'
'anlagen_'
'anis'
'anim'
'angewandt_'
'angebracht_'
'angeb'
'anen'
'anbelangt_'
'amend_'
'allzu_'
'allocated_'
'allerg'
'aler'
'ald'
'aktivieren_'
'aktiven_'
'akt'
'ais'
'ains_'
'ahr'
'ags_'
'agieren_'
'agents_'
'agent_'
'agend'
'aftermath_'
'afflict'
'adventure_'
'adjust_'
'adding_'
'actively_'
'acquired_'
'accus'
'accurate_'
'accordingly_'
'accelerate_'
'abzulehnen_'
'abschl'
'abr'
'abl'
'abgestimmt_'
'abgele'
'abgeben_'
'abend'
'abe'
'abandoning_'
'aa'
'Zunahme_'
'Zuh'
'Zeichen'
'Zah'
'Wis'
'Wirtschaftsf'
'Wilhelm_'
'Wiederherstellung_'
'Weltk'
'Weltb'
'Well_'
'Wel'
'Weiteren_'
'Wein_'
'Wechselkurse_'
'Wechsel'
'Warn'
'Warcraft_'
'Wandels_'
'Wahlkampf_'
'Wahlk'
'WO'
'Vors'
'Vorder'
'Volksgesundheit_'
'Vladimir_'
'Vizepräsident_'
'Vista_'
'Visit'
'Virus_'
'Vet'
'Veröffentlichung_'
'Verteilung_'
'Vernichtung_'
'Vermögen_'
'Vermi'
'Veri'
'Verhinderung_'
'Vergnügen_'
'Verd'
'Veranstaltungen_'
'Verabschiedung_'
'VI_'
'Unterkünfte_'
'Unterhaltungs'
'Uns'
'Universitäten_'
'Unbe'
'Umweltschutz'
'Umge'
'UNESCO_'
'UB'
'Tür_'
'Tyr'
'Twitter_'
'Tur'
'Tsa'
'Tourismus_'
'Tourism_'
'Tour'
'Tom'
'Tief'
'Tian'
'Theor'
'Terr'
'Ten_'
'Temperaturen_'
'Tas'
'Take_'
'Säu'
'Sturz_'
'Stri'
'Stor'
'Stock_'
'Steuererhöhungen_'
'Statt_'
'Statisti'
'Starfleet_'
'Stahl'
'Spur'
'Spezial'
'Spenden'
'Speisen_'
'Space_'
'Sp'
'Sonne_'
'Sometimes_'
'Soft_'
'Sobald_'
'Slo'
'Sil'
'Signale_'
'Sicherheitsa'
'Sicherheits_'
'Select_'
'Seg'
'Screen'
'Schwellen'
'Schweiz_'
'Schulz_'
'Schröder_'
'Schlag'
'Schlafzimmer_'
'Schla'
'Schatten_'
'Schach'
'Sch'
'Sala'
'Sad'
'Sachen_'
'ST_'
'ST'
'SER'
'Ross'
'Romney_'
'Rod'
'Rhetorik_'
'Rhein'
'Rest'
'Ressourcen'
'Reservierung_'
'Rental_'
'Renn'
'Ren'
'Reli'
'Reichtum_'
'Reduzierung_'
'Redner_'
'Rebellen_'
'Raumfahrt'
'Ratifizierung_'
'Rap'
'Rang'
'Rande_'
'Railway_'
'Question_'
'Qualifikation'
'Pros'
'Programm'
'Pot'
'Poll'
'Plenum_'
'Pilot'
'Pierre_'
'Philippines_'
'Pha'
'Pflege_'
'Pes'
'Persönlichkeiten_'
'Pel'
'Patri'
'Partnership_'
'Parti'
'Parlamentswahlen_'
'Pack_'
'PS_'
'PE'
'Ozean'
'Orts'
'Ok'
'Official_'
'Offen'
'OD'
'OC'
'Nordic_'
'Nokia_'
'Nob'
'Nikon_'
'Niederlanden_'
'Niedergang_'
'Neue_'
'Netzwerk'
'Near_'
'NT_'
'NICHT_'
'München_'
'Muslime_'
'Multi_'
'Mugabe_'
'Mozilla_'
'Mountain'
'Morgan_'
'Mora'
'Monte'
'Mond'
'Modus_'
'Missbrauch_'
'Minimum_'
'Mini_'
'Michel_'
'Messen'
'Mengen_'
'Meer'
'Marco_'
'Malaria_'
'Magn'
'ME_'
'Lü'
'Löhne_'
'Lou'
'Lot'
'Log'
'Literatur_'
'Lis'
'Linien_'
'Line_'
'Library_'
'Liber'
'Let'
'Lesung_'
'Les_'
'Leiter_'
'Leicht'
'Lehr'
'Legislativ'
'Lebensmittel_'
'Laun'
'Lar'
'Lands'
'Lama_'
'Lam'
'LT'
'LD'
'Kün'
'Kö'
'Ky'
'Kroatien_'
'Kreditkarte_'
'Krebs'
'Kontin'
'Kompromiss'
'Kommun'
'Kommissionspräsident_'
'Kommand'
'Komm'
'Kohlen'
'Koalition_'
'Kl'
'Key_'
'Kern_'
'Kau'
'Katalog_'
'Karls'
'Kap'
'Kanal'
'Kaffee_'
'Kaffee'
'Kabel_'
'KI'
'Jungen_'
'Jos'
'Jesus_'
'Jas'
'Jan_'
'Jahr'
'JP'
'It'
'Iss'
'Is'
'Iraker_'
'Intergovernmental_'
'Intel_'
'Installer_'
'Imperi'
'Ima'
'Ibiza_'
'Häfen_'
'Hypotheken_'
'Hum'
'Hot'
'Host'
'Horizont'
'Heu'
'Heizung_'
'Hei'
'Haushaltsp'
'Haushaltsl'
'Haushaltsdefizit_'
'Harmonisierung_'
'Harbour_'
'Handlungen_'
'Handelsb'
'Haiti_'
'Güter'
'Gü'
'Gö'
'Gäste'
'Grundsätze_'
'Gross'
'Graf'
'Governments_'
'Gläubiger_'
'Glo'
'Gewährleistung_'
'Gewinn_'
'Gewinn'
'Gew'
'Getreide'
'Gesicht_'
'Gerät_'
'Gepäckraum_'
'Geno'
'Generationen_'
'Gener'
'Gemeinschaften_'
'Gay_'
'GN'
'GM_'
'G8_'
'G20_'
'Fü'
'Future_'
'Früh'
'Frucht'
'Friday_'
'Freund'
'Fremd'
'Freihandels'
'Franzosen_'
'Franklin_'
'Fr'
'Fox_'
'Former_'
'Fluss_'
'Florence_'
'Flor'
'Finanza'
'Filter'
'File_'
'Fift'
'Festplatte_'
'Fern'
'Fem'
'Feld'
'Fass'
'Farbe_'
'Fall'
'Fahrzeuge_'
'Fabrik'
'FR'
'FC_'
'Exi'
'Everything_'
'Eva'
'Esta'
'Eri'
'Entw'
'Entscheidungsträger_'
'Englische'
'Energieversorgung_'
'Elevator_'
'Eisen'
'Eigentum_'
'ER_'
'ED'
'Dü'
'Dusche_'
'Dur'
'Drittländern_'
'Dritten_'
'Dou'
'Doppel'
'Donnerstag_'
'Display_'
'Director_'
'Diesen_'
'Dienst_'
'Di_'
'Dev'
'Deutsch_'
'Desktop_'
'Deng_'
'Demonstrationen_'
'Democracy_'
'Delta_'
'Delhi_'
'Def'
'Deal_'
'Dau'
'DD'
'DC_'
'DAT'
'Crespo_'
'Create_'
'Count'
'Cont'
'Congo_'
'Cle'
'Chr'
'Chip'
'Chicago_'
'Chancengleichheit_'
'Celsius_'
'Cardassian'
'Cala_'
'Cairo_'
'CR'
'CP'
'COM_'
'CE'
'CDs_'
'Bulgarian_'
'Brutto'
'Brun'
'Brief_'
'Bou'
'Borg_'
'Bord_'
'Blue'
'Bli'
'Ble'
'Blas'
'Binnenmarktes_'
'Bilanz'
'Bier'
'Beu'
'Betrag_'
'Betrachtung_'
'Betracht_'
'Bestände_'
'Besteuerung_'
'Besatzung_'
'Bereitstellung_'
'Beobachter_'
'Bene'
'Bein'
'Bee'
'Baum'
'Basis'
'Balkon_'
'Bali_'
'Bai'
'Back_'
'BU'
'BL'
'BB'
'Außen_'
'Auswe'
'Ausgaben'
'Ausblick_'
'Ausb'
'Augenblick_'
'Augen'
'Aufstieg_'
'Asia'
'Arte'
'Architekt'
'Arbeitss'
'Ara'
'Ansehen_'
'Ano'
'Annäherung_'
'Annan_'
'Anna'
'Anl'
'Ange'
'Andrew_'
'Andernfalls_'
'Andererseits_'
'Anbindung_'
'Alpen_'
'Allow_'
'Alli'
'Allah_'
'Ali_'
'Aktions'
'Akteur_'
'Ah'
'Aff'
'Adria'
'Admi'
'Achtung_'
'Ach'
'Acc'
'Abhängigkeit_'
'Abfall'
'Abendessen_'
'AVI_'
'AM_'
'AF'
'AC_'
'ACP_'
'? '
'== _'
'="_'
': '_'
'99_'
'93_'
'92_'
'86_'
'74'
'62_'
'57_'
'53'
'51'
'44'
'41'
'38'
'1st_'
'1988_'
'1971_'
'1950_'
'1948_'
'. )'
', '_'
') ._'
'!!_'
' –_'
' »_'
' ``_'
' * _'
' %._'
' $ _'
'€ _'
'”_'
'– '
'по'
'ны'
'ен'
'да'
'α_'
'α'
'č'
'ć_'
'ütze'
'ütz'
'üstung'
'ügen_'
'üche_'
'überwältigende'
'überst'
'übersch'
'überr'
'überh'
'übergeben_'
'überdenken_'
'ø'
'örtlichen_'
'örper'
'öpfung_'
'ökonomi'
'öffentlicher_'
'öf'
'ín'
'éta'
'én'
'ça_'
'å_'
'å'
'ät'
'ässt_'
'ärk'
'ärf'
'än'
'ähnlicher_'
'äh'
'ächtnis'
'â'
'Überlegungen_'
'Ölpr'
'Öko'
'®'
'« _'
'}} '
'zö'
'zwingen_'
'zweimal_'
'zusätzliche'
'zustellen_'
'zurückkehren_'
'zum'
'zivile_'
'zierte'
'ziel_'
'zia'
'zb'
'yri'
'yma'
'yen_'
'yacht'
'wä'
'wur'
'wri'
'worrying_'
'wolle'
'woch'
'witnessed_'
'withdraw_'
'wished_'
'wisdom_'
'wirtschafts'
'winning_'
'wines_'
'widerst'
'widerspiegelt_'
'wheel_'
'wes'
'wertung_'
'wertig'
'werk'
'wen_'
'wem'
'weiterzu'
'weitem_'
'weite'
'weigh'
'wart'
'warnt'
'wag'
'wa_'
'vorzus'
'vorstell'
'vorschlag_'
'vorges'
'vorgegeben'
'vorange'
'vollst'
'vollen_'
'visa_'
'vir'
'violations_'
'villages_'
'vice_'
'verze'
'verz'
'verwir'
'verwi'
'verwalt'
'versteht_'
'verstand_'
'versprechen_'
'verpflicht'
'verletz'
'verhandeln_'
'verbringen_'
'verbreitet_'
'verbrauch'
'verbindlich_'
'verbesserte_'
'verarbeiten'
'verantwortungsvolle'
'ventur'
'vent'
'veil'
'vegetables_'
'varie'
'validat'
'uzi'
'utz'
'utter_'
'uste'
'ussi'
'urz'
'urteil'
'urn'
'url'
'ure'
'updates_'
'uous_'
'unweit_'
'unverzichtbar_'
'unv'
'unterwegs_'
'unterstütz'
'unterschied'
'untersch'
'unters'
'unterge'
'unterbrochen'
'unter'
'unrest_'
'unprecedented_'
'unn'
'unmittelbaren_'
'unma'
'unl'
'unk'
'universelle'
'universe_'
'ungsge'
'uncom'
'unbekannte'
'umk'
'umi'
'uc'
'türkische_'
'tür'
'töten_'
'täts'
'tzte'
'tyr'
'typischen_'
'twi'
'turn'
'tures'
'tuna'
'ttu'
'tts'
'tting_'
'trug_'
'trou'
'tropical_'
'tric'
'treu'
'treib'
'transpo'
'trains_'
'toxi'
'tourists_'
'tot_'
'tori'
'tom'
'tolle'
'tolerance_'
'todo'
'tliche'
'tio'
'tieren_'
'tiefe_'
'tied_'
'thro'
'thin'
'theoretische'
'theoretical_'
'themes_'
'thei'
'tha'
'terroristische'
'terie'
'tely_'
'tellen_'
'teiln'
'techno'
'tche'
'tausende_'
'tat'
'tasty_'
'tarif'
'tari'
'tand'
'talent_'
'tage'
'säch'
'sä'
'systemati'
'sy'
'switched_'
'sw'
'sverfahren_'
'surviv'
'supplier_'
'succ'
'subsidiari'
'stör'
'stärkt_'
'ständ'
'stunde_'
'studie'
'stud'
'struggling_'
'strictly_'
'strengere_'
'streben_'
'stream'
'straight_'
'stor'
'stood_'
'stol'
'stoffen_'
'stimmung'
'stick_'
'steadily_'
'stea'
'station'
'starkes_'
'stande'
'stamm'
'stabiler'
'stab'
'sses_'
'ssch'
'sprachen_'
'spra'
'sponsor'
'spei'
'speculative_'
'speculat'
'speci'
'spart'
'spann'
'sorti'
'sons_'
'solide_'
'sofa_'
'socialist_'
'sno'
'smi'
'smell'
'smaßnahmen_'
'smart_'
'slight_'
'skeptic'
'ska'
'sixt'
'sitzt_'
'situ'
'sir_'
'sir'
'sinken_'
'sine'
'simil'
'sili'
'silence_'
'sil'
'signa'
'sierungs'
'side'
'sichtbar_'
'shoulder_'
'shores_'
'shire_'
'shame'
'sexuellen_'
'settlements_'
'sessions_'
'servi'
'servant'
'separate'
'sentiment_'
'sender_'
'sektors_'
'sek'
'sehe'
'sees_'
'sections_'
'secondly_'
'seas'
'sd'
'schö'
'schäd'
'schr'
'schnellen_'
'schließe_'
'schl'
'schicken_'
'schenken_'
'scheinlich'
'scarcity_'
'sba'
'satisfaction_'
'sati'
'samen_'
'saf'
'sache'
'rus'
'ruhiger_'
'rst'
'rows_'
'rounds_'
'rote'
'rose_'
'rooted_'
'romantic_'
'roll'
'rod'
'roc'
'rm'
'rly_'
'rli'
'rken_'
'risky_'
'risik'
'ris_'
'rine'
'rim'
'richtung'
'riches'
'richer_'
'revolution'
'revised_'
'reunification_'
'respektieren_'
'resolving_'
'reservations_'
'researchers_'
'repr'
'renovated_'
'renov'
'rene'
'rende'
'rem_'
'rem'
'reluctant_'
'reliability_'
'reh'
'regulators_'
'regier'
'reformier'
'refin'
'rechtliche_'
'rechtlich_'
'recht'
'rechen'
'reassure'
'realised_'
'react_'
'reaches_'
'rdin'
'ratings_'
'ratification_'
'rati'
'rage'
'raf'
'rac'
'rab'
'quot'
'quelle_'
'quanti'
'qu'
'py_'
'pus'
'pursuit_'
'pursued_'
'pull_'
'präg'
'prozesses_'
'proze'
'provo'
'proportion_'
'prophe'
'promptly_'
'prisons_'
'printing_'
'principal_'
'preventing_'
'prevailing_'
'pretty_'
'presidents_'
'preparations_'
'prejudice_'
'praktischen_'
'pragmatic_'
'potenziell_'
'pot_'
'positi'
'posed_'
'porta'
'port'
'polnischen_'
'poll'
'pioneer'
'pieces_'
'physici'
'phe'
'petit'
'pet_'
'persistent_'
'permission_'
'perform'
'peg'
'pect'
'patri'
'passt_'
'passes_'
'passen_'
'pass'
'partitions_'
'parl'
'pann'
'panic_'
'panels_'
'ownership_'
'owner_'
'owe_'
'owe'
'ous'
'ount'
'oti'
'ot'
'orti'
'orr'
'orn'
'orm_'
'orientierte_'
'organisieren_'
'ores_'
'ordnungsgemäße'
'ordnungsgemäß_'
'ordnet_'
'optical_'
'ops_'
'opera_'
'opa'
'oned_'
'onat'
'ologische'
'olo_'
'olive_'
'olen_'
'oldest_'
'oid_'
'oi_'
'ograph'
'ogene'
'odi'
'occurs_'
'observer_'
'obliged_'
'obi'
'nützlich_'
'näher'
'ny'
'nuklearen_'
'ntische'
'nter'
'nou'
'nostalgi'
'normally_'
'nobody_'
'nish'
'nightlife_'
'niederländischen_'
'nia_'
'nh'
'ngst'
'ngi'
'nern_'
'nent'
'nem'
'neg'
'ndte'
'ndes_'
'ndel'
'nationalistische'
'nant_'
'nah_'
'nada_'
'nacht'
'nachh'
'nachdrücklich_'
'nac'
'mündlichen_'
'märkte_'
'mächtigen_'
'museum_'
'murder_'
'multipl'
'multilateralen_'
'mption_'
'mpl'
'mp_'
'moves_'
'mouth_'
'mous'
'moralischen_'
'mond_'
'mon'
'modules_'
'modernisier'
'mium_'
'mittelalterliche'
'mitglied'
'minds_'
'mile'
'methoden_'
'mental'
'mei'
'mega'
'measurement_'
'measure'
'maybe_'
'massiven_'
'massage_'
'massa'
'maschine_'
'marine_'
'marginali'
'mante'
'mant'
'managers_'
'mals_'
'mala'
'main'
'magn'
'macro_'
'lä'
'lying_'
'lut'
'loyal_'
'lossen'
'losen_'
'long'
'logo_'
'lob'
'loaded_'
'ln'
'llo'
'lli_'
'llers_'
'llen'
'listening_'
'linken_'
'linear_'
'lighting_'
'liegenden_'
'liebe_'
'liebe'
'leitung_'
'leiten_'
'leidet_'
'leich'
'legali'
'lebe'
'leak'
'lder'
'law'
'lati'
'late'
'last'
'las'
'landing_'
'lande'
'label_'
'label'
'ktr'
'ktivi'
'ktions'
'kritischen_'
'kriege'
'kreuz'
'korrigieren_'
'konzept'
'konzentrierte'
'kontrollierte'
'konsum'
'kons'
'konflikt'
'komplette'
'komfortablen_'
'komfortable_'
'kleineren_'
'klar'
'kki'
'kit_'
'kis'
'kirche_'
'kins_'
'kes'
'kenne_'
'kate'
'jährlichen_'
'jegliche'
'jan_'
'ius_'
'ition'
'itet_'
'iter'
'istung_'
'issu'
'issa'
'iss'
'ison'
'islamis'
'ision'
'isieren_'
'isen'
'irt'
'irr'
'irk'
'irgendw'
'ique_'
'interrupt'
'interpret'
'interne_'
'interim_'
'interessant_'
'intellectuals_'
'integrity_'
'institute'
'installer_'
'insc'
'inneren_'
'inner'
'inj'
'ingen'
'infr'
'influential_'
'inflows_'
'infla'
'industrialis'
'indische_'
'indicators_'
'ind_'
'incident'
'impu'
'impa'
'immun'
'im'
'ilung_'
'ilia'
'ike'
'iger'
'iga'
'iffe'
'ielen_'
'iehen_'
'ieg'
'iede'
'icon'
'ichtig'
'ichert'
'icherheit_'
'ibility_'
'ibi'
'höherer_'
'hôtel_'
'hus'
'hunting_'
'hundert_'
'host'
'hospitality_'
'hos'
'honor'
'holes_'
'hoff'
'hochwertige_'
'his'
'hinzugefügt_'
'hilfe'
'hierzu_'
'hide_'
'herstell'
'hers'
'herrschen_'
'herrliche'
'herausragende'
'herausge'
'heraus'
'hera'
'hende_'
'hemm'
'heil'
'hed_'
'hed'
'hebe'
'heating_'
'hear'
'heading_'
'hd'
'haz'
'hause'
'hase_'
'harsh_'
'handed_'
'hamm'
'halt'
'halben_'
'haft'
'hac'
'haber_'
'habe'
'günstigen_'
'günstige_'
'günstig'
'gy_'
'gut'
'gur'
'gründet'
'großzügige_'
'grosse_'
'grenzen_'
'greifen_'
'gramm_'
'gradual_'
'grace'
'gni'
'glä'
'glu'
'globe_'
'gleichg'
'gle_'
'glaubwürdige'
'glad_'
'gkeit_'
'gewährt_'
'gewählte_'
'gewinn'
'gewidmet_'
'gewicht'
'getrennt'
'gestützt_'
'gestr'
'geste'
'gesellschaftliche_'
'geschw'
'gescho'
'geschm'
'geschlossene'
'gesamt'
'gerü'
'geräte_'
'gert_'
'gering'
'geregelt_'
'gerech'
'gepr'
'gepla'
'gepa'
'gent_'
'geno'
'genießt_'
'genetisch_'
'gener'
'geleg'
'gelassen_'
'gelang_'
'gekennzeichnet_'
'geistigen_'
'gege'
'gasse_'
'garantie'
'gangen_'
'führer_'
'führend'
'füg'
'fällig_'
'fälle_'
'fus'
'fti'
'friedlichen_'
'freundlicher_'
'freundlich'
'frame_'
'fragment'
'founder_'
'foundations_'
'forth_'
'formuliert_'
'form'
'forge_'
'forg'
'forder'
'forcing_'
'folgte_'
'fluss_'
'florieren'
'fließen_'
'fled'
'flawed_'
'flags_'
'fine'
'fin_'
'fi_'
'fft_'
'fetch'
'festlegen_'
'festgelegten_'
'felder_'
'feier'
'favour'
'fascinating_'
'falschen_'
'falsche_'
'fait'
'eßen_'
'ezieh'
'ey'
'externen_'
'exter'
'exportier'
'export'
'expla'
'experiment_'
'expenses_'
'existierende'
'exemption_'
'exe'
'exceeds_'
'examined_'
'everyday_'
'eute'
'euren_'
'eure_'
'etzt_'
'eto'
'esu'
'esta_'
'essa'
'esk'
'erwir'
'erwecken_'
'erson'
'ersetzen_'
'ernen'
'ermu'
'ermittel'
'erma'
'erleb'
'erhältlich_'
'ergebnisse_'
'erate'
'eradicat'
'epidemic_'
'epa'
'eo_'
'entrepreneurs'
'entra'
'enthaltenen_'
'entgegen'
'entfernen_'
'enr'
'enor'
'enni'
'enjoying_'
'ening_'
'enheit_'
'engi'
'endo'
'endi'
'encouraged_'
'encompass'
'employee_'
'emphasis'
'embedded_'
'emb'
'eman'
'elo'
'ella_'
'elev'
'ektor_'
'eit'
'eis_'
'eins'
'einricht'
'einiges_'
'einig_'
'einhei'
'einh'
'eingeschränkt_'
'eingereicht_'
'eigentlichen_'
'eho'
'egg'
'effektive_'
'effekt'
'een'
'edition_'
'ecological_'
'echt'
'echnologie'
'echn'
'echen_'
'ebo'
'eben'
'easing_'
'dying_'
'durchd'
'dumping_'
'drücken_'
'dry_'
'drinking_'
'dominate_'
'dokument'
'dog_'
'doct'
'dite'
'distinct_'
'disse'
'discovering_'
'discourse_'
'discharge_'
'diplomatischen_'
'dingungen_'
'dim'
'dikt'
'digung_'
'differen'
'diesbezüglichen_'
'deutliche'
'determining_'
'destroying_'
'deri'
'depl'
'denselben_'
'deno'
'denk'
'demonstration_'
'demokrati'
'delle_'
'dein'
'definieren_'
'defe'
'deepen'
'declined_'
'decken_'
'daz'
'databases_'
'dare'
'cting_'
'crowd'
'crop'
'cro'
'critics_'
'credits_'
'credi'
'creat'
'crat'
'coverage_'
'cove'
'cost'
'correctly_'
'correction'
'coordinat'
'coole'
'cooking_'
'cook'
'conviction_'
'conversation_'
'continua'
'contacts_'
'construct_'
'considers_'
'connecting_'
'confusion_'
'conferences_'
'confe'
'conf_'
'condemn'
'concert_'
'comprises_'
'competi'
'compact_'
'compa'
'column'
'coloni'
'collect'
'collapsed_'
'collaborat'
'colla'
'coc'
'coastal_'
'clo'
'clicking_'
'class'
'clarification_'
'cks'
'cking_'
'cken'
'cia'
'chtung_'
'chts_'
'chtigen_'
'chroni'
'choosing_'
'chni'
'chis'
'chi_'
'chaue'
'characteristics_'
'cet'
'ced'
'cca'
'cast'
'capt'
'cano'
'cancelled_'
'cam'
'cali'
'calculations_'
'calculat'
'bä'
'butt'
'burdens_'
'brother_'
'breit'
'breakdown_'
'boy_'
'bottle'
'booked_'
'bonus_'
'bon_'
'bomb'
'bod'
'boasts_'
'bo'
'blu'
'blow_'
'blo'
'blich'
'blas'
'blank'
'bisherigen_'
'biolog'
'bing_'
'binding_'
'bilit'
'bien_'
'bezug_'
'bezeichnen_'
'bewirkt_'
'beweist_'
'bewegt_'
'beweg'
'betrag'
'bet_'
'beschäftigen_'
'beschränkte'
'beschleunigte'
'beschaff'
'besagt_'
'berühmte_'
'beruh'
'bers_'
'bereitet_'
'benefited_'
'benachrichtigt_'
'bemerken_'
'beln_'
'beizutragen_'
'beinhalten_'
'behindert_'
'begrenzen_'
'begab_'
'befürwortet_'
'befindlichen_'
'bedeutsame'
'bedenk'
'bed'
'bbi'
'basierte_'
'barriers_'
'bann'
'bankruptcy_'
'banken_'
'bang_'
'bak'
'bailout_'
'aß'
'az_'
'await'
'aver'
'ava'
'außen'
'authorise'
'aut'
'auszusch'
'auswärtige_'
'ausste'
'aussehen_'
'ausreichen_'
'auslösen_'
'ausl'
'ausgenutzt_'
'ausgelegt_'
'aufwer'
'aufweisen_'
'auftreten_'
'aufrechterhalten_'
'aufr'
'auffordern_'
'auferleg'
'aufe'
'aufbauen_'
'auern_'
'audience_'
'attitudes_'
'attached_'
'ats_'
'ater'
'asymmetri'
'aster'
'asia'
'ase_'
'ars'
'arit'
'approve_'
'appreciated_'
'appr'
'appointment_'
'appoint'
'appl'
'anzug'
'anwe'
'anticipated_'
'anspruchsvolle'
'anschau'
'anne'
'ank_'
'angl'
'angez'
'anger'
'angehen_'
'angebot_'
'anfangen_'
'anf'
'ane_'
'andern'
'ande'
'anci'
'analyze'
'anal'
'amtierende'
'amt_'
'amended_'
'amazing_'
'alti'
'alte'
'allu'
'alli'
'allgemeinem_'
'alleg'
'alist_'
'alg'
'aki'
'airports_'
'airlines_'
'ahlen_'
'afte'
'afghanische'
'advice_'
'advances_'
'adjusted_'
'adidas_'
'aden_'
'addresses_'
'adapted_'
'adaptation_'
'activists_'
'activi'
'acqui'
'acknowledg'
'accounted_'
'accomplish_'
'absorb'
'abo'
'ables_'
'able'
'aan'
']] | _'
'Zypern_'
'Zwischenzeit_'
'Zweig'
'Zw'
'Zustellbetten_'
'Zukunfts'
'Zugleich_'
'Zuge'
'Zimmerbeschreibung_'
'Zehn_'
'Zauber'
'Zahlreiche_'
'XML_'
'Wy'
'Would_'
'Woods_'
'Wo_'
'Wirtschaftskrise_'
'Wirtschaftsentwicklung_'
'Wiedere'
'Wichtig_'
'Whenever_'
'Wettbewerbs_'
'Westens_'
'Welthandel'
'Wellness'
'Weiterver'
'Weis'
'Wechsel_'
'Waren'
'Wan'
'Wai'
'Wachstumsrate_'
'WHO_'
'WAR'
'Voyager_'
'Votum_'
'Vorw'
'Vorstands'
'Vorf'
'Vorbild_'
'Vorbereitungen_'
'Volle'
'Voi'
'Vit'
'Vil'
'Viertens_'
'Vertrags_'
'Versuch'
'Versi'
'Verschiebung_'
'Versand'
'Vers'
'Verordnungen_'
'Vermögens'
'Verkaufs'
'Verhaltens'
'Vereinfachung_'
'Vegas_'
'VAT_'
'VA'
'Ut'
'Unterzeichnung_'
'Unterdrückung_'
'Unsere'
'Unless_'
'Un_'
'Umstrukturierung_'
'Umsatz_'
'Ul'
'Ukrainian_'
'UE'
'UA'
'Türen_'
'Tätigkeiten_'
'Tw'
'Turb'
'Tschech'
'Trä'
'Trick'
'Translat'
'Tower_'
'Tourismus'
'Tools_'
'Tok'
'Tickets_'
'Theorie_'
'Them'
'Theater_'
'Terror'
'Terminal_'
'Technologie'
'Tea_'
'Taxi'
'Tarif'
'Tag'
'Tabelle_'
'Tabak'
'TU'
'Südost'
'Sü'
'Systemen_'
'Swoboda_'
'Swi'
'Sun'
'Summen_'
'Summe_'
'Suiten_'
'Subject_'
'Sturm_'
'Strände_'
'Struktur'
'Strecke_'
'Streben_'
'Str'
'Storage_'
'Stockholm_'
'Stiftung_'
'Steuerung_'
'Stau'
'Statistik_'
'Stat'
'Staatsbürger'
'Staatsb'
'Sri_'
'Spring_'
'Spieler'
'Spani'
'Source_'
'Solarium_'
'Solar'
'Solange_'
'Sogar_'
'Socialists_'
'Soci'
'Sisko_'
'Single_'
'Simpl'
'Sichtweise_'
'Sicherung_'
'Shops_'
'Sham'
'Server'
'Series_'
'Sensor'
'Sekunde_'
'Sektors_'
'Script'
'Schü'
'Schön'
'Schätzungen_'
'Schwer'
'Schw'
'Schuh'
'Schon_'
'Schmerz'
'Schlu'
'Schlaf'
'Saud'
'Saturday_'
'Satellite'
'Santiago_'
'SanDisk_'
'Salzburg_'
'Saharan_'
'STE'
'SARS_'
'Rä'
'Rule_'
'Roh'
'Rock'
'Ria'
'Revolution'
'Reu'
'Repr'
'Renaissance_'
'Remo'
'Reinigung_'
'Reich_'
'Regions_'
'Rede'
'Rass'
'Rand'
'RU'
'RS_'
'RC_'
'Quick'
'Quest'
'Quer'
'Publik'
'Prävention_'
'Prop'
'Projekts_'
'Programmen_'
'Profil'
'Pres'
'Prag_'
'Pos'
'Polic'
'Plätze_'
'Plu'
'Ple'
'Pl'
'Pit'
'Picard_'
'Phänomen_'
'Petersburg_'
'Peru_'
'Perl'
'Peer_'
'Pazifik'
'Patch'
'Pas'
'Parliamentary_'
'Parameter_'
'Parag'
'Para'
'Papier'
'Panel_'
'Palacio_'
'Pakt_'
'Pad'
'Paar_'
'PXI_'
'PM'
'PI'
'PDF_'
'PCs_'
'PA_'
'PAR'
'Out_'
'Others_'
'Original_'
'Ordner_'
'Optimis'
'Ombudsman_'
'Olympus_'
'Olympi'
'Oh'
'Og'
'Offizier'
'Of'
'Oc'
'ODER_'
'Nö'
'Nä'
'Null'
'Nue'
'Nik'
'Nieder'
'Never_'
'Netze'
'Netanyahu_'
'Nas'
'Nar'
'Nag'
'Nad'
'Nachhaltigkeit_'
'Nachfolge'
'NS_'
'NS'
'NGOs_'
'Mü'
'Movement_'
'Motto_'
'Motor'
'Motion_'
'Mot'
'Montenegro_'
'Monopol'
'Monats_'
'Modul_'
'Mode_'
'Mitentscheidung'
'Mitarbeitern_'
'Mir'
'Ministeri'
'Minister'
'Mine'
'Mille'
'Mill'
'Michel'
'Messe_'
'Merc'
'Mazedonien_'
'Maus'
'Matt'
'Mathematik_'
'Mars'
'Marke_'
'Map'
'Mann'
'Manche_'
'Male'
'MH'
'MED'
'Lösch'
'Länge_'
'Luxembourg_'
'Luftraum'
'Luftfahrt'
'Love'
'Lor'
'Look_'
'Long_'
'Lobby_'
'Liquidität_'
'Liikanen_'
'Lif'
'Liberalen_'
'Liberal_'
'Lev'
'Less'
'Lenin'
'Late'
'Language_'
'Landschaft_'
'Lag'
'LIN_'
'LE_'
'Königs'
'Kurd'
'Kreis_'
'Krediten_'
'Kre'
'Kontext_'
'Kontakt'
'Konse'
'Kongo_'
'Konflikts_'
'Kommissions'
'Kom'
'Kolumbien_'
'Kok'
'Klar'
'Kerry_'
'Kenya_'
'Kei'
'Kasse'
'Karriere_'
'Kanada_'
'Kalt'
'KA'
'Jur'
'Jung'
'Jong_'
'Joe'
'Jam'
'Jac'
'JA'
'Italiens_'
'Isle'
'Isa'
'Irak'
'Interi'
'Inte'
'Installations'
'Innovations'
'Innerhalb_'
'Inn'
'Infrastruktur'
'Infolgedessen_'
'Inc'
'Ill'
'Il'
'Ideologie_'
'Identifi'
'IN_'
'ICEcat_'
'IB'
'Hyatt_'
'Hop'
'Holland_'
'Hochschule'
'Hochschul'
'Hirsch'
'Hinzu'
'Hindernis_'
'Hier'
'Hi'
'Herbst_'
'Help_'
'Haut'
'Haupts'
'Hat_'
'Hart'
'Hannover_'
'HD'
'Gy'
'Gul_'
'Großm'
'Große_'
'Griff_'
'Grad'
'Gore_'
'Go_'
'Gipfel'
'Gift_'
'Gewinner_'
'Gewi'
'Gewalt'
'Gesundheitsp'
'Gestaltung_'
'Geschlecht'
'Genau_'
'Gemä'
'Gemeinschaftsp'
'Gemeinde_'
'Gelegenheiten_'
'Gegenstände_'
'Gegen_'
'Geg'
'Gefä'
'Ged'
'Gebäuden_'
'Geburts'
'Gebi'
'Ganze_'
'Galileo_'
'GH'
'Furcht_'
'Funktionsweise_'
'Fundamental_'
'Fuji'
'Frühjahr_'
'Frist_'
'Friedman_'
'Fore'
'Flug_'
'Flexibilität_'
'Finanzsektor'
'Finanzin'
'Finance_'
'Fett'
'Feinde_'
'Fehler'
'Fee'
'Fau'
'Far_'
'Fantas'
'Fahrer_'
'Experience_'
'Exe'
'Evo'
'Ever'
'Evans_'
'Estonia_'
'Esp'
'Erweiterungs'
'Erst'
'Ersparnisse_'
'Ersatz'
'Ergebnissen_'
'Ereignissen_'
'Entwicklungshilfe_'
'Ents'
'Enron_'
'Energiequellen_'
'Energien_'
'Empfehlung_'
'Ell'
'Elementen_'
'Electronic'
'Einwohnern_'
'Einschränkungen_'
'Einnahme'
'Einm'
'Einheiten_'
'Eigentums'
'Eigenschaft_'
'Ehe'
'Eco'
'Easy_'
'EWG_'
'ENT_'
'EFSF_'
'ECH'
'EB'
'Dé'
'Dutzend'
'Dre'
'Dokument'
'Document'
'Doc'
'Diskriminierung_'
'Disabled_'
'Dingen_'
'Diktatur_'
'Differenz_'
'Dienste'
'Dick'
'Deli'
'Deep_'
'Deck'
'Davi'
'Danish_'
'Daniel_'
'Danach_'
'Dai'
'DR_'
'DEN'
'Cy'
'Cri'
'Crew_'
'Court'
'Could_'
'Cost'
'Corn'
'Concer'
'Commander_'
'Colon'
'Clar'
'Cin'
'Christine_'
'Christen'
'Chemie'
'Champ'
'Cham'
'Carlo_'
'Car_'
'Capital_'
'Cameron_'
'CM'
'Büro_'
'Bühne_'
'Bücher_'
'Building_'
'Buchung_'
'Bucha'
'Bru'
'Browser_'
'Brown_'
'Branche_'
'Boutique_'
'Bour'
'Boote'
'Bond'
'Bo_'
'Bir'
'Binnen'
'Billig'
'Bildern_'
'Bilanz_'
'Bie'
'Bezug'
'Bezeichnung_'
'Bewegungen_'
'Beweg'
'Bevölkerungs'
'Betreiber'
'Bet'
'Bestrebungen_'
'Best'
'Berichterstattung_'
'Bereits_'
'Ben_'
'Bekanntlich_'
'Bekannt'
'Begründung_'
'Bege'
'Beförderung_'
'Befugnisse_'
'Befehl'
'Bedien'
'Beamte_'
'Bauern'
'Banker_'
'Bahrain_'
'Bach'
'BM'
'Ay'
'Außenministeri'
'Austausch'
'Augenmerk_'
'Auftr'
'Aufsch'
'Aufhebung_'
'Atomwaffen'
'Ate'
'Army_'
'Archer_'
'Arabs_'
'Appe'
'Apo'
'Anwendungs'
'Anwe'
'Anwa'
'Anth'
'Anteil'
'Ansprüche_'
'Anpassungs'
'Anpassungen_'
'Anleihe'
'Angriffe_'
'Analys'
'Ami'
'Alpe'
'Allein_'
'Alc'
'Albu'
'Albani'
'Aktionsplan_'
'Aktien_'
'Akti'
'Akte'
'Akt'
'Airways_'
'Afrikas_'
'Account'
'Acco'
'Abzug_'
'Ablauf_'
'Abenteuer_'
'Abend'
'Abbau_'
'A6_'
'>'
'=='
';% _'
'91_'
'83_'
'82_'
'71_'
'7'
'58_'
'47'
'215'
'20th_'
'1900_'
'181'
'0ern_'
'0er_'
'002'
'--'
'%_'
'") _'
' » _'
' ­'
' = [[_'
' ..'
' --> _'
' &#_'
'”) _'
'я_'
'я'
'но'
'ли'
'ка'
'ит'
'г'
'в_'
'б'
'ι'
'üte'
'üll'
'ückt'
'überwacht_'
'übernahme'
'überhöhte'
'überein_'
'öst'
'öhungen_'
'ór'
'ña'
'és'
'äus'
'äumt_'
'äufe_'
'ätte'
'ässe'
'äsenta'
'äni'
'ändige'
'ändert_'
'änder'
'ämpfe'
'älteste_'
'ält_'
'älle_'
'ä_'
'ár'
'ál'
'Übersetzungs'
'Überschuss'
'Überraschung'
'Äg'
'·'
'° _'
'«'
'  '
' '
'}} _'
'{'
'züge'
'zzi'
'zykl'
'zweites_'
'zuw'
'zustande_'
'zurückz'
'zurückl'
'zurzeit_'
'zulässig'
'zukünftig'
'zugesch'
'zug_'
'zte'
'zoo'
'zones_'
'zon'
'zol'
'zog_'
'zo_'
'zk'
'zig'
'ziert_'
'ziele_'
'zers'
'zeitige'
'zeichnet_'
'zei'
'zahlungen_'
'ypte'
'yl_'
'yield_'
'yd'
'yar'
'xes_'
'wusste'
'wunderschönen_'
'wound'
'word'
'wol'
'wohin_'
'wirt'
'willingness_'
'willen'
'will'
'wiesen_'
'wiederherzustellen_'
'wiederge'
'widerspiegeln_'
'widening_'
'wic'
'wi_'
'wettbewerbs'
'westlich_'
'west'
'wertvollen_'
'werte'
'wende_'
'wellness_'
'weißen_'
'weiße'
'weiche'
'wege_'
'wee'
'wechseln_'
'wear_'
'wealthy_'
'weake'
'waves_'
'watche'
'wash'
'warn'
'warme'
'warf'
'ware'
'ward'
'wahrscheinliche'
'völlige'
'völker'
'vorübergehend_'
'vorteil'
'vorschr'
'vorrangig'
'vorn'
'vorliegen_'
'vorhandenen_'
'vorgeschlagene_'
'voranzutreiben_'
'volunteers_'
'vollständigen_'
'visitor_'
'visiting_'
'virtu'
'violation_'
'vide'
'vi_'
'vessel_'
'verä'
'verweigern_'
'verwei'
'vertritt_'
'vertraut_'
'vertrauen_'
'vertrag'
'vertr'
'versäum'
'versus_'
'verständliche'
'versprach_'
'versetzen_'
'verschwendet_'
'vers_'
'verr'
'vermögen_'
'vermei'
'verm'
'verläss'
'verlor_'
'verl'
'verkl'
'verhaftet_'
'vergrößern_'
'vereinig'
'vereinfacht'
'verda'
'verbrachte_'
'verbot'
'verbieten_'
'verar'
'veranstalte'
'veraltet'
'verabschieden_'
'verabsch'
'vast'
'variations_'
'valley_'
'validity_'
'vac'
'utze'
'utiliz'
'usgaben_'
'usel'
'urgency_'
'ural'
'uption_'
'ups'
'upper_'
'upgrading_'
'unum'
'unterz'
'unterliegt_'
'unterl'
'untere'
'unsu'
'unse'
'unsa'
'unr'
'unktion'
'union'
'unification_'
'ungsver'
'ungssystem'
'ungsprogramm'
'ungsk'
'ungleiche'
'ungen'
'unerw'
'underw'
'undermine'
'unde_'
'uncon'
'unbegrenzte'
'unab'
'umpf'
'umgehen_'
'umfassen_'
'umfang_'
'umb'
'ulent_'
'uis'
'ui_'
'ui'
'ugs'
'ufs'
'uert_'
'uck'
'uchs'
'ub_'
'ualität_'
'ual'
'typische_'
'typ'
'two'
'twentieth_'
'twe'
'turno'
'tune'
'ttle'
'tschen'
'träger'
'träg'
'trä'
'truppen_'
'trum'
'troubled_'
'transportier'
'translated_'
'translat'
'transform_'
'transfer'
'transactions_'
'trage'
'tradition'
'touristi'
'torture_'
'topp'
'tooth_'
'tolerate_'
'tod'
'tlin'
'tioni'
'tiny_'
'ting'
'tin_'
'timely_'
'tili'
'tile'
'tighten'
'tige'
'tiere'
'tiefer'
'tie_'
'tia'
'threaten_'
'thread_'
'thick'
'theories_'
'theme'
'thee_'
'teure'
'tern_'
'teria_'
'tere'
'tera'
'tenu'
'temperatures_'
'teilig'
'tehen_'
'teh'
'technologischen_'
'technologi'
'tax'
'tausch'
'tape'
'tant_'
'tanks_'
'tankers_'
'tale'
'tai'
'tags'
'tactic'
'taat'
'säu'
'synchroniz'
'switch'
'sweet'
'swap'
'suspension_'
'sus'
'survey_'
'surprisingly_'
'supplied_'
'supervisory_'
'supermarkets_'
'superf'
'superb_'
'suns'
'sum'
'suits_'
'sui'
'subway_'
'substitute_'
'substitut'
'subsi'
'subjects_'
'städtische'
'städte'
'strukturen_'
'strukturellen_'
'struktur_'
'struggles_'
'strom_'
'strip'
'string'
'strik'
'stressed_'
'strengthened_'
'strain'
'storm'
'stolz_'
'stimmte'
'stern'
'stereo'
'stellten_'
'stein'
'steigt_'
'steer'
'steam_'
'steady_'
'stattgefunden_'
'standardis'
'stammt_'
'stak'
'stair'
'stagnation_'
'stabile_'
'sta_'
'ssung'
'ssta'
'ssors_'
'ssische'
'ssions'
'ssige'
'späteren_'
'sprü'
'sprozess_'
'spro'
'sprachliche'
'sprache_'
'spolitik_'
'spite_'
'speziellen_'
'spezi'
'speeches_'
'spectacular_'
'spare_'
'sowjetischen_'
'sow'
'souveräne'
'sou'
'solven'
'sociali'
'smu'
'smo'
'sman_'
'small'
'slowly_'
'sleeping_'
'sle'
'sky'
'sitzen'
'sische'
'silver_'
'silent_'
'signifikant'
'signature_'
'sichtlich_'
'sicht'
'sib'
'shutt'
'shrink'
'shou'
'sher'
'sheer_'
'sges'
'sfo'
'setz'
'serbische'
'sensi'
'sensation'
'sende'
'semi_'
'seller'
'seits_'
'seiner'
'seh'
'securi'
'screening_'
'sco'
'scienti'
'schädliche'
'schwer'
'schweigen_'
'schwedischen_'
'schulde'
'schritt'
'schrieb_'
'schon'
'scholar'
'schnellere'
'schneide'
'schluss_'
'schlu'
'schli'
'schlag'
'schafts'
'saubere_'
'saubere'
'satz_'
'satisf'
'santa_'
'sang'
'sammeln_'
'salt_'
'sak'
'rz'
'rw'
'rup'
'rul'
'ruhe_'
'ruch'
'rto'
'rsta'
'rre'
'rra'
'royal'
'ron_'
'roman'
'rol'
'roh'
'rogramm_'
'robot'
'roa'
'rnähr'
'rnen_'
'rmo'
'rklärung'
'rke_'
'rivers_'
'rival_'
'rises_'
'risch'
'ript'
'riot'
'rio'
'rige_'
'rig_'
'rift_'
'rier'
'rien'
'rieb'
'rid_'
'richtig'
'richtet_'
'richt_'
'rian'
'rez'
'review'
'reveal_'
'resu'
'resse'
'respond'
'reso'
'resist'
'resign'
'reserv'
'repar'
'repair_'
'renminbi_'
'renewed_'
'render'
'remuneration_'
'remit'
'religi'
'relevante'
'relatives_'
'relat'
'reitung'
'reit'
'reisen_'
'reis_'
'reichlich'
'reichende'
'reiche_'
'reiche'
'reha'
'regen'
'reformen_'
'referendums_'
'reductions_'
'recipe_'
'rechtfertigen_'
'reason'
'reas'
'realiz'
'readily_'
'reader_'
'react'
'rdig'
'rci'
'rbeit'
'rbe'
'ray_'
'rats_'
'ration_'
'ratio'
'ratifizieren_'
'rategie_'
'rated_'
'rate'
'rarely_'
'ranks_'
'rank_'
'range'
'rand_'
'raid'
'rahmen_'
'radio'
'radikale_'
'radiation_'
'radar_'
'quiv'
'quie'
'ques_'
'qualit'
'qualifizierten_'
'qualifications_'
'pursuing_'
'purely_'
'pup'
'puls'
'publi'
'ptions_'
'ption'
'psychologi'
'propo'
'proliferation_'
'prohibited_'
'professionelle'
'profession_'
'profess'
'privilege_'
'printer_'
'pria'
'presu'
'preserved_'
'prescribe'
'preparing_'
'premier_'
'premature_'
'prefer'
'prechen_'
'praktikable'
'prach'
'ppi'
'poten'
'postpone'
'possess'
'portugiesische'
'porti'
'popula'
'poorly_'
'poorer_'
'poly'
'pollut'
'policymaking_'
'pola'
'poker_'
'pointing_'
'pläne_'
'plä'
'plung'
'plum'
'platforms_'
'plant'
'plain_'
'pipe'
'piel'
'physische'
'photograph_'
'pfer'
'petition_'
'person'
'permit_'
'periode_'
'peer_'
'peace'
'patrioti'
'patient_'
'paths_'
'pate'
'passende'
'participating_'
'participated_'
'partei'
'panoramic_'
'pane'
'paket_'
'pair'
'packen_'
'packaging_'
'pac'
'ozi'
'oxi'
'oversight_'
'overseas_'
'overs_'
'overl'
'overb'
'outset_'
'outs_'
'outrage'
'outlined_'
'outline_'
'oute'
'outdated_'
'outcomes_'
'outbreak'
'oun'
'osl'
'ose'
'osa'
'ort'
'orn_'
'orientierten_'
'ori_'
'orge'
'organize_'
'organisierte_'
'organisi'
'org'
'ore'
'ordn'
'ordert_'
'ordentliche'
'optimier'
'optimale_'
'opia'
'operator_'
'opera'
'onym'
'ones'
'onds_'
'onde'
'omp'
'omiss'
'ologi'
'olog'
'oliti'
'ola'
'ohner'
'ogg'
'officer_'
'offene'
'offe_'
'oda'
'ock'
'observe_'
'objekt'
'obe'
'oasis_'
'nä'
'nut'
'nuestr'
'ntl'
'nsula_'
'nsu'
'nqu'
'np'
'novel'
'nous_'
'notification_'
'nost'
'norms_'
'nob'
'nnung_'
'nner'
'nment_'
'nj'
'nischen_'
'nisc'
'nige'
'nier'
'niederl'
'niederge'
'nick'
'nichts'
'nian'
'nheit_'
'ngr'
'nga'
'ney_'
'newsletter_'
'neuere_'
'neuer'
'netze_'
'nets_'
'nesian'
'nesi'
'nese_'
'nel'
'neighbor'
'neide'
'nego'
'nea'
'ndliche'
'nces_'
'nbe'
'nba'
'natürliche_'
'narrow_'
'nachweis'
'müh'
'möge_'
'märkten_'
'má'
'mysql'
'musik_'
'mur'
'mund'
'multilaterale_'
'multilateral'
'mt'
'mpi'
'mov'
'mouse_'
'mos_'
'morat'
'moralisch'
'moo'
'mona'
'modes_'
'mobilis'
'mmt_'
'mix'
'mittleren_'
'mittelfristig'
'misst'
'misma'
'mischen_'
'mische_'
'misch'
'ming'
'mind'
'militärisch_'
'migra'
'mie_'
'mher'
'mesis'
'melt'
'meldungen_'
'mein'
'media'
'mechanismus_'
'mathematical_'
'masters_'
'master'
'massiv_'
'market'
'marken'
'manufacturer_'
'manufacture'
'mangelnde_'
'mandatory_'
'maj'
'mais_'
'mai'
'magneti'
'magazine_'
'mad'
'macht'
'mac'
'lös'
'längerfristige'
'län'
'läge_'
'läche'
'lz'
'lve'
'lv'
'luxuriöse_'
'lust'
'luss'
'lusion'
'ltung'
'lts'
'lto'
'lth'
'lter'
'lte'
'low'
'loud'
'lohnt_'
'logi'
'lod'
'locked_'
'loan_'
'lling_'
'llig'
'lj'
'lively_'
'lity_'
'literar'
'listened_'
'liste'
'lism'
'liner_'
'linder'
'lina'
'limiting_'
'lift_'
'lieben_'
'liberation_'
'liberale'
'liber'
'lib'
'leverag'
'lev'
'letztendlich_'
'letters_'
'lens_'
'lel'
'leitet_'
'lebung_'
'lean'
'laying_'
'lava'
'lass'
'lame'
'lai'
'lacking_'
'kürz'
'kümmern_'
'kü'
'körper'
'könnt_'
'kwa'
'kurzfristige_'
'ktiv_'
'ktionen_'
'kräftig_'
'kritisieren_'
'kriti'
'kopieren_'
'konzipiert_'
'kontinuierliche'
'kontaktieren_'
'konstru'
'komplexer'
'komplette_'
'kommand'
'kombiniert_'
'kolle'
'km²_'
'kleines_'
'klassischen_'
'klare'
'kehrs'
'kehr'
'keen_'
'ked_'
'jähriger_'
'juristische'
'junta_'
'jump_'
'judgment_'
'jeopardi'
'jen'
'jeglicher_'
'jed'
'jas'
'jahr'
'izier'
'iza'
'ive'
'iv'
'itive_'
'ition_'
'itin'
'isung_'
'istans_'
'istan_'
'isolation_'
'ishing_'
'ised_'
'irregular'
'irreführend'
'irischen_'
'iri'
'irgendwann_'
'irgendeine'
'irat'
'iranische_'
'ipe'
'ion'
'invent'
'invasion_'
'intri'
'intra'
'inti'
'interinstitutional_'
'interessante_'
'intensiven_'
'intensiv_'
'integrierten_'
'integra'
'insur'
'insult'
'instrument'
'institutione'
'instabil'
'inse'
'inos_'
'inner_'
'initiated_'
'initi'
'inhuman'
'ingli'
'informa'
'infolge_'
'inflationary_'
'inexp'
'ineff'
'indu'
'indirekt_'
'indigenous_'
'indications_'
'indication_'
'indicat'
'inder_'
'increment'
'incorporate_'
'inch_'
'inb'
'inadequate_'
'inad'
'impri'
'imply_'
'imperial'
'immunity_'
'imier'
'imi'
'imat'
'ilt'
'illusion_'
'illo'
'ille_'
'ilig'
'ilfe_'
'ild'
'iki'
'ikat'
'igr'
'igkeiten_'
'igi'
'igende'
'igen'
'iften_'
'ift'
'iff_'
'ife'
'iev'
'ierbar'
'iell'
'ied'
'iebe_'
'ider'
'identifizieren_'
'identical_'
'iden'
'ideally_'
'idealer_'
'icti'
'ico'
'icherung_'
'ibu'
'iale'
'iPod_'
'hübsch'
'hü'
'hör'
'hängen_'
'husband_'
'humanitäre'
'hub'
'hro'
'hri'
'hre'
'hr_'
'house'
'horse_'
'horn'
'hori'
'honest'
'hom'
'holdings_'
'holder_'
'hochwertige'
'hnl'
'hnen_'
'hne_'
'hmen_'
'hinzu_'
'hinweg_'
'hinweg'
'hinein_'
'hind'
'hike_'
'highway_'
'highlights_'
'highlighted_'
'hervorge'
'hert'
'herstellen_'
'heroi'
'herkömmlichen_'
'herein'
'heran'
'hend'
'hell_'
'heim_'
'hazardous_'
'hav'
'haus'
'hate_'
'hast'
'harm'
'halb_'
'halb'
'gäng'
'gutem_'
'gun_'
'guin'
'guard'
'grundsätzliche'
'großartig'
'groß'
'grobe'
'gri'
'greift_'
'grati'
'grain_'
'grade_'
'gno'
'gnan'
'gna'
'gly'
'globally_'
'globalis'
'glieder'
'glich_'
'gipfel'
'gig'
'gia'
'gi_'
'ghte'
'ggle'
'gge'
'gewisser_'
'gewicht_'
'gewalttätige'
'gewaltigen_'
'gestattet_'
'gesp'
'gesichert_'
'gescha'
'gesa'
'gerung_'
'gericht'
'geographical_'
'gentu'
'generier'
'gemütliche_'
'gelöscht_'
'gelernt_'
'gelegenen_'
'gelangt_'
'geko'
'geka'
'gehe_'
'gehalt'
'geführten_'
'gefe'
'gefasst_'
'gefangen_'
'gefa'
'geeignete_'
'gedr'
'gede'
'geda'
'gebiete_'
'gathered_'
'garage_'
'gaining_'
'fünfte'
'fut'
'funk'
'fungier'
'frühere_'
'früh_'
'frisch_'
'freundlichen_'
'frequen'
'freez'
'fram'
'fragil'
'fou'
'fortunate'
'fortgesetzt_'
'forsch'
'formale'
'foreseeable_'
'foods_'
'flüge'
'fläch'
'flugzeuge'
'fliegen_'
'flee'
'fl'
'fische'
'finger'
'fication_'
'feuer'
'fests'
'festges'
'feste_'
'fertili'
'fern_'
'feren'
'fehlenden_'
'fehlen'
'feed'
'feder'
'fax_'
'favourable_'
'fathers_'
'fatal'
'faszinier'
'fassen_'
'farm'
'farbe'
'fan'
'familien'
'fall'
'fairer_'
'failing_'
'fahrzeuge_'
'factory_'
'factories_'
'eze'
'extremist'
'externe'
'exposed_'
'exploit_'
'explizit'
'experiments_'
'exhibition_'
'exert_'
'executive_'
'executed_'
'excu'
'excellence_'
'exceed'
'ewi'
'ew'
'evolution_'
'evidently_'
'eventuelle'
'evan'
'evaluate_'
'ev'
'europäisches_'
'europa'
'europ'
'etting_'
'etra'
'etische'
'eternal_'
'ete'
'etch'
'eta_'
'estimate_'
'eso'
'esch'
'esc'
'erweiterte_'
'erwartete'
'ervice_'
'erupt'
'eru'
'erte'
'erse'
'erschienen_'
'erro'
'erreich'
'erra'
'erpr'
'erp'
'erod'
'ernannt_'
'ermöglichte_'
'ermä'
'ermutigt_'
'erklär'
'eric'
'eria'
'erhol'
'erho'
'erhebliche_'
'erfolgreichste'
'erfolgreicher_'
'erer_'
'erbaut_'
'episode_'
'entzieh'
'entwicklung_'
'entspannen_'
'entse'
'entscheidungen_'
'entscheid'
'entrepreneurial_'
'entle'
'entity_'
'enthusias'
'entgegenzu'
'entertain'
'ensu'
'enrichment_'
'eno'
'enis'
'engage_'
'eng'
'enfr'
'energ'
'ends_'
'endgültigen_'
'endeavour'
'enda'
'ency_'
'ences_'
'enburg_'
'enact'
'employ'
'empfiehlt_'
'emissionen_'
'ementi'
'emen'
'embargo_'
'els'
'elpreis'
'elites_'
'elit'
'elf'
'elektroni'
'ej'
'eitung_'
'eitet'
'eisung'
'eise'
'einste'
'einsetzt'
'einschl'
'einr'
'einm'
'einla'
'eingeschl'
'eingeg'
'eindr'
'einbezogen_'
'eilen_'
'eignet_'
'eigenem_'
'eigen'
'eige'
'eien_'
'eich_'
'eg_'
'eg'
'effizienter_'
'effizient_'
'effektiven_'
'eed'
'eck'
'echter_'
'eager_'
'eable_'
'dü'
'dynamism_'
'dynamische'
'dy'
'durchsetzen_'
'dumm'
'dte'
'dräng'
'dry'
'druck'
'drought'
'drohende'
'drin'
'dream'
'draw'
'drasti'
'drafted_'
'draft'
'downside_'
'doubl'
'dor_'
'doppelte'
'dlich'
'dle'
'divid'
'distort'
'distin'
'dissident'
'disin'
'dische'
'disagree_'
'dirty_'
'direct'
'dioxide_'
'differently_'
'differentiate'
'diesbezügliche_'
'diert'
'diction'
'diagnosti'
'diagnose'
'dia'
'dhi'
'df'
'devo'
'developer'
'deux_'
'despair_'
'desired_'
'designated_'
'desa'
'dero'
'derjenigen_'
'deprived_'
'depress'
'deposit_'
'deport'
'deploy'
'dependence_'
'dense'
'dene_'
'demonstrators_'
'democrat'
'dell_'
'deliberately_'
'delet'
'delegate'
'deg'
'defi'
'defensive_'
'decor'
'decides_'
'decentrali'
'dece'
'dauert_'
'dauerhafte_'
'dateien_'
'dankbar_'
'damaging_'
'cycles_'
'cut'
'cus'
'cue'
'cts_'
'ctor'
'crystal'
'cry_'
'critici'
'criterion_'
'creature_'
'copie'
'controller_'
'contract'
'contest'
'contaminated_'
'consume'
'constructi'
'constrain'
'consisten'
'conservation_'
'cons'
'cong'
'confronted_'
'confo'
'confined_'
'config'
'confident_'
'conductor'
'conditional'
'conciliation_'
'concessions_'
'concepts_'
'concentration_'
'conc'
'complained_'
'complain_'
'compile'
'competence_'
'compatibility_'
'commonly_'
'commercial'
'comfort'
'colonial_'
'college_'
'coincide'
'coherence_'
'coast'
'clou'
'clinical_'
'clau'
'clash'
'clara_'
'circles_'
'cian'
'chtung'
'chsen'
'christ'
'chrift'
'chr'
'chme'
'chliche'
'chin'
'chill'
'chief'
'chara'
'chapter'
'chances_'
'chair_'
'chaft'
'cepti'
'centrali'
'censorship_'
'ceiling_'
'cci'
'cater'
'casinos_'
'casino_'
'carrier_'
'capture_'
'capitalist_'
'cann'
'camp_'
'calm_'
'cabin'
'bürgerliche'
'burn_'
'bull'
'bubbles_'
'brüc'
'brä'
'brutal'
'broke_'
'brochure'
'broadly_'
'breach_'
'branche'
'branch_'
'brake'
'bout'
'boosting_'
'boo'
'bombs_'
'bog'
'boards_'
'blä'
'bloße'
'blow'
'blogs_'
'blind'
'blieben_'
'blick_'
'bitter'
'binde'
'billig_'
'bill'
'bili'
'bike_'
'bigger_'
'big'
'bewahren_'
'bew'
'bevorzugen_'
'bevorstehenden_'
'bev'
'betre'
'betray'
'betra'
'betr'
'beteiligen_'
'besucht_'
'beständig'
'bestrafen_'
'bestr'
'besticht_'
'bester_'
'besetzte'
'bert_'
'berichtet_'
'berichten_'
'bereitstellen_'
'bereitgestellt_'
'berech'
'berate'
'bemerkenswerte'
'belt'
'beliefs_'
'beliebige'
'belegen_'
'bekräftigt_'
'beklag'
'bekannteste'
'beiträgt_'
'behold_'
'behinder'
'begrenzten_'
'begrenzte'
'begleiten_'
'begangen_'
'beförder'
'bedingten_'
'bedienen_'
'beau'
'bean'
'beabsichtigt_'
'bbe'
'bb'
'bathing_'
'basket'
'ballot_'
'balcony_'
'bail'
'ays_'
'awi'
'awful_'
'avoided_'
'außergewöhnlichen_'
'autoritäre'
'automatic_'
'authoritarian_'
'ausüben_'
'auszur'
'auszugleichen_'
'auszuge'
'ausw'
'ausstatt'
'ausreichende_'
'ausgewählt_'
'ausgesch'
'ausges'
'ausgebildete_'
'ause'
'aufz'
'aufwa'
'aufstrebende'
'aufst'
'aufgewe'
'aufgerufen_'
'aufgeben_'
'aufen_'
'atur'
'attraktive_'
'attraktive'
'attract'
'attending_'
'attain'
'attacked_'
'ato'
'ation'
'ater_'
'atemberaubende'
'atel'
'astr'
'asto'
'assung_'
'assuming_'
'assist'
'assignment'
'assessments_'
'assembly_'
'ass_'
'asks_'
'asiatische_'
'ash'
'arro'
'arrive_'
'arri'
'aro_'
'arme'
'arin'
'argumentiert_'
'arc'
'arbeiter_'
'arat'
'appar'
'ape'
'anzus'
'anyway_'
'anybody_'
'anu'
'antworten_'
'antr'
'anticipat'
'ansteigen_'
'anschließen_'
'announce_'
'anlässlich_'
'anische_'
'angewiesen_'
'angesprochene'
'anger_'
'angenehme'
'angenehm_'
'angemessen_'
'anfäng'
'anfällig_'
'ancy_'
'anb'
'analyse_'
'ampl'
'altung_'
'altige'
'allocation_'
'alla'
'alkohol'
'alism_'
'alanc'
'akzeptabel_'
'ake'
'ais_'
'ain_'
'ahren_'
'ahlt_'
'agt_'
'ago'
'aggressive'
'aga'
'afraid_'
'affecting_'
'advan'
'admitted_'
'adhere'
'ades_'
'actress_'
'accu'
'academic_'
'abz'
'absent_'
'aboard_'
'abgew'
'abgehalten_'
']]'''
'] ._'
'Zustände'
'Zust'
'Zugeständnisse_'
'Zucker_'
'Zor'
'Zins'
'Zh'
'Zertifikat'
'Zentralasien_'
'Zell'
'Zeitalter_'
'Zahlung_'
'Yugoslav_'
'Yemen_'
'Xiao'
'XL'
'Wählern_'
'Wunder'
'Wri'
'Works'
'Wohnungs'
'Wirtschaftsp'
'Winds'
'Willkommen_'
'Wieder_'
'Wichtigkeit_'
'WiFi_'
'Who'
'Where'
'Wes'
'Wen_'
'Weltge'
'Weiterhin_'
'Weihnachten_'
'Wed'
'Wea'
'Watch_'
'Wasch'
'Wal'
'Wah'
'Waffenstillstand_'
'WP'
'WASHINGTON_'
'Vs_'
'Vorstellungen_'
'Vorst'
'Vorsitzende_'
'Vorhersage'
'Vorgänger_'
'Vorgänge'
'Voraus'
'Visual_'
'Visi'
'Visa'
'Village_'
'Villa'
'Viktor_'
'Vielmehr_'
'Victoria_'
'Veränderung_'
'Verzeichnis_'
'Verwa'
'Vertrauens_'
'Vertrauens'
'Vertrages_'
'Vertr'
'Vertei'
'Verstä'
'Versicherungen_'
'Versammlung_'
'Verr'
'Vern'
'Vermittlungs'
'Verhältnisse_'
'Verheugen_'
'Verfassungsvertrag_'
'Verbreche'
'Verantwortlichkeit'
'Veranstaltungsräume_'
'Vene'
'Varia'
'Van'
'VD'
'Utopi'
'Users_'
'Uruguay_'
'Unterscheidung_'
'Unterricht'
'Untere'
'Unst'
'Universum'
'Universitäts'
'Umweltfragen_'
'Umweltbe'
'Umsch'
'US'
'Twin'
'Tuesday_'
'Tria'
'Travel_'
'Trad'
'Track'
'Tr'
'Tos'
'Tol'
'Tokyo_'
'Together_'
'Thirdly_'
'Theo'
'Theater'
'Thai_'
'Textil'
'Territorium_'
'Terra'
'Temperatur_'
'Tel'
'Techno'
'Tax_'
'Tap'
'Tanz'
'Tank'
'Tak'
'Table'
'TT'
'TS'
'TP'
'TEN'
'TEC'
'TC'
'Synchron'
'Symp'
'Sydney_'
'Sunni'
'Strom_'
'Store_'
'Stimme'
'Stift'
'Stich'
'Sternen'
'Station'
'Stabilitätspakt_'
'Staatsführ'
'Staat'
'St'
'Spl'
'Spirit'
'Spiels'
'Spezie'
'Speed_'
'Sparmaßnahmen_'
'Sou'
'Sonntag_'
'Solutions_'
'Software'
'Snowden_'
'Slovenia_'
'Sla'
'Sky_'
'Sk'
'Singh_'
'SilverFast_'
'Sicherheitsrat_'
'Shr'
'Shia_'
'Sh'
'Several_'
'Settings_'
'Senator'
'Selbstver'
'Selbstmord'
'Seh'
'Scott_'
'Scotland_'
'Scien'
'Schönheit_'
'Schä'
'Schwan'
'Schulungs'
'Schulb'
'Schock_'
'Schlag_'
'Schiffs'
'Schiffen_'
'Schan'
'Schad'
'Scar'
'Scandinavia'
'Sammlung_'
'Sag'
'SY'
'SW'
'SV_'
'STA'
'SLR_'
'SL'
'SIN'
'SG'
'SCO_'
'Russen_'
'Ruhe'
'Rota'
'Robert'
'River'
'Ring'
'Right_'
'Richtlinien'
'Revision_'
'Review_'
'Restr'
'Reso'
'Reserv'
'Res'
'Relax_'
'Rekord'
'Reit'
'Reisende'
'Registr'
'Referenz'
'Reden_'
'Record'
'Rechtssystem'
'Rechtsetzung'
'Recht'
'Rechenschaft_'
'Rebell'
'Reaktionen_'
'Ratsvorsitzes_'
'Randlage_'
'Ramblas_'
'Rahmens_'
'Rahmenprogramm'
'Raf'
'RSS_'
'RGB_'
'RG'
'Quark'
'Quant'
'Putins_'
'Pur'
'Prüf'
'Präsidentschaftswahlen_'
'Präsident'
'Präsenz_'
'Prot'
'Prof_'
'Prof'
'Produktp'
'Privileg'
'Presidents_'
'Premi'
'Prad'
'Pr'
'Pou'
'Portug'
'Portal'
'Popular_'
'Pon'
'Polit'
'Poi'
'Plans_'
'Pie'
'Physik'
'Photos'
'Photo'
'Philipp'
'Pharma'
'Petition'
'Patt'
'Partnern_'
'Part_'
'Parks_'
'Parkplätze_'
'Paradi'
'Pana'
'Palästinensischen_'
'Palästinens'
'Palästina_'
'Paketen_'
'Pack'
'Pac'
'PRINCETON_'
'Outl'
'Ott'
'Ost_'
'Oslo_'
'Osama_'
'Ori'
'Ora'
'Options'
'Opfern_'
'Operationen_'
'Operati'
'Olive'
'Objektiv'
'Oberste'
'Oberfläche_'
'Obasanjo_'
'OR'
'OPEC_'
'OM'
'OLAF_'
'OG'
'Nuevo_'
'Notenbank_'
'Norwegen_'
'North'
'Neug'
'Netto'
'Ner'
'Nep'
'Nelson_'
'Neither_'
'Nee'
'Nationalismus_'
'Napoleon_'
'Nap'
'Nachteil_'
'Nachh'
'NRO_'
'NP'
'NOT'
'NE_'
'NB'
'Mün'
'Music_'
'Mund'
'Moza'
'Motor_'
'Moskau_'
'Mosk'
'Moral_'
'Monte_'
'Monday_'
'Mobiltelefon'
'Mitter'
'Mittag'
'Mitarbeiter'
'Mis'
'Ministry_'
'Milo'
'Militar'
'Miles_'
'Miet'
'Meth'
'Meines_'
'Mehrheits'
'Mehrere_'
'McC'
'Maz'
'Materialien_'
'Master_'
'Martin'
'Marokko_'
'Market'
'Marken'
'Marc'
'Manda'
'Mand'
'Manage'
'Malaysi'
'Make_'
'Macedonia_'
'Maca'
'M5'
'Ly'
'Luggage_'
'Logo_'
'Loca'
'Loc'
'Lobby'
'Lizenz_'
'Lith'
'Lite'
'Linken_'
'Lied'
'Liebe_'
'Lich'
'Liberia_'
'Leuten_'
'Letztere'
'Leone_'
'Leonardo_'
'Leistungsbilanz'
'Leica_'
'Legitim'
'Legi'
'Lead'
'Large_'
'Lap'
'Lanka_'
'Landes'
'Lande_'
'Lama'
'Lad'
'LU'
'LIN'
'Kürzungen_'
'Kürze_'
'Kürz'
'König'
'Kurse'
'Kreditvergabe'
'Kos'
'Korruptions'
'Konzepte_'
'Konzept'
'Kontinents_'
'Konsultation_'
'Konstruktion'
'Kompromisse_'
'Kompon'
'Komplettpreise_'
'Kommentare_'
'Kommen'
'Kommando_'
'Kol'
'Koh'
'Know_'
'Knoten_'
'Klo'
'Klau'
'Kernwaffen_'
'Kenn'
'Kel'
'Kazakhstan_'
'Kathedrale_'
'Kart'
'Kapitals'
'Kapitalm'
'Kampa'
'Kam'
'Kal'
'Kab'
'KON'
'Jul'
'Joh'
'Jia'
'Jh'
'Jere'
'Jedoch_'
'Jav'
'Jane'
'Jakob'
'Jahrestag'
'Jagd'
'Jacuzzi_'
'Jack_'
'Jack'
'Istanbul_'
'Isol'
'Ion'
'Investment'
'Investitionsb'
'Intelligen'
'Intellektuelle'
'Instanz'
'Inlands'
'Inha'
'Industrieländer_'
'Inder_'
'Im'
'Ih'
'Ideal_'
'Ide'
'ION'
'INI_'
'INE'
'IC_'
'ICC_'
'Häuser_'
'Händen_'
'Hub'
'How'
'Horn'
'Hongkong_'
'Homosexu'
'Holocaust_'
'Hoffnungen_'
'Hof'
'Hintergr'
'Hindernisse_'
'Hilton_'
'Hilfe'
'Hil'
'Hierbei_'
'Herr'
'Herman'
'Herb'
'Heran'
'Her_'
'Hence_'
'Helm'
'Heat'
'Heads_'
'Have'
'Haushaltsdefizite_'
'Hast'
'Handlungs'
'Handelss'
'Halle_'
'Hall'
'Hafen'
'HP_'
'HI_'
'Göteborg_'
'Gutes_'
'Gui'
'Grill'
'Greater_'
'Gor'
'Good'
'God'
'Globale_'
'Gleiche'
'Gib'
'Gewähr'
'Gesetzgeb'
'Gese'
'Geschäftsle'
'Gesamte'
'Geräte_'
'Gere'
'Gerade_'
'Genu'
'Genehmigung_'
'Gene_'
'Gele'
'Gehä'
'Gebühr_'
'Gebäude'
'Game'
'Gam'
'Gall'
'Gai'
'Gaddafi_'
'GR'
'GL'
'GC'
'Föderation_'
'Fris'
'Freundschaft_'
'Freilassung_'
'Freie_'
'Frauen'
'Franco'
'Frag'
'Fotokopiereinrichtungen_'
'Foot'
'Fon'
'Folge'
'Flughafen'
'Flie'
'Flexi'
'Fleisch'
'Fitness_'
'Fischereipolitik_'
'Finnland_'
'Find'
'Finanzsystem_'
'Finanzen_'
'Finanz_'
'Few_'
'Fernseher_'
'Ferien_'
'Feinds'
'Fein'
'Feier'
'Features_'
'FM'
'Expo'
'Expansion_'
'Excel_'
'Exce'
'Ex_'
'Events_'
'Event_'
'Euros_'
'Europäisches_'
'Eu'
'Eth'
'Erwägung'
'Ern'
'Erla'
'Ericsson_'
'Erfüllung_'
'Erfo'
'Erdöl'
'Erdgas'
'Erderwärmung_'
'Entwicklungsa'
'Entsteh'
'Entlastung_'
'Enth'
'Enk'
'Energieeffizienz_'
'Energiea'
'End_'
'Empfänger_'
'Emirate'
'Elf'
'Eisb'
'Einzelnen_'
'Einwander'
'Einst'
'Einschätzung_'
'Einsch'
'Einr'
'Einkommens_'
'Einkaufss'
'Eingang_'
'Einfach'
'Eines_'
'Einen_'
'Eigentumsrechte_'
'Ehren'
'Eh'
'Ef'
'Economy_'
'Economi'
'ESS'
'Dänemark_'
'Durchbruch_'
'Duc'
'Dru'
'Drogenh'
'Drittstaaten_'
'Dritt'
'Drama'
'Dow_'
'Dorf'
'Donald_'
'Don'
'Dominion_'
'Division_'
'Disco'
'Diplomat'
'Digi'
'Dies'
'Diag'
'Demand_'
'Deg'
'Defizite_'
'Deep'
'Dea'
'Das'
'Darwin_'
'Darau'
'Dafür_'
'DR'
'DB'
'Crystal_'
'Creati'
'Converter_'
'Contr'
'Continental_'
'Conte'
'Consequently_'
'Connect'
'Conc'
'Computers'
'Coll'
'Coffee_'
'Cocktail'
'Citizens_'
'Christian'
'Choose_'
'Check'
'Chat_'
'Charme_'
'Charl'
'Charakter'
'Chaos_'
'Change_'
'Champs_'
'Chai'
'Centr'
'Cell'
'Cau'
'Cath'
'Cata'
'Case_'
'Cala'
'CN'
'CL'
'CHI'
'Bürgerkrieg_'
'Bundesrepublik_'
'Budget'
'Buck'
'Buche'
'Brust'
'Bruc'
'Bridge_'
'Brid'
'Brand_'
'Boom_'
'Bonn_'
'Bog'
'Boden'
'Bod'
'Bit'
'Bis'
'Bilde'
'Bibliotheken_'
'Bib'
'Bez'
'Bewerb'
'Betroffenen_'
'Betriebssystem_'
'Bestellung_'
'Beschl'
'Benach'
'Belo'
'Bell_'
'Belgrad'
'Bek'
'Beitrittskandidaten_'
'Behinderte'
'Begrenzung_'
'Bearbeit'
'Bath_'
'Basic_'
'Basi'
'Bankk'
'Baj'
'Bagdad_'
'Bag'
'Baby_'
'BSE_'
'BER'
'B6_'
'Azerbaijan_'
'Ayatollah_'
'Autonomiebehörde_'
'Ausw'
'Austin_'
'Ausstellung'
'Aussagen_'
'Ausr'
'Ausgabe'
'Auseinandersetzungen_'
'Ausbeutung_'
'Ausarbeitung_'
'August'
'Auflösung_'
'Aufla'
'Atlantik'
'Arti'
'Art'
'Aro'
'Archiv'
'Arbeitsm'
'Arbeitslosen'
'Arbeitskräften_'
'Arbeitsk'
'Arabischen_'
'Arabi'
'Applikation'
'Appl'
'Appart'
'Apart_'
'Any'
'Antonio_'
'Anschläge_'
'Anre'
'Anr'
'Annu'
'Annahmen_'
'Anhang_'
'Angr'
'Angl'
'Angabe_'
'Ambitionen_'
'Alon'
'Alltag_'
'Aktivität_'
'Aktivisten_'
'Akku'
'Ak'
'Afghan_'
'Aero'
'Admiral_'
'Add_'
'Ada'
'Abwertung_'
'Abstimmungs'
'Abstand_'
'Abs'
'Abe_'
'Abbildung'
'AT_'
'AS_'
'ASE'
'AND_'
'AL_'
'ALDE_'
'AKVIS_'
'89_'
'87_'
'78'
'76_'
'76'
'75'
'66'
'34'
'1980s_'
'198'
'1975_'
'1972_'
'171'
'1701_'
'163'
'140_'
'110_'
'0s_'
'010'
'/-_'
'.. _'
'.  _'
'. ({{_'
'. &_'
'. "_'
', (_'
'*_'
'**'
')]'
''']]'
'%), _'
'">'
'"-_'
' �_'
' “ _'
' =='
' %'
' "._'
' ", _'
'�'
'’ – _'
'— _'
'ע'
'х_'
'ро'
'не'
'м'
'ве'
'ο_'
'μ'
'ši'
'ła'
'Č'
'üß'
'ütte'
'ürf'
'üpf'
'ünft'
'üm'
'ührten_'
'ührer'
'üge_'
'ücht'
'übte'
'üblicherweise_'
'üblich_'
'übertri'
'übersteigt_'
'überschreiten_'
'überschr'
'übermittelt_'
'überla'
'überb'
'überarbeitet'
'üben_'
'ún_'
'ør'
'öst_'
'öse'
'örung_'
'örige'
'öhnlich_'
'öhl'
'öglich'
'ögen'
'öffentlich'
'ño'
'ér'
'éo'
'én_'
'ées_'
'ère'
'ça'
'äußerte_'
'äußerster_'
'ätig'
'ärkte_'
'änk'
'äne'
'änderte'
'änden_'
'änd'
'ämpf'
'äisch'
'ählige'
'ähl'
'ägyptischen_'
'ägt'
'äb'
'Überw'
'Übertre'
'Übers'
'Überna'
'Überg'
'Überf'
'Ölpreise'
'Ökonomien_'
'Ägypter_'
'» | _'
'·        _'
'  '
'}: _'
'|''_'
'zwang'
'zuzus'
'zuwei'
'zuwe'
'zut'
'zuse'
'zusammenzuarbeiten_'
'zusammenf'
'zusammenarbeit'
'zurückzuk'
'zurückgegangen_'
'zurückf'
'zurückb'
'zur'
'zula'
'zukunfts'
'zuh'
'zugestimmt_'
'zugelassen'
'zugeg'
'zugefü'
'zugeben_'
'zugang'
'zufällig'
'zuf'
'zub'
'zt'
'zona_'
'zine'
'zim'
'zielle'
'zie'
'zet'
'zess'
'zerst'
'zep'
'zentr'
'zeitlich'
'zeitge'
'zeigten_'
'zehn'
'yth'
'ypt'
'yo_'
'yi'
'yd_'
'yan_'
'wör'
'wäsche_'
'wuchs_'
'writer_'
'write'
'wra'
'wouldn_'
'worm'
'worfen_'
'wooden_'
'wonder'
'womöglich_'
'woh'
'wn'
'wm'
'witnessing_'
'withdrawn_'
'wissenschaftl'
'wirkungen_'
'wirksamere'
'wirksamer_'
'winners_'
'willkürlich'
'wield'
'wiederholte'
'wiederauf'
'wick_'
'whatsoever_'
'wette'
'weste'
'wesentlicher_'
'wesens_'
'wenigstens_'
'welcomed_'
'weiß'
'weiten_'
'weigert'
'websites_'
'weakening_'
'weaken_'
'wc'
'watch'
'wart_'
'wann_'
'wang'
'walt'
'wahrnehmen_'
'wahr_'
'wahlen_'
'waffe'
'vé'
'vy_'
'vorsorge_'
'vorsitzende'
'vorschläge_'
'vorschl'
'vornehmen_'
'vorne_'
'vorläufige'
'vorliegende_'
'vorigen_'
'vorgez'
'vorgetragen_'
'vorgestellt_'
'vorgeschrieben'
'vorbereiten_'
'vorbehalt'
'vorauss'
'voran_'
'voor'
'volunteer_'
'volume'
'voltage_'
'volatile_'
'vity_'
'visuali'
'visual_'
'vist'
'visits_'
'virus'
'virtue_'
'violate'
'vio'
'vil'
'vigor'
'vierte'
'viel'
'vib'
'veterinar'
'veröffentlichten_'
'veränderte'
'verzöger'
'verzichten_'
'verwund'
'verursachte_'
'verträg'
'verteidigt_'
'verteidig'
'verte'
'verständlich_'
'versto'
'versteckt'
'versprochen_'
'versprachen_'
'versorgen_'
'versi'
'versehen'
'verschuldet'
'verschr'
'vernehm'
'verlängert_'
'verleg'
'verlagern_'
'verknüpft_'
'verkehrs'
'verifi'
'verhältnis_'
'verhält'
'vergi'
'verg'
'verfolgte'
'vereinte'
'vereint_'
'vereinbarten_'
'verdoppelt'
'verbi'
'verbesserten_'
'verbe'
'verbann'
'verba'
'verantwortlichen_'
'vary_'
'varia'
'vacuum_'
'vaca'
'utzt'
'usti'
'usst'
'usschuss_'
'uropäische'
'uring_'
'urgi'
'urf_'
'uran'
'ups_'
'uppe'
'upload_'
'unüber'
'unzureichend_'
'unzulä'
'unvor'
'unverzüglich_'
'unvermeidlich'
'unterstreicht_'
'unterschr'
'unterrichte'
'unterminier'
'untereinander_'
'unt_'
'unsp'
'unsi'
'unres'
'unpr'
'unpa'
'unnötige'
'unmittelbarer_'
'unmi'
'unkt_'
'unklar_'
'univers'
'uniti'
'uniform_'
'uniform'
'unica'
'ungsvo'
'ungslose'
'ungsfrei'
'ungsa'
'unglaublich'
'ungl'
'unges'
'ungel'
'unea'
'unding_'
'undertakings_'
'underli'
'undenen_'
'unch'
'unbest'
'umst'
'umsetzen_'
'umgekehrt_'
'umfangreiche'
'ument'
'ume'
'umben'
'uma'
'ultat'
'ulos'
'ukt'
'uko'
'ugt'
'ufer'
'uchte'
'uc_'
'uali'
'ua_'
'u0027s_'
'tü'
'té_'
'té'
'tätigen_'
'tätig'
'tät'
'tär'
'tägliche_'
'tzu'
'typischer'
'twelve_'
'tw'
'tus'
'turmoil_'
'turm_'
'turen_'
'tue'
'trusted_'
'truck_'
'troubles_'
'trock'
'tries_'
'trick'
'tribu'
'tria'
'trapp'
'transported_'
'transparenter_'
'transparente'
'transnational_'
'transformation_'
'tragische'
'traf_'
'traditionelle'
'traded_'
'tract'
'tracking_'
'tower_'
'towels_'
'tow'
'toughe'
'toll_'
'tolerieren_'
'tne'
'tment'
'tma'
'tles'
'tland'
'tiz'
'tiven_'
'tite'
'tisa'
'tir'
'tione'
'timing_'
'tigen'
'tiefen_'
'tide_'
'tics_'
'tically_'
'throw'
'threatens_'
'thoroughly_'
'thirty_'
'thirds_'
'thinks_'
'therapie'
'therap'
'theoreti'
'theatre_'
'theatr'
'thanking_'
'textile_'
'tet'
'testen_'
'territoriale'
'territorial_'
'tent'
'tena'
'tempo_'
'temperatur'
'tem'
'tellung_'
'teles'
'telecommunications_'
'teilten_'
'teilnahm'
'teilgenommen_'
'tei'
'tbe'
'tausend_'
'tati'
'tate'
'take'
'tac'
'tab_'
'südlich'
'sätze_'
'szen'
'sze'
'systematische'
'sys_'
'synthesi'
'symptoms_'
'symbolis'
'sv'
'suspicion_'
'surp'
'supposedly_'
'suppliers_'
'supplement'
'supervision_'
'sung_'
'suche_'
'successor'
'subscribe'
'submi'
'stärkeren_'
'ständige'
'stä'
'sty'
'stuf'
'studierte_'
'strukturelle_'
'structured_'
'strikte'
'stress'
'strengen_'
'streng_'
'streichen_'
'strat'
'strafrechtliche_'
'strafrechtlich'
'stoßen_'
'stones_'
'stom'
'stitch'
'still'
'stieg_'
'stie'
'stete'
'sters_'
'stem'
'stellend_'
'steige'
'sted_'
'stays_'
'stattfindenden_'
'standardiz'
'stalt'
'stal'
'stabilize_'
'ssene_'
'ssal'
'srei'
'srate'
'sra'
'squeeze_'
'squ'
'sq'
'spri'
'spreche_'
'sprech'
'spiele_'
'sper'
'spell_'
'specta'
'specific'
'specif'
'specialize'
'speaks_'
'sozio'
'soziales_'
'sozial_'
'souve'
'sooner_'
'sont_'
'sonstige_'
'sollt'
'sola'
'soi'
'sofortige'
'sof'
'soeben_'
'socialism_'
'soc'
'smokers_'
'smart'
'slin'
'slide_'
'slas'
'sland'
'skill'
'skiing_'
'siz'
'sitzung_'
'sitz_'
'sition'
'sion'
'sinkende'
'simulation_'
'simplifi'
'simis'
'sik'
'signals_'
'sights_'
'sick'
'sichtige'
'shoot'
'shocks_'
'shocked_'
'shifts_'
'shifting_'
'shifted_'
'shelter'
'sexuelle_'
'settled_'
'sers'
'sern'
'senti'
'sentence_'
'senk'
'senh'
'sends_'
'self'
'selber_'
'seitdem_'
'sect'
'secre'
'secondary_'
'seas_'
'searche'
'sdi'
'scrap'
'score'
'sco_'
'schätzt_'
'schwächer'
'schwerwiegend'
'schutz'
'schul'
'schriftliche_'
'schreiten_'
'schreib'
'schottische'
'scholars_'
'schnell'
'schmutzung_'
'schmerz'
'schlimm'
'schlechter_'
'schlechte'
'schlag_'
'schade'
'sceptic'
'scenes_'
'sailing_'
'safely_'
'sach'
'röß'
'römische'
'räger_'
'rut'
'rumors_'
'ruktur'
'ruhige_'
'ruh'
'rubb'
'rub'
'rtun'
'rtschaft'
'rting_'
'rtige'
'rter'
'rsi'
'rseits_'
'rrt'
'rren_'
'ropo'
'roman_'
'robuste'
'rland'
'ritu'
'ritte'
'ritt_'
'rische'
'ringt_'
'rimin'
'rik_'
'rik'
'rien_'
'rieg_'
'rieden'
'rick'
'richtete_'
'rgen'
'rfer_'
'rfen_'
'reward'
'revol'
'revisi'
'reversed_'
'rev'
'reun'
'reten_'
'reta'
'ret_'
'restriktive'
'restrictive_'
'restraint_'
'restr'
'ressourcen_'
'reside'
'reservier'
'reserve'
'res'
'repress'
'repla'
'repercussions_'
'repa'
'rep'
'removal_'
'reminded_'
'remind'
'remember'
'relocat'
'relies_'
'relaxation_'
'rej'
'reiterate_'
'reite'
'reist'
'reinforce_'
'reinforc'
'reine'
'reiches_'
'reiben_'
'regulator'
'regulated_'
'regrettabl'
'regierung_'
'regelungen_'
'refund'
'reformed_'
'reflex'
'reflecting_'
'refle'
'reduzier'
'redundan'
'redit'
'recycle'
'rect'
'recr'
'recover'
'recording_'
'recom'
'reckt_'
'reck'
'rechtmäßig'
'recess'
'reap'
'realities_'
'rds_'
'rbe_'
'rationali'
'rational_'
'rasant'
'rap'
'rank'
'rali'
'rale'
'ral'
'raises_'
'rad_'
'ract'
'rachten_'
'quotas_'
'quisit'
'quip'
'query_'
'quarters_'
'quantity_'
'pure_'
'purchased_'
'punishment'
'punc'
'pulati'
'pul'
'publications_'
'pts_'
'psychological_'
'pré'
'präsident'
'präsentier'
'provin'
'protest'
'protectionism_'
'pronounced_'
'prominen'
'prol'
'projekte'
'programm'
'profitable_'
'profi'
'professionals_'
'proceed'
'problemlos_'
'private'
'print'
'principal'
'prevailed_'
'prev'
'preside'
'preserving_'
'pres'
'preliminary_'
'preisen_'
'preference_'
'preferable_'
'predict_'
'praktizier'
'ppo'
'ppeln_'
'ppa'
'pp_'
'pot'
'postko'
'possession_'
'possesse'
'poss'
'positives_'
'positioned_'
'pose'
'portray'
'portfolio_'
'porte'
'populistische'
'populist_'
'pop'
'politischem_'
'poc'
'plätze_'
'plo'
'pled'
'pleas'
'pla'
'pivot'
'pitz'
'pity_'
'pital'
'piscin'
'pipeline_'
'pin_'
'pilot'
'pile_'
'phan'
'pfl'
'pfen_'
'pf_'
'pez_'
'pet'
'pest'
'pes_'
'perse'
'perpetua'
'perm'
'pek'
'pedia_'
'pedestrian_'
'pear'
'pati'
'patents_'
'patch_'
'pastor'
'past'
'passi'
'part'
'park'
'parity_'
'paren'
'paradox'
'pap'
'panisch'
'palästinensische_'
'pala'
'painting_'
'pag'
'pad_'
'oz'
'overwhelm'
'overr'
'overn'
'overlooks_'
'overlook_'
'overcoming_'
'ours_'
'oul'
'oui'
'otten_'
'otis'
'osten_'
'osph'
'osk'
'orum_'
'orth'
'orsch'
'ork'
'orisch'
'oring_'
'orie'
'organic_'
'orf'
'ordneten_'
'ordnen_'
'orde'
'orb'
'orat'
'optimalen_'
'oppress'
'opponent_'
'opp'
'opi'
'operators_'
'ony_'
'onie'
'onale'
'omb'
'ols'
'ological_'
'oll_'
'olat'
'ois_'
'oing_'
'oile'
'oid'
'ohl'
'offizieller_'
'offens'
'offend'
'ofe'
'oduktion_'
'odo'
'odes_'
'odell'
'ocr'
'oci'
'ocean_'
'oc_'
'observation_'
'objection'
'oberste'
'obere'
'nördlichen_'
'näch'
'nza'
'nver'
'nutzbar_'
'ntwort'
'ntwick'
'ntly_'
'ntie'
'nten'
'ntag'
'nsti'
'nsche'
'nri'
'notw'
'notably_'
'notable_'
'norm_'
'nor'
'nonetheless_'
'nomi'
'nolog'
'noisy_'
'noc'
'nla'
'niu'
'nisses_'
'nische_'
'nik'
'niedrigeren_'
'nho'
'nglich_'
'ngel'
'nfa'
'newspapers_'
'nevertheless_'
'neutrali'
'neueste_'
'netzwerk'
'neo_'
'neo'
'nennt_'
'nell'
'nel_'
'neiden_'
'nehm'
'negotiating_'
'neck'
'ndung_'
'nders'
'nda_'
'nch'
'nberg_'
'naut'
'nationals'
'nationalist'
'nant'
'nalit'
'nag'
'nachzu'
'nable_'
'mütig'
'mäßigen_'
'männ'
'myth'
'muy_'
'mutige'
'muslimische_'
'musical_'
'music'
'murdered_'
'murder'
'mud_'
'mud'
'mpfe'
'mour'
'mou'
'motivier'
'moreover_'
'moral'
'moon_'
'mood_'
'monument'
'mons'
'monk'
'monitored_'
'modernis'
'mml'
'mmer'
'mma'
'mk'
'mixture_'
'mitteilen_'
'mitigat'
'mithilfe_'
'mitb'
'mistakes_'
'minimi'
'mines_'
'militants_'
'milit'
'mic_'
'mf'
'mexikanische'
'mett'
'meti'
'method'
'mete'
'merika'
'merger_'
'mercury_'
'menschlich'
'menschen'
'menge'
'mend'
'mena'
'memori'
'meltdown_'
'meinschaft'
'mehrfach_'
'medien'
'mble_'
'mbl'
'mba_'
'mayor_'
'matis'
'matic_'
'mater'
'matches_'
'mask_'
'mask'
'marvel'
'marsch'
'marriage'
'marki'
'margin_'
'march'
'marble_'
'manual_'
'mand_'
'maintains_'
'mainstream_'
'läßt_'
'lässig'
'lush_'
'lun'
'lug_'
'lowest_'
'loser_'
'lop'
'lokal'
'logistics_'
'lm'
'live'
'litt'
'lini'
'limitations_'
'limit'
'likes_'
'lifetime_'
'lick'
'lichste_'
'liberalisi'
'liberalis'
'lga'
'lg'
'levie'
'letting_'
'lette_'
'lent'
'lende'
'lend'
'leitete_'
'leite'
'leidenschaftlich'
'lebende'
'lear'
'ldet_'
'lden'
'lde'
'lc'
'lbar'
'laute'
'laundry_'
'latz'
'laste'
'laser_'
'lar_'
'laptop_'
'langsamer_'
'langsame'
'landwirtschaftlichen_'
'landschaft_'
'landes_'
'lamenta'
'lakes_'
'lak'
'laime'
'lager_'
'lager'
'ladi'
'künstliche'
'kühle'
'käm'
'kw'
'kut'
'kurzen_'
'kunft'
'kum'
'ku_'
'ktier'
'kti'
'kter'
'kräfte_'
'kreative_'
'kratie'
'kostenfreien_'
'kostenfreiem_'
'korrigiert_'
'korr'
'kontrolle_'
'kontrakt'
'konstitutionelle'
'konsolidier'
'konsequente_'
'konsequent_'
'konkret_'
'kompr'
'kompakt'
'kommunistischen_'
'kommerziellen_'
'kommen'
'komfortabel_'
'kolo'
'kollektive'
'koll'
'kod'
'knock'
'knapp'
'klär'
'klinische'
'kleinste'
'klasse_'
'klam'
'kilometre'
'killer'
'kill_'
'kill'
'kid'
'keys_'
'kee'
'kay'
'kata'
'kat'
'kapitalistische'
'kane'
'kamera'
'kalte'
'kalen'
'jüngst'
'jö'
'jus'
'junger_'
'jung'
'junct'
'jun'
'journal'
'jointly_'
'jeweilige_'
'jeu'
'ject'
'jack_'
'ix'
'ität'
'itig'
'italienische_'
'istische_'
'isti'
'issi'
'isse_'
'isoliert_'
'islav_'
'isiert_'
'ises'
'irgend'
'ires_'
'irc'
'ip_'
'ionary_'
'invol'
'invoke'
'inviting_'
'invited_'
'invention'
'interviews_'
'internationales_'
'interfere'
'interessier'
'intelligente'
'intell'
'integrieren_'
'integrati'
'institutionali'
'instances_'
'installations_'
'inspections_'
'insist'
'insight'
'insel'
'inoffiziell'
'innovat'
'inmitten_'
'inm'
'injustice_'
'initiat'
'inister'
'inhaltlich'
'inhalt'
'infa'
'iner'
'ineffiziente'
'industrializ'
'induce'
'individually_'
'individuali'
'indis'
'incredibly_'
'incorrect'
'inclin'
'inci'
'inal'
'improv'
'imprisoned_'
'impressed_'
'impoverished_'
'importe'
'implo'
'imper'
'imp'
'immung_'
'immi'
'iment'
'imaging_'
'ima'
'illnesses_'
'illig'
'iled_'
'ile'
'ilde'
'iha'
'ight'
'ielt'
'iegel'
'iefer'
'ids'
'idor'
'ido_'
'identisch'
'identifying_'
'identification_'
'ideale'
'icul'
'icon_'
'iche_'
'ice'
'ianische'
'iPhone_'
'höh'
'höchstwahrscheinlich_'
'höchste'
'häuser_'
'härte'
'hängig'
'hyp'
'hybrid_'
'hurr'
'hungry_'
'hung'
'hunderte'
'htm'
'hrung_'
'hou'
'hospital_'
'hore_'
'hop_'
'hol_'
'hohes_'
'hofft_'
'hoffentlich_'
'hnt_'
'hmu'
'hmbar'
'hm_'
'historisch_'
'hinnehmen_'
'hink'
'hinein'
'hilfen_'
'hiking_'
'hierarchi'
'hie'
'hic'
'het'
'hesi'
'herzustellen_'
'herzliche'
'hervorrufen_'
'hervorragende'
'herself_'
'hering_'
'herb'
'herausstellen_'
'heiz'
'heirate'
'height_'
'hedge'
'hec'
'hebt_'
'heate'
'header'
'haven_'
'hauses_'
'haul_'
'hartnäckig'
'harten_'
'harmonisiert'
'harmonise_'
'harmonis'
'harass'
'happiness_'
'hande'
'hal_'
'gültig'
'gä'
'gym'
'gust'
'guitar'
'guilty_'
'guiding_'
'guest'
'größt'
'grösste'
'grundlegend_'
'großzügig'
'grouping'
'grossen_'
'grie'
'grid'
'grave_'
'gratis_'
'grasp_'
'graphic_'
'graph_'
'graduate_'
'gnisse'
'glücklich_'
'globalisierte'
'gleicher_'
'gkeits'
'gitim'
'git'
'girls_'
'ging'
'gin_'
'gift_'
'geäußerten_'
'gezielt_'
'gewü'
'gewissem_'
'gewinnt_'
'gewinne'
'gewerb'
'gewec'
'gewaltige_'
'gewalt'
'gesundheitliche'
'gesu'
'gestellten_'
'gesteckt_'
'gespe'
'gespa'
'gesetzgeb'
'gesetze'
'gesenkt_'
'geschic'
'gerufen_'
'geru'
'geringste'
'gerichte'
'gerei'
'gerechter'
'gerau'
'gepfl'
'gep'
'geopolitical_'
'geographic'
'generati'
'generates_'
'genehmig'
'gende'
'gena'
'gemäßigte'
'gemeinschaft_'
'gemeinsames_'
'gema'
'geltend_'
'geleitet_'
'gelegene_'
'geklärt_'
'geistig'
'geist_'
'geholfen_'
'gehe'
'gehabt_'
'gegens'
'gefühl'
'gefr'
'gefolgt_'
'gebühren_'
'gebo'
'gebildete'
'geber_'
'geba'
'gd'
'gate'
'gastro'
'gases_'
'ganze'
'gangs'
'fürchte'
'führ'
'fü'
'fähig_'
'furnishings_'
'fundamentalist'
'functionality_'
'func'
'fulfilled_'
'ftig'
'fs'
'frustr'
'fro'
'fristige'
'friedliche_'
'friedlich_'
'freut_'
'frequent_'
'freiheit'
'freies_'
'freedoms_'
'fran'
'fot'
'forums_'
'fortzu'
'forschung_'
'formulierte'
'formula_'
'formula'
'formation'
'forgot'
'foreigners_'
'forecast_'
'forderte'
'fool'
'fond'
'folgende'
'flus'
'fluctuati'
'flow'
'flou'
'flood_'
'flood'
'flicht_'
'flexi'
'flavo'
'firewall'
'fires_'
'finanzielle'
'finali'
'fige'
'fierce_'
'fiction_'
'fet'
'feststellt'
'fester_'
'fenster_'
'feet_'
'feels_'
'feedback_'
'fect'
'featured_'
'feared_'
'favorite_'
'favori'
'fau'
'fashion'
'fascist_'
'fantastische'
'familiengeführte'
'fals'
'fairen_'
'faire_'
'fai'
'fad'
'facilitating_'
'fa_'
'eß'
'exzellenten_'
'exquisite_'
'expulsion_'
'exploring_'
'experimental_'
'experiment'
'experiencing_'
'expedi'
'expansion'
'expan'
'exp'
'exercis'
'executives_'
'exci'
'excessively_'
'examination_'
'exact_'
'ewe'
'evolved_'
'evo'
'eventuell_'
'eventual_'
'eut'
'europaweite'
'euer'
'etzte'
'etri'
'etes_'
'eter'
'etablieren_'
'estr'
'esso'
'essi'
'espa'
'esp'
'erzählt'
'erzeugte'
'ery_'
'erweiterten_'
'erwe'
'erungen_'
'ertrag'
'erschien_'
'erschaffen_'
'errichtete'
'erregend'
'erneuerbaren_'
'erneuerbare_'
'ermo'
'erläutern_'
'erkrank'
'erkennbar_'
'erinnere_'
'erhöhten_'
'erholsame'
'erhielten_'
'erhebt_'
'erhalt'
'erfreu'
'erfasst_'
'erfahrene'
'erend'
'enver'
'entwurf_'
'entwickl'
'entste'
'entsprechende'
'entschä'
'entrance_'
'entlich'
'entgegens'
'entge'
'entfernten_'
'entails_'
'enso'
'ensi'
'enrich'
'enpr'
'enorme'
'enntnis'
'ennen_'
'enlighten'
'enjoyable_'
'englische'
'englis'
'enforce_'
'endure'
'endung'
'endanger'
'encourages_'
'encountered_'
'empower'
'employ_'
'empiri'
'emo'
'emble'
'elli_'
'elin'
'eliminating_'
'elf_'
'elemente'
'eleganten_'
'electr'
'eite'
'einziges_'
'einzigartige'
'eint'
'einstellungen_'
'einräumen_'
'einnimmt_'
'einmalige_'
'einleiten_'
'einhergehen'
'einheitlich'
'einges'
'eingerichteten_'
'eingef'
'eingebe'
'einfl'
'einbringen_'
'eilung_'
'eile'
'eig'
'eib'
'ehrung'
'ehrt'
'egu'
'effic'
'educat'
'edu'
'eckt_'
'echo'
'eche'
'ece'
'ebnen_'
'eat'
'dür'
'dys'
'dynamisch'
'dynami'
'dyn'
'durchzusetzen_'
'durchschnittliche_'
'durchgeführten_'
'duration_'
'dura'
'dt'
'dron'
'dres'
'drau'
'dr'
'dozens_'
'dow'
'dorf_'
'doppelt_'
'donors_'
'dong_'
'donat'
'divide_'
'divert'
'diversen_'
'ditie'
'districts_'
'distressed_'
'distract'
'distr'
'distinctive_'
'distanz'
'disso'
'dispe'
'disk'
'dish'
'disgu'
'discriminatory_'
'discr'
'discount_'
'disastrous_'
'disab'
'directors_'
'diplomats_'
'dine'
'dil'
'digitale_'
'differ'
'diesjährigen_'
'diesel_'
'dienst'
'did'
'dictator_'
'dick'
'dicht_'
'dial'
'dez_'
'devastat'
'deutet_'
'deterren'
'determin'
'detection_'
'detected_'
'detect_'
'dete'
'destructive_'
'desti'
'deserve_'
'desde_'
'deriv'
'deral'
'depression_'
'deposits_'
'deployed_'
'density_'
'dens'
'dence_'
'demselben_'
'demografische'
'democratiz'
'demo'
'delightful_'
'delete_'
'delays_'
'deinem_'
'defizit_'
'definitions_'
'definierten_'
'deficienc'
'ded'
'decree'
'decreased_'
'decisively_'
'debattier'
'debated_'
'dde'
'dba'
'daughter_'
'dauern_'
'dauerhaft_'
'daten'
'das'
'dangers_'
'dane'
'dance_'
'dan_'
'damages_'
'dam'
'dairy_'
'dachte_'
'cuti'
'cus_'
'culat'
'ctu'
'ctive_'
'ction'
'creditor_'
'cr'
'courage_'
'counterparts_'
'counterp'
'counterfeit'
'countera'
'counsel'
'couldn_'
'cotton_'
'cott'
'cos'
'correspond_'
'corps'
'cooperat'
'cool_'
'convention_'
'conven'
'contributor'
'contra'
'continents_'
'contexts_'
'conten'
'container'
'consult_'
'consult'
'consol'
'consi'
'consent_'
'conform'
'confirms_'
'configure_'
'condi'
'condemned_'
'cond'
'concentrat'
'compulsory_'
'comprise'
'compr'
'compound'
'compliment_'
'completion_'
'complaint_'
'compl'
'competitors_'
'competent_'
'commend'
'commande'
'command'
'combines_'
'coll'
'cola'
'coh'
'cob'
'coat'
'clos'
'clin'
'cliff'
'clearer_'
'cle_'
'ckl'
'cket_'
'circum'
'circulation_'
'ciona'
'cinema'
'cien'
'cially_'
'cial_'
'chung_'
'chte'
'chsl'
'chsel'
'chrono'
'chronische'
'chor'
'chma'
'chli'
'chle'
'chir'
'chicht'
'ches'
'checks_'
'checke'
'cheat'
'chase'
'charit'
'characteristic_'
'chaoti'
'chancen_'
'cham'
'challenging_'
'chairs_'
'chai'
'chaften_'
'cess'
'ceremon'
'ception_'
'cents_'
'cens'
'celebration_'
'celebrated_'
'celebr'
'cease_'
'cave'
'caution_'
'cau'
'catastrophe_'
'casualties_'
'caste'
'cara'
'captured_'
'capita_'
'cap'
'cana'
'came'
'cad'
'caci'
'burst_'
'bung'
'bulk_'
'brutalen_'
'browsing_'
'brin'
'brilliant_'
'bright'
'breiter_'
'breit_'
'breich'
'breed'
'brechen_'
'breche'
'breaks_'
'br'
'bou'
'bookings_'
'bombard'
'boli'
'boh'
'boden_'
'board'
'blic'
'blatt_'
'bkommen_'
'bitter_'
'bits_'
'bird_'
'biologischen_'
'bill_'
'bilde'
'bil'
'bid'
'bezieh'
'bezeichnete'
'bezahl'
'bewährte'
'bewaffnet'
'bevölkerung_'
'beverages_'
'beurteil'
'beu'
'bets_'
'betrieb_'
'besuchten_'
'bestü'
'bestände_'
'bestä'
'bestreb'
'bestimmungen_'
'besser'
'beso'
'beside'
'besetzt_'
'beschä'
'beschuldigt'
'beschreiben_'
'berufliche_'
'berichte'
'bereichen_'
'bene_'
'benannt'
'benachbarten_'
'bemüh'
'bem'
'belongs_'
'belie'
'bekannter'
'beider_'
'begünstigt'
'begehen_'
'begannen_'
'befr'
'befolgt_'
'befo'
'befe'
'beer_'
'beeinträchtigt_'
'bedrohlich'
'beding'
'bedeutendsten_'
'bedeut'
'bedding_'
'beck_'
'beat_'
'beat'
'bble'
'bay_'
'baut_'
'bases_'
'bands_'
'bai'
'backs_'
'axis_'
'awaken'
'awa'
'av'
'autori'
'automobile'
'automatischen_'
'auth'
'auszuwei'
'auszud'
'auswei'
'aust'
'aussp'
'ausser'
'ausse'
'ausschließ'
'ausschl'
'ausp'
'ausn'
'auslös'
'ausländischer_'
'ausgi'
'ausgeübt_'
'ausgewählten_'
'ausgest'
'ausgerichtete'
'ausgef'
'ausgebildet'
'ause_'
'ausdrückliche'
'auschen_'
'ault_'
'auli'
'aug'
'aufzuh'
'auftra'
'aufsicht'
'aufgestellt'
'aufgel'
'aufgehoben_'
'aufgebaut_'
'aufbe'
'audit'
'attend_'
'atten_'
'attach'
'atra'
'atr'
'atom'
'astung'
'asti'
'assurance_'
'assess'
'asserti'
'aspire'
'asp'
'armo'
'armi'
'arl'
'arising_'
'argumentieren_'
'argues_'
'arge'
'arde'
'archives_'
'architektonisch'
'architect'
'arabisch_'
'aqua'
'apu'
'appreciat'
'anzupassen_'
'anzuh'
'anzubieten_'
'antra'
'anteil_'
'anstelle_'
'anschl'
'anscheinend_'
'annex'
'anl'
'anhe'
[...]
